, 292955
. 214130
die 87602
und 78930
der 58015
ist 53599
das 47248
in 46310
zu 45611
ich 40845
wir 39740
es 38612
Sie 32753
sie 31370
&quot; 29950
ein 29801
von 28782
dass 28672
nicht 28559
eine 27538
Und 25839
den 25235
mit 22641
Ich 20578
auf 20344
: 19708
sich 19182
wie 19145
sind 18494
? 17690
haben 17607
für 17237
an 15462
man 15447
war 14885
Das 14778
als 14618
um 13866
Es 13747
so 13656
diese 12980
was 12882
Wir 12641
dem 12632
im 12445
wenn 11727
einen 11685
uns 11399
er 11119
können 10712
werden 10566
oder 10476
aus 10168
des 9921
hat 9910
aber 9502
auch 9405
über 9239
einer 9215
Aber 9050
Die 9047
einem 9029
kann 8992
nur 8528
wird 8509
sehr 8480
Menschen 7998
-- 7940
hier 7917
mich 7884
gibt 7803
– 7572
dann 7450
also 7348
sein 7228
etwas 6926
noch 6799
sehen 6780
habe 6561
mir 6424
nach 6406
dieser 6399
Wenn 6012
mehr 5921
Welt 5696
alle 5599
bei 5565
vor 5507
wurde 5255
Ihnen 5111
machen 5094
- 5017
zum 4937
wirklich 4786
meine 4768
immer 4731
weil 4675
tun 4558
durch 4511
Also 4477
-@@ 4344
hatte 4300
Er 4293
viel 4273
unsere 4261
am 4245
dieses 4232
Was 4179
keine 4093
da 4062
Leute 4058
ihre 4020
Zeit 4004
müssen 3941
diesem 3863
♫ 3851
waren 3831
viele 3825
Leben 3799
sagte 3790
sagen 3788
Dinge 3788
diesen 3745
einfach 3730
Jahren 3719
eines 3660
andere 3573
bin 3562
wissen 3560
zwei 3514
jetzt 3511
anderen 3476
ver@@ 3455
ihr 3439
In 3372
Art 3360
alles 3310
würde 3297
geht 3262
zur 3260
Der 3235
damit 3211
wo 3179
Wie 3173
bis 3075
er@@ 3074
Jahre 3034
du 3007
muss 2917
dies 2905
selbst 2859
gut 2852
an@@ 2831
schon 2778
denn 2755
Man 2752
mein 2702
ihnen 2659
möchte 2658
ten 2656
ge@@ 2653
vielleicht 2646
wieder 2644
Nun 2624
gehen 2533
te 2500
davon 2489
heute 2428
ganz 2427
hatten 2424
un@@ 2417
; 2410
Geschichte 2406
ab@@ 2403
ein@@ 2402
ob 2392
all 2391
Hier 2378
Kinder 2340
&apos; 2334
ihn 2318
Diese 2303
auf@@ 2282
einige 2273
könnte 2272
dort 2266
wollen 2263
be@@ 2242
aus@@ 2235
meiner 2232
kommen 2223
Jahr 2220
paar 2203
drei 2201
wurden 2198
darüber 2178
genau 2164
werde 2161
nun 2155
! 2153
sondern 2117
tatsächlich 2100
gab 2093
Ver@@ 2089
unserer 2031
k@@ 2021
Beispiel 2021
Als 2012
seine 2010
finden 2004
Problem 1996
geben 1988
wäre 1979
Ein 1978
en@@ 1976
en 1975
denken 1963
s 1955
denen 1951
kommt 1942
denke 1941
vom 1935
macht 1925
neue 1914
Teil 1911
gemacht 1910
dazu 1891
sogar 1875
kein 1866
weiß 1859
mal 1849
zwischen 1835
einmal 1829
Tag 1826
weiter 1821
glaube 1815
ung 1805
So 1800
Dies 1791
gerade 1774
ohne 1757
Frage 1752
zeigen 1745
nichts 1712
ihren 1710
würden 1708
Frauen 1707
sieht 1707
dafür 1703
unter 1700
nie 1695
lassen 1693
will 1692
unser 1687
leben 1686
passiert 1685
zurück 1682
konnte 1682
ersten 1677
sch@@ 1663
Arbeit 1654
Eine 1650
verstehen 1639
jeder 1629
daran 1613
während 1609
Millionen 1608
Ihre 1608
etwa 1599
erste 1594
Prozent 1593
An@@ 1587
warum 1580
K@@ 1573
ja 1562
letzten 1550
sollten 1541
ging 1541
Idee 1541
sollte 1538
bekommen 1535
über@@ 1531
bringen 1522
meinen 1516
Land 1505
meinem 1502
könnten 1499
kam 1495
große 1494
arbeiten 1493
meisten 1489
wollte 1483
sprechen 1481
nehmen 1477
ganze 1467
S@@ 1464
sagt 1448
wichtig 1444
natürlich 1432
besser 1432
ihrer 1431
s@@ 1429
ziemlich 1424
vor@@ 1423
dabei 1417
Mal 1414
Weg 1400
Bild 1385
Wasser 1367
darauf 1357
weniger 1347
doch 1338
sten 1336
kleinen 1334
ent@@ 1332
Geld 1331
ins 1330
ter 1329
t@@ 1328
zusammen 1326
Ende 1318
stellen 1318
Daten 1315
gesehen 1305
bedeutet 1301
Dank 1296
Dollar 1294
P@@ 1291
Im 1283
unseren 1283
Dann 1282
Sache 1281
Technologie 1280
dachte 1275
Sch@@ 1264
ische 1261
brauchen 1255
Mann 1255
Warum 1253
10 1253
d@@ 1251
welche 1250
Gehirn 1245
kleine 1240
z@@ 1237
ihm 1234
A@@ 1232
Ihr 1229
Seite 1226
eigentlich 1221
ern 1221
jemand 1220
großen 1218
F@@ 1203
st@@ 1202
B@@ 1199
m@@ 1197
vier 1194
„ 1193
Aus@@ 1187
ischen 1181
ab 1179
f@@ 1176
Denn 1176
um@@ 1175
t 1174
ungen 1174
Weise 1172
Vor@@ 1170
gesagt 1166
Frau 1161
de 1157
ganzen 1151
% 1147
... 1144
Raum 1140
keinen 1138
Grund 1131
Menge 1130
versuchen 1127
R@@ 1123
jeden 1119
allen 1118
hätte 1114
gegen 1112
gen 1112
glauben 1110
Ab@@ 1103
Person 1100
b@@ 1100
Danke 1099
zu@@ 1094
später 1090
vielen 1087
Vielen 1086
Zukunft 1084
beim 1078
in@@ 1077
a 1075
Ort 1074
“ 1071
schaffen 1068
E@@ 1066
lernen 1066
H@@ 1065
20 1064
konnten 1061
Er@@ 1060
bauen 1059
ch@@ 1058
Da 1058
eigenen 1056
heißt 1055
seit 1054
heraus 1052
chen 1051
fast 1050
Ja 1048
wenig 1047
funktioniert 1047
Jetzt 1044
Kind 1042
indem 1039
L@@ 1039
Ein@@ 1037
G@@ 1036
ungs@@ 1034
nutzen 1030
M@@ 1020
D@@ 1019
Erde 1017
Moment 1013
Probleme 1012
N@@ 1009
oft 1006
el@@ 1005
möglich 1002
sicher 1002
gute 1001
schnell 998
jedes 997
helfen 996
n@@ 994
liche 989
sah 988
Stadt 985
e 985
ge 978
wahrscheinlich 977
seiner 977
pro 976
Be@@ 976
lange 976
ere 974
halten 974
Du 973
zeigt 971
System 963
erzählen 960
g@@ 960
stehen 959
genug 949
neuen 947
fünf 944
unserem 944
al@@ 943
lang 938
Fall 937
nächsten 934
ste 931
USA 927
begann 925
Mutter 916
Wissen 912
lichen 911
T@@ 906
richtig 904
isch 904
liegt 902
jede 901
fragen 900
i 898
lich 894
Computer 893
unter@@ 893
ungefähr 889
st 888
spielen 885
Un@@ 884
Körper 880
Schule 880
anders 879
Mit 877
bisschen 877
Leuten 875
seinen 868
Planeten 867
ende 866
sei 865
e@@ 864
weit 864
sagten 862
Informationen 862
kennen 860
gehört 860
reden 859
hin 859
i@@ 859
verändern 858
enden 857
Ideen 857
Meine 853
h@@ 852
durch@@ 848
W@@ 847
erst 847
steht 847
l@@ 844
überall 841
los 833
Energie 832
darum 826
Fragen 825
Für 819
Antwort 818
Projekt 818
Milliarden 817
Dieses 816
ihrem 816
Punkt 815
musste 814
nennen 814
o 809
erkennen 808
anderes 807
C@@ 806
dich 806
hören 806
Afrika 805
30 805
ieren 803
bereits 803
end 802
oben 802
entwickelt 799
euch 798
machte 795
wer 795
m 793
führen 792
o@@ 792
100 791
ie 789
50 788
Männer 785
Nein 784
Ge@@ 781
hin@@ 781
Auf@@ 780
&#91; 780
eren 779
&#93; 779
Form 778
gar 778
erreichen 778
Familie 778
besonders 777
Minuten 776
gleich 776
Natur 775
je 774
♪ 774
Mädchen 770
namens 769
Arten 769
Unternehmen 769
verschiedene 768
hätten 765
Licht 765
Gruppe 765
Mein 764
benutzen 763
New 763
seinem 761
gerne 761
bevor 760
Internet 754
klar 753
Oder 752
schauen 751
Buch 751
gt 751
darin 748
Vielleicht 746
Gesellschaft 742
braucht 740
Augen 739
p@@ 739
ändern 738
Geschichten 737
Weil 737
zurück@@ 736
Hand 733
Doch 731
a@@ 726
re@@ 725
jedem 723
Auf 721
or@@ 721
einigen 719
zusammen@@ 718
alt 717
O@@ 709
Bilder 709
nen 709
Wissenschaft 708
Sprache 708
weg 708
vorstellen 707
bewegen 704
sen 703
Gefühl 702
alen 701
di@@ 699
Z@@ 699
Angst 699
sage 699
em 698
Okay 698
Indien 697
r@@ 696
men 696
entwickeln 695
erhalten 694
Patienten 693
soll 693
Lebens 692
Musik 691
Möglichkeit 690
irgendwie 689
verschiedenen 686
ziehen 686
Kopf 686
Um 685
schwer 684
Regierung 684
ens 683
Vater 682
manchmal 681
gleichen 680
beiden 680
w@@ 679
Stunden 678
eln 677
Macht 676
wollten 676
Re@@ 676
wegen 673
besten 672
Über@@ 671
eher 666
fen 665
Gott 665
ken 665
verändert 665
Vor 664
ert 664
nämlich 662
tes 661
verwenden 661
einzige 661
sechs 660
ale 660
getan 658
menschlichen 658
Hause 657
Sachen 656
ä@@ 655
iert 650
ar@@ 650
fand 648
hoch 646
le 646
kamen 646
ei@@ 646
bringt 646
g 643
teilen 639
ger@@ 639
China 639
Dieser 638
innerhalb 638
J@@ 637
bar 637
treffen 635
Kindern 635
schreiben 633
Gebäude 631
u@@ 630
Eltern 629
wohl 629
überhaupt 628
dir 625
es@@ 623
Auto 623
aller 623
alten 622
Haus 621
unglaublich 620
herum 619
ne 618
li@@ 618
Wort 617
Länder 616
ter@@ 616
be 615
at@@ 612
Design 612
essen 609
zwar 609
versucht 609
allem 608
15 608
sp@@ 607
beginnen 607
Lage 605
Universum 604
2 603
Bei 602
mit@@ 601
fühlen 596
on@@ 596
führt 595
nach@@ 595
gesch@@ 593
deren 593
groß 592
lässt 591
ri@@ 590
Glück 590
Erfahrung 589
nahm 588
gen@@ 587
In@@ 585
ger 585
Tiere 584
Stellen 584
fahren 584
Oh 584
meines 584
mussten 583
stellt 582
St@@ 582
se 581
ro@@ 580
unten 579
Entwicklung 579
Roboter 578
Dingen 578
Freunde 577
Stück 576
Zu@@ 575
letzte 574
Film 574
nächste 573
weitere 573
eins 573
gleiche 572
wusste 571
tut 570
menschliche 568
ü@@ 568
ben 566
on 565
schön 563
setzen 562
solche 561
Spiel 561
gern 559
licher 559
Anfang 558
Grunde 558
bleiben 557
Ziel 556
Sinn 556
ellen 555
eigene 555
Publikum 555
Zum 554
genommen 553
stand 552
recht 552
stellte 551
Video 550
dessen 550
nimmt 550
I@@ 550
Lassen 549
de@@ 549
worden 549
suchen 549
fragte 549
Nicht 548
Möglichkeiten 547
Ist 547
lösen 547
Verhalten 545
jedoch 543
mag 543
ti@@ 543
wären 543
der@@ 542
damals 542
York 541
obwohl 541
au@@ 540
Kunst 540
1 538
40 537
kaufen 537
Unterschied 536
völlig 536
Thema 535
k 535
Hilfe 534
y@@ 534
-S@@ 533
niemand 531
her 531
che 531
neu 530
ch 530
z 530
Woche 529
direkt 528
Denken 526
kurz 526
3 526
wahr 525
et@@ 525
Wochen 525
Kultur 525
Staaten 524
besteht 524
lesen 523
zer@@ 523
falsch 522
Monate 521
elle 520
sollen 519
Tage 516
gebaut 516
n 515
ges@@ 515
betrachten 514
5 513
interessant 513
Viele 512
Lösung 511
gel@@ 511
Bewegung 511
Namen 511
Liebe 511
ischer 509
schen 507
genauso 507
ke 507
Ländern 506
am@@ 506
os@@ 505
zuvor 502
Zellen 501
Lehrer 501
Wirtschaft 500
größte 497
zweite 496
Heute 495
gefunden 495
sterben 494
gegeben 494
Ihren 494
is@@ 494
ell 494
fanden 494
Essen 494
Autos 492
anderer 492
Wasser@@ 491
unseres 491
Unsere 490
liebe 488
Fähigkeit 488
bitte 487
legen 485
Unter@@ 485
scheint 482
Grund@@ 482
findet 481
welches 481
isches 481
bereit 480
Prozess 479
draußen 478
me 478
000 478
her@@ 478
Mensch 478
Gedanken 477
bewusst 476
Tages 476
Jeder 475
hinter 474
sehe 474
Modell 473
erinnern 473
TED 473
hast 473
fest 473
u 472
schließlich 470
Am 470
Krieg 470
gelernt 469
Krebs 469
at 469
Zahl 469
Natürlich 469
ber@@ 469
Sehen 468
Alles 466
Schul@@ 465
h 465
Wer 465
Technologien 464
e-@@ 464
Wissenschaftler 464
gewesen 463
Boden 463
sche 462
anzu@@ 462
Verbindung 461
größten 461
passieren 460
ö@@ 460
tragen 459
Reihe 458
tern 458
chten 458
Luft 457
funktionieren 457
erschaffen 457
ierte 457
ts 456
liches 456
schwierig 455
en-@@ 455
mache 455
Nach 455
erklären 454
geworden 454
den@@ 454
Studenten 453
Tatsache 453
ster 452
erte 452
jemals 452
daraus 451
kon@@ 451
brachte 450
ausge@@ 450
bist 450
se@@ 450
le@@ 449
schrieb 449
ten@@ 449
fliegen 448
Wahrheit 448
gingen 448
Richtung 448
all@@ 448
erten 447
kt 447
it@@ 447
us 447
ck@@ 446
gezeigt 446
sieben 446
Jahrhundert 446
tet 446
deshalb 446
miteinander 445
schlecht 445
nachdem 444
glücklich 444
kleines 444
tat 443
ß@@ 443
möchten 443
l 442
gest@@ 442
Gemeinschaft 442
stark 442
as 442
op@@ 442
el 442
Alle 442
Sp@@ 441
ber 441
Anzahl 441
beginnt 440
Einige 440
Tatsächlich 440
Gesundheit 439
anfangen 439
falls 439
Schritt 438
bei@@ 437
th@@ 436
Al@@ 436
ni@@ 436
ange@@ 436
bekommt 435
Nacht 435
ot@@ 435
len 435
dern 434
plötzlich 434
Aufgabe 433
Technik 433
CA 433
Stimme 433
leicht 432
ene 432
danach 431
Muster 431
cht@@ 431
verbunden 430
sen@@ 430
laufen 429
ation 429
Deshalb 429
Freund 428
Ihrem 428
guten 427
är@@ 427
Studie 427
verwendet 427
aussehen 426
wert 426
4 425
ler 425
Umgebung 425
V@@ 424
Ihrer 424
egal 422
al 422
Rolle 422
testen 422
Teile 422
genannt 421
system 421
Pro@@ 421
Veränderung 421
Vorstellung 420
Platz 419
rei@@ 419
entfernt 418
tige 418
Um@@ 417
Situation 417
weg@@ 416
Städte 416
Bedeutung 416
Größe 415
ra@@ 415
acht 415
machten 415
zehn 415
sk@@ 413
Hälfte 413
kleiner 411
Bildung 411
hoffe 411
Herausforderung 411
nachdenken 410
sofort 410
benutzt 410
jemanden 410
gebracht 409
beste 408
niemals 407
Meinung 406
zeige 406
elt 406
beide 405
v@@ 404
Kraft 404
Erfolg 403
ständig 403
cht 402
voll 402
Realität 402
zeit 401
Amerika 401
bekam 400
Entscheidungen 400
bekannt 400
Kon@@ 400
weltweit 400
verloren 400
Team 400
soziale 399
erreicht 399
ie@@ 398
wei@@ 398
Maschine 398
wachsen 398
liegen 397
wer@@ 397
mögen 397
b 397
Haupt@@ 395
Während 395
innen 395
s-@@ 394
zen 393
Mar@@ 393
os 393
chte 393
Straße 393
Di@@ 393
komplett 393
Gen@@ 392
voller 392
allein 392
Labor 391
hoch@@ 391
Rest 391
ak@@ 391
Schauen 390
Firma 390
dachten 390
geschrieben 390
eh@@ 389
Nur 389
ft 389
Foto 389
Sicherheit 388
gegenüber 388
Nach@@ 388
Bereich 388
Generation 387
gekommen 387
stimmt 387
Mitte 387
U@@ 386
Sonne 386
as@@ 386
Arbeits@@ 386
größer 385
Reise 385
ierten 385
ag@@ 384
lichkeit 384
interessiert 383
länger 383
schneller 383
finde 383
Forschung 382
Ar@@ 381
Von 381
einander 381
OK 380
is 380
Karte 380
Fähigkeiten 380
Zahlen 380
kl@@ 379
geschieht 379
heraus@@ 379
25 379
sonst 379
Vereinigten 379
statt 379
nahmen 379
Gewalt 378
geboren 377
Oberfläche 377
daher 377
herauszufinden 376
auszu@@ 376
bewegt 376
Qu@@ 376
Krankheit 376
sa@@ 375
t-@@ 375
Mon@@ 375
Beziehung 375
Wert 374
nennt 373
&amp; 373
ier@@ 373
tischen 373
Meter 372
absolut 372
Lebens@@ 371
gestellt 371
Se@@ 371
neues 371
Revolution 371
lieben 371
bilden 370
All 369
Europa 369
einfache 368
gte 368
nein 368
Selbst 367
gesamte 367
Struktur 367
Ergebnis 367
Wo 367
sahen 367
sprach 367
Markt 366
hen 366
/ 366
ur@@ 366
tig 365
sozialen 365
Auch 364
begannen 363
d 363
zi@@ 362
cher 362
sitzen 361
Hand@@ 361
alte 361
hal@@ 361
Hoffnung 361
fer@@ 360
versch@@ 360
ster@@ 359
f 359
führte 359
Ding 359
wieder@@ 359
fallen 358
wichtige 358
tigen 358
wichtiger 358
möglichen 358
Schulen 357
großer 357
zuerst 357
anstatt 357
Fehler 357
än@@ 356
gemeinsam 354
hält 354
aufzu@@ 353
gearbeitet 353
ähnlich 353
80 353
arbeitet 352
» 352
weiter@@ 351
junge 351
gleichzeitig 351
vi@@ 351
Gesicht 350
bestimmt 350
passierte 350
60 350
bestimmten 349
ts@@ 349
äu@@ 349
Kosten 348
erung 348
Regeln 348
12 348
Tod 348
Alter 347
« 347
bi@@ 347
ut@@ 346
200 345
gegangen 345
arbeitete 345
best@@ 345
läuft 344
Tat 344
Bevölkerung 343
ers 343
langsam 343
bare 343
Mitgefühl 342
Welt@@ 342
bleibt 342
Wahl 342
Können 341
Bücher 341
cken 341
beobachten 341
versuchte 341
ansehen 340
Demokratie 340
Bau@@ 340
Mit@@ 339
Orte 338
Gruppen 338
gesprochen 338
Aufmerksamkeit 338
ta@@ 337
Preis 337
Monaten 337
Information 337
enen 336
si@@ 334
Vortrag 334
Kontrolle 334
3@@ 333
om@@ 333
Material 333
lei@@ 333
Medien 333
richtige 332
bald 332
vorher 332
Theorie 332
j@@ 331
bessere 331
Bi@@ 331
Eines 330
verbessern 330
Job 330
gende 330
ff@@ 330
a-@@ 329
richtigen 329
großes 329
An 329
zei@@ 329
lt 329
aten 328
gef@@ 328
la@@ 328
lebt 328
verlassen 327
Stelle 327
ol@@ 327
folgen 327
fer 327
geb@@ 327
Ent@@ 327
500 327
Krankheiten 326
Spiel@@ 326
fällt 325
bt 325
Daher 325
einzelne 325
Umwelt 325
wussten 324
Google 324
Seiten 324
baren 323
Amerikaner 323
er-@@ 323
versuche 322
gewinnen 322
to 322
denkt 322
Zugang 322
bel@@ 320
ul@@ 320
ik@@ 320
Beispiele 320
— 319
Experiment 319
ihres 319
Le@@ 319
offensichtlich 319
ationen 318
em@@ 318
6 318
Genau 317
Grenzen 317
Orten 317
kannst 317
ung@@ 317
Gebiet 316
Uhr 316
Tagen 316
abzu@@ 316
lung 315
Innovation 315
tz@@ 315
anschauen 315
frei 314
mer 314
Konzept 314
verlieren 314
Chris 314
erlaubt 314
Nachricht 314
erzählt 313
zumindest 313
Spaß 313
ben@@ 313
Universität 313
Einfluss 312
erzeugen 312
deine 312
tische 312
vergessen 312
ek@@ 311
hinaus 311
außer 311
aussieht 311
Ebene 311
Zu 311
besch@@ 310
fl@@ 309
8 309
Nachrichten 309
Vergangenheit 309
nachzudenken 309
Worte 308
Wirklichkeit 308
handelt 308
Blick 307
irgendwo 307
y 307
manche 307
ner 306
ing@@ 306
hört 306
Armut 305
Menschheit 305
Spezies 305
traf 305
Evolution 304
klein 304
Gerät 304
te@@ 304
Ma@@ 304
bestimmte 304
Ergebnisse 303
sodass 303
geschehen 303
hei@@ 303
gesamten 303
gten 303
bl@@ 303
of 302
entscheiden 302
Sohn 302
ser@@ 301
werfen 301
kaum 301
trotzdem 301
solchen 301
DNA 301
Herz@@ 301
Politik 301
Medizin 300
ar 300
ir@@ 300
Personen 300
Programm 300
zeigte 299
befinden 299
fangen 299
ker 299
ze 298
heutzutage 298
links 298
ru@@ 298
Gut 298
ans 297
Studien 297
verstanden 297
onen 297
Künstler 297
gefragt 296
produzieren 296
holen 296
ien 296
aufge@@ 296
Kollegen 296
sammeln 296
messen 295
nenne 295
retten 295
taten 295
entdecken 295
Kinder@@ 295
Regierungen 295
hilft 294
Produkt 294
Familien 294
Chance 294
Groß@@ 293
spielt 293
globalen 293
Tier 293
Sekunden 293
Typ 293
Schüler 293
stellten 293
jungen 293
amerikanischen 293
man@@ 292
det 292
and 292
hörte 291
eben 291
spricht 291
Monat 291
einzelnen 291
Linie 290
Methode 290
ur 290
untersuchen 290
pf@@ 289
2@@ 289
leisten 289
Selbst@@ 288
us@@ 288
Sicht 288
herum@@ 288
danke 288
heit 288
warten 287
Software 287
Öl 287
Firmen 287
riesige 287
aufgrund 287
verbinden 286
neben 286
Ru@@ 285
Systeme 285
Prinzip 285
Computer@@ 285
wider@@ 284
Kom@@ 284
ender 284
br@@ 284
tt@@ 284
großartige 283
Herz 283
stelle 283
gaben 282
Ordnung 282
Bewusstsein 282
wann 282
herausfinden 282
sowohl 282
öffentlichen 282
Pflanzen 282
Damit 281
erin 281
arbeite 281
sch 281
Auswirkungen 281
zwei@@ 281
unmöglich 281
erzählte 281
eller 281
gel 281
fing 280
et 280
selben 280
Dorf 280
Morgen 280
ok@@ 280
ges 280
ah@@ 279
Ressourcen 279
einge@@ 279
entschieden 279
.@@ 279
schicken 279
18 278
rechts 278
einzu@@ 278
herstellen 278
hab 278
ell@@ 277
dadurch 277
Beziehungen 277
entdeckt 277
Man@@ 277
kan@@ 277
Wachstum 277
zweiten 277
ran@@ 276
normalerweise 276
Gehirn@@ 276
ermöglicht 276
fertig 276
lo@@ 276
Sinne 276
Zeit@@ 275
ck 275
and@@ 275
übrigens 274
Himmel 274
näher 274
ums 274
Fotos 274
extrem 274
fühlte 273
lag 273
Mathematik 273
außerhalb 272
diejenigen 272
gend 272
ig@@ 272
befindet 271
ik 271
Papier 271
komme 271
tiert 271
schlagen 271
wählen 271
Hände 271
steigen 270
Versuch 270
Formen 270
Haben 270
fe 270
Nummer 270
toll 270
Bakterien 270
Hei@@ 269
welcher 269
interessante 267
desto 267
weise 267
Ozean 267
Gründe 267
Zeug 266
Ärzte 266
Recht 266
setzt 266
Rück@@ 266
Li@@ 266
Liste 265
ma@@ 265
schützen 265
einzigen 264
erleben 264
ließen 264
reichen 264
schließen 264
betrachtet 263
ßen 263
Beginn 263
Organisation 263
Farbe 263
enz 262
dritte 262
Manchmal 262
Nahrung 262
ap@@ 262
ine 261
hielt 261
ca. 261
o-@@ 261
Landes 261
dung 261
Ur@@ 261
Jungen 261
ach@@ 261
rund 261
gleich@@ 260
erfahren 260
sh@@ 260
entweder 260
kte 260
ebenso 260
lernte 260
früher 260
Stunde 259
Arzt 259
im@@ 259
Bühne 259
geschaffen 259
Gesundheits@@ 259
are 259
Entscheidung 258
geführt 258
Kar@@ 258
ft@@ 258
Zeitpunkt 258
Name 258
raus 257
Straßen 257
gew@@ 257
90 257
Gene 257
Interesse 257
x@@ 257
Architektur 257
Freiheit 256
Unser 256
Bezug 256
ließ 256
km 256
Einer 256
Erfahrungen 256
Meer 256
Lösungen 256
dasselbe 256
Objekt 255
guter 255
dar@@ 255
großartig 255
Zwei 255
erfolgreich 255
Mittel 255
elles 255
Behandlung 255
schaut 254
Eis 254
tieren 254
lie@@ 254
Gehirns 254
Medikamente 254
digen 254
gutes 253
trifft 253
Artikel 253
Neu@@ 253
oren 252
Wand 252
mehrere 252
tung 252
alität 252
Jahrhunderts 252
wenige 252
erwarten 251
gehe 251
neun 251
A 251
weisen 251
heutigen 251
chen@@ 251
eu@@ 251
gi@@ 250
erinnere 250
Gesetz 250
Verständnis 250
aler 250
tausende 250
qu@@ 249
Arm 249
langen 249
ate 249
jemandem 249
jene 249
land 248
keiner 248
ma 248
getroffen 248
Veränderungen 248
ds 247
Punkte 247
4@@ 247
Junge 247
fest@@ 247
hundert 247
verkaufen 247
ige 247
Bo@@ 247
Teilen 247
Kamera 246
ebenfalls 246
Zeiten 246
ne@@ 245
Million 245
7 245
Reaktion 244
enz@@ 244
Wege 244
Eis@@ 244
unterstützen 244
Hoch@@ 244
Worten 244
Wesen 244
me@@ 243
genden 243
af@@ 243
Verantwortung 243
tionen 243
ad@@ 243
genutzt 243
frage 243
treten 243
Geist 243
Wörter 243
nehme 242
gedacht 242
igen 242
Sex 242
geschafft 242
ig 242
Erstens 242
hinein 242
ehrlich 242
Tier@@ 242
Mikro@@ 242
Projekte 241
einfachen 241
Eigenschaften 241
brauchte 241
Öl@@ 241
dein 241
tete 240
Auge 240
geschah 240
kämpfen 240
unterschiedliche 240
r 240
Netzwerk 240
gung 239
Kl@@ 239
Ex@@ 239
Krankenhaus 238
tion@@ 238
behandeln 238
hängt 238
gl@@ 237
unglaubliche 237
Männern 237
nahe 237
fahr@@ 237
existiert 237
echt 237
Ahnung 237
da@@ 237
bisher 237
spreche 237
En@@ 237
Freunden 236
Mo@@ 236
schlechte 236
Daten@@ 236
konzentrieren 236
ensch@@ 236
Manche 235
sobald 235
verbringen 235
tief 235
gebe 235
Produkte 235
Städten 235
Maschinen 235
endlich 234
Zelle 234
Körper@@ 234
verrückt 234
eigenes 234
Jedes 234
schätzen 234
Tieren 234
gang 233
tlich 233
ken@@ 233
US-@@ 233
Materialien 233
äre 233
300 233
formen 233
Nähe 233
Antworten 232
Zustand 232
los@@ 232
lich@@ 232
dreht 232
drehen 232
Strom 232
brechen 232
18@@ 232
frühen 232
Werte 232
arten 232
echte 232
Freude 232
vorbei 231
Region 231
erfunden 231
stecken 231
Schönheit 231
ern@@ 231
For@@ 231
öffnen 231
lief 231
Westen 231
enten 231
Her@@ 230
bau@@ 230
ität 230
Verfügung 230
Version 230
größere 230
end@@ 230
kten 230
z.B. 230
ß 230
Spitze 230
Umwelt@@ 230
Noch 229
Kampf 229
angefangen 229
verhalten 229
ün@@ 229
wichtigsten 228
Ok 228
tra@@ 228
teten 228
Nehmen 228
fühlt 228
Verbindungen 228
Rei@@ 228
Baby 228
HIV 228
est@@ 228
schaft 228
Ch@@ 228
elten 227
ches 227
to@@ 227
Englisch 227
zahlen 227
begonnen 226
ften 226
John 226
kontrollieren 226
Dort 226
he@@ 226
ha@@ 225
Par@@ 225
herzustellen 225
beeinflusst 225
ehr@@ 225
Luft@@ 225
Bäume 225
riesigen 225
Leidenschaft 224
erzeugt 224
politischen 224
globale 224
kenne 224
fühle 224
offen 223
d-@@ 223
Gelegenheit 223
Religion 223
wür@@ 223
ierung 223
il@@ 223
Gegen@@ 223
größeren 223
Herzen 223
Unterschiede 223
seines 223
elte 223
nte 223
fähig 223
tions@@ 222
Grad 222
Wirtschafts@@ 222
Tür 222
ei 222
Büro 222
Traum 222
Designer 222
reagieren 222
Ansatz 222
Suche 222
par@@ 222
re 221
ven 221
stre@@ 221
Vielfalt 221
Werkzeuge 221
senden 221
Klasse 221
bes@@ 221
ist@@ 221
Aus 221
Tisch 221
70 220
runter 220
Dr. 220
überleben 220
Biologie 220
hart 220
mu@@ 220
Netz 219
Geschäft 219
voll@@ 219
online 219
handeln 219
produziert 219
ant 219
x 219
or 218
fragten 218
So@@ 218
frei@@ 218
ären 218
Kor@@ 218
Farben 218
ales 217
bar@@ 217
stellung 217
weiterhin 217
Glauben 217
kosten 217
Haut 217
Kunst@@ 216
London 216
p 216
Infrastruktur 216
Zentrum 216
tiger 216
B. 216
zieht 216
anz@@ 216
ktion 216
okay 216
Best@@ 216
lan@@ 216
mon@@ 216
tr@@ 215
nt 215
ut 215
Kreativität 215
Au@@ 215
ermöglichen 215
hi@@ 215
Flugzeug 214
it 214
aufgenommen 214
Gefühle 214
Lei@@ 214
Typen 214
gestalten 214
Keine 213
Kilometer 213
Opfer 213
sucht 213
seien 213
ismus 213
Gesellschaften 213
gilt 213
alter 213
werk 212
politische 212
Jahres 212
Osten 212
Bürger 212
nen@@ 212
str@@ 212
ändert 212
ens@@ 212
mer@@ 211
Fisch 211
rechten 211
erlauben 211
pl@@ 211
ations@@ 210
bestehen 210
behandelt 210
Licht@@ 210
beeinflussen 210
dorthin 210
verkauft 210
Geschwindigkeit 209
erstellen 209
Lernen 209
wächst 209
Plan 209
Nichts 209
Mir 209
form 209
gene 209
hervor@@ 208
Tochter 208
täglich 208
ph@@ 208
endes 208
pro@@ 208
ms 208
tisch 208
one 208
Botschaft 208
ersch@@ 208
Abend 208
De@@ 208
entsteht 208
Regel 207
nten 207
einfacher 207
fall 207
Niemand 207
Risiko 207
Energie@@ 207
entstehen 207
kostet 207
Druck 207
Bitte 207
betrifft 206
ganzes 206
Finger 206
amerikanische 206
entwickelten 206
Afghanistan 206
Y@@ 206
16 206
berei@@ 205
fort@@ 205
rü@@ 205
reicht 205
Soldaten 205
dagegen 205
klingt 205
entschied 205
teile 205
lebte 205
halte 205
David 205
Los 205
Gel@@ 204
wohin 204
Bedingungen 204
els 204
verfolgen 204
losen 204
14 204
lu@@ 204
scht 204
Ziele 204
Fenster 204
tre@@ 203
gehalten 203
Atmosphäre 203
E 203
Physik 203
Su@@ 203
reich 203
früh 203
Na 203
Fluss 203
Jede 203
saß 203
Virus 202
Familien@@ 202
habt 202
iger 202
Fortschritt 202
City 202
Vergleich 202
letztes 202
erforschen 202
Sterne 202
Zusammenhang 202
alleine 201
verursacht 201
Meeres@@ 201
zog 201
Organisationen 201
investieren 201
hr@@ 201
teil 201
weiteres 201
war@@ 201
Geschäfts@@ 201
Mittel@@ 200
veröffentlicht 200
La@@ 200
Bis 200
per@@ 200
men@@ 200
y-@@ 200
Unterstützung 200
steckt 200
benötigen 200
ette 200
Ku@@ 199
tliche 199
Komplexität 199
ses 199
davor 199
Einkommen 199
überzeugt 199
Position 199
9 198
sowie 198
aden 198
schafft 198
Sekunde 198
Großbritannien 198
Kan@@ 198
C 197
Universums 197
Kommunikation 197
vier@@ 197
Wunsch 197
Tri@@ 197
Natur@@ 197
Gefängnis 197
arbeit 197
Inter@@ 197
wissenschaftliche 196
Neuronen 196
lin@@ 196
ßt 196
leider 196
Min@@ 196
treiben 196
kommunizieren 196
entlang 196
Zweitens 196
steigt 195
beschreiben 195
älter 195
ator 195
sitzt 195
art 195
Zusammenarbeit 195
ente 195
Materie 195
Durch 195
Mars 195
Super@@ 195
abge@@ 195
geschichte 195
Spielen 195
ing 194
erstaunlich 194
sorgen 194
unbedingt 194
Wei@@ 194
Sehr 194
Wer@@ 194
natürliche 194
ologie 194
ße 194
Gesetze 194
11 194
Fällen 194
behalten 194
B 194
ose 194
herausgefunden 193
iz@@ 193
Menschen@@ 193
zellen 193
Intelligenz 193
Test 193
drei@@ 193
erstes 193
Klimawandel 193
Ausbildung 193
Wandel 193
wi@@ 193
lautet 193
beschäftigt 193
Modelle 193
Fernsehen 193
scher 193
fragt 193
mittel 192
schw@@ 192
rein 192
fe@@ 192
unternehmen 192
trotz 192
satz 192
ons 192
vermutlich 192
Car@@ 192
volle 192
schöne 192
cher@@ 192
zug 192
Jobs 192
tolle 192
Herausforderungen 192
wiederum 191
Sommer 191
Atom@@ 191
aktiv 191
modernen 191
anten 191
Objekte 191
außerdem 191
Konferenz 191
gewonnen 191
20. 191
Einzel@@ 191
dieselbe 191
verdienen 191
la 191
cool 191
umgehen 191
sei@@ 191
Sind 191
Fl@@ 190
Problemen 190
durchgeführt 190
basiert 190
gelangen 190
Zuerst 190
arbeiteten 190
Loch 190
Fuß 190
unterschiedlichen 190
kraft 190
dr@@ 189
darf 189
rate 189
Gründen 189
ologen 189
mt 189
Partner 189
Hirn@@ 189
hren 189
bezahlen 189
wichtigste 189
Gesch@@ 188
erklärt 188
sicherlich 188
2000 188
Massen@@ 188
kom@@ 188
Zusammen@@ 188
selber 188
19@@ 188
benötigt 187
besitzen 187
bitten 187
wirst 187
buchstäblich 187
ät@@ 187
Institutionen 187
scheinen 187
mp@@ 187
To@@ 187
Beine 187
genen 187
dahin 187
Land@@ 187
Großteil 187
Höhe 187
anischen 187
mi@@ 187
Gemeinde 187
Or@@ 186
zufällig 186
Feuer 186
hand@@ 186
per 186
Vertrauen 186
richten 186
spiel 186
kt@@ 186
The 185
Qualität 185
Geräte 185
erwartet 185
ör@@ 185
Br@@ 185
Kunden 185
verbreitet 185
Augen@@ 185
sozusagen 185
lichsten 185
daß 184
selbst@@ 184
dürfen 184
kor@@ 184
z. 184
hohen 184
ren 184
kümmern 184
Babys 184
Masse 184
Blut 184
Sorgen 184
Finanz@@ 184
anderem 184
fiel 184
deutlich 184
San 183
Bienen 183
haft 183
Bu@@ 183
gs 183
Museum 183
lage 183
eigen@@ 183
ler@@ 183
Bar@@ 183
son@@ 183
mindestens 183
Milliarde 183
lebten 182
fort 182
inn@@ 182
Wahrscheinlichkeit 182
vollständig 182
weder 182
Fisch@@ 182
Nor@@ 182
ent 182
teil@@ 182
len@@ 182
morgen 182
Videos 182
linken 182
übertragen 182
bloß 182
Dis@@ 182
I 182
Industrie 182
erinnert 181
bild 181
Blut@@ 181
Insekten 181
jährigen 181
Werkzeug 181
trägt 181
Karriere 181
tert 181
Nutzen 181
lose 181
getötet 180
falsche 180
Ober@@ 180
lieber 180
neuer 180
einf@@ 180
weiteren 180
töten 180
c@@ 180
entwickelte 180
fte 180
vollkommen 180
24 180
Falls 180
schaute 180
brachten 180
öffentliche 179
Ausdruck 179
Zeichen 179
Str@@ 179
gezogen 179
Wald 179
verwandeln 179
Drittel 179
entwerfen 179
zeichnen 179
bestimmen 179
Nord@@ 179
Bildern 179
irgendwann 179
Wind 179
usw. 179
Fische 179
stolz 179
starb 179
Ha@@ 179
zt 179
Filme 178
glaubt 178
Kontakt 178
app@@ 178
assen 178
Hey 178
Waffen 178
seh@@ 178
ko@@ 178
Phänomen 178
passt 178
systeme 178
fin@@ 177
Japan 177
überrascht 177
Erinnerung 177
Jungs 177
einsetzen 177
mar@@ 177
Leistung 177
perfekt 177
Karten 177
Gefahr 177
Ph@@ 177
ppen 177
Frieden 177
Ecke 177
ac@@ 176
Kontext 176
Strukturen 176
eure 176
Sa@@ 176
Über 176
eres 176
bau 176
igkeit 176
Ber@@ 176
sprachen 176
nung 175
Forschungs@@ 175
weiss 175
enti@@ 175
lernt 175
Außerdem 175
kriegen 175
Ri@@ 175
überzeugen 175
bel 175
erhält 175
Spiele 175
Fach@@ 175
tue 174
bo@@ 174
ier 174
bemerkt 174
Identität 174
letztendlich 174
Ro@@ 174
hauptsächlich 174
begeistert 174
bieten 174
Wohn@@ 174
setzte 174
tiges 174
Gegenteil 174
Gewicht 174
Satz 174
Polizei 174
ingen 174
nächstes 173
Sonnen@@ 173
bung 173
interessieren 173
Ameisen 173
Präsident 173
höher 173
lebens@@ 173
besseren 173
möglicherweise 173
verbracht 173
neu@@ 173
dauert 172
Zei@@ 172
Aufgaben 172
fördern 172
Perspektive 172
erkannte 172
Sen@@ 172
lagen 172
400 172
spiel@@ 172
gewisse 172
wichtigen 172
auen 172
gesetzt 171
interagieren 171
rie@@ 171
dige 171
deten 171
heben 171
tausend 171
Sprachen 171
glich 171
kennt 171
jährige 171
Ta@@ 171
achten 171
Lieblings@@ 171
Handy 171
dungen 171
hohe 171
passen 171
mel@@ 171
form@@ 171
gehören 170
deinen 170
verantwortlich 170
att@@ 170
tro@@ 170
eingesetzt 170
brauchten 170
Hund 170
führten 170
fuhr 170
gelöst 170
Herr 170
Sk@@ 170
zählen 170
schönen 170
versuchten 170
-B@@ 170
verhindern 170
chtet 170
praktisch 170
abhängig 170
Hintergrund 169
las 169
sel@@ 169
Sozial@@ 169
gehabt 169
Landwirtschaft 169
Po@@ 169
iges 169
ing-@@ 169
teste 169
Am@@ 169
Themen 169
gelesen 169
Forscher 169
ns 169
Den 169
erzähle 169
welchen 168
hunderte 168
ant@@ 168
erlebt 168
mögliche 168
osen 168
Effekt 168
lau@@ 168
ob@@ 168
Musik@@ 168
dete 168
normalen 168
oh 168
Aktivität 168
hinein@@ 168
Flug@@ 167
Fahr@@ 167
Moleküle 167
Spieler 167
Schluss 167
du@@ 167
ati@@ 167
wunderbare 167
September 167
höre 167
0.000 167
gäbe 167
Ko@@ 167
Seit 167
geschickt 167
Rede 167
ierende 167
starke 166
funktion@@ 166
ähnliche 166
hergestellt 166
normal 166
Experten 166
ffen 166
irgendetwas 166
TED-@@ 166
Grenze 166
stammt 166
ver 166
existieren 166
he 166
13 166
laut 165
Händen 165
nannte 165
Folge 165
Kern@@ 165
Einsatz 165
6@@ 165
Neuro@@ 165
Basis 165
Kalifornien 165
Geh@@ 165
Ak@@ 165
hinweg 165
Haus@@ 165
Laufe 164
Har@@ 164
meistens 164
Folgendes 164
gestern 164
wirk@@ 164
mm@@ 164
unterscheiden 164
chs 164
ks 164
wenigen 164
ner@@ 164
erster 164
Hinter@@ 164
barkeit 164
rief 164
fi@@ 164
wuchs 163
kurze 163
Begriff 163
nötig 163
drin 163
Ad@@ 163
Haufen 163
heiten 163
ex@@ 163
Experimente 163
je@@ 163
Kann 163
echten 163
Wieder@@ 163
Öffentlichkeit 162
Sauerstoff 162
bares 162
bauten 162
nochmal 162
Bildschirm 162
bekamen 162
heits@@ 162
win@@ 162
Krise 162
mitten 162
Schwester 162
Gedanke 162
Irak 161
dritten 161
Raum@@ 161
steuern 161
Erkenntnis 161
Per@@ 161
wissenschaftlichen 161
beantworten 161
ton 161
legt 161
somit 161
normale 161
Met@@ 161
zogen 161
Titel 161
Staat 161
häufig 160
Bewegungen 160
Je 160
zen@@ 160
Andere 160
aufhören 160
hoffentlich 160
Frei@@ 160
dig 160
schn@@ 160
sor@@ 160
Wunder 160
rede 160
schien 160
gefangen 160
tsch@@ 160
Win@@ 160
Facebook 160
wenden 159
Fernseh@@ 159
Dass 159
bezahlt 159
könnt 159
Minute 159
Washington 159
sparen 159
Sta@@ 159
schlimmer 159
brauche 159
entspricht 159
kre@@ 159
Eigentlich 159
hoffen 159
Obwohl 159
allerdings 159
Lied 159
Bei@@ 159
Lehr@@ 159
stell@@ 159
ernst 159
inter@@ 158
erst@@ 158
D 158
gespielt 158
Etwas 158
7@@ 158
England 158
verst@@ 158
ack@@ 158
ser 158
Me@@ 158
Park 158
He@@ 158
Individuen 158
gr@@ 158
hängen 158
äl@@ 158
Gegensatz 158
Schlüssel 158
Ihres 157
är 157
vergleichen 157
standen 157
Vision 157
dennoch 157
Gleiche 157
roten 157
musst 157
Tausende 157
Telefon 157
tlichen 157
Besch@@ 157
wirtschaftliche 157
su@@ 157
Zell@@ 157
Ganze 157
Hel@@ 157
Nationen 157
müsste 157
alis@@ 157
Gra@@ 157
nisse 156
Geld@@ 156
Website 156
5@@ 156
Welche 156
spielte 156
Tests 156
Zuhause 156
wirken 156
spiele 156
Meilen 155
Brot 155
gefährlich 155
äch@@ 155
tischer 155
min@@ 155
fälle 155
schaften 155
bedeuten 155
rechte 155
Th@@ 155
tier@@ 155
nutzt 155
län@@ 155
Professor 155
Gehirne 155
Dar@@ 155
schte 155
eng@@ 155
Dabei 155
krank 155
führung 155
mis@@ 155
Stimmen 154
10.000 154
35 154
geln 154
armen 154
geh@@ 154
son 154
150 154
Körpers 154
Bruder 154
Ne@@ 154
flü@@ 154
ord@@ 154
aufbauen 154
ali@@ 154
raum 154
Politiker 154
kn@@ 154
Wel@@ 154
wunderbar 154
industrie 154
selten 153
tem 153
Mond 153
tot 153
Kein 153
schlag 153
folgt 153
erfinden 153
Lo@@ 153
Por@@ 153
erkennt 153
Zeitalter 153
Schmerz 153
verb@@ 153
entstanden 153
Mütter 153
Kindheit 153
Rahmen 153
Methoden 152
Augenblick 152
starten 152
tä@@ 152
Eindruck 152
drücken 152
Geburt 152
Affen 152
Entdeckung 152
entworfen 152
ys 152
Verstand 152
wieso 152
genauer 152
studieren 152
Wieso 152
baut 152
seite 152
Ganz 152
Bürger@@ 152
chter@@ 151
West@@ 151
cks 151
og@@ 151
Eins 151
inen 151
Te@@ 151
reduzieren 151
Bet@@ 151
1@@ 151
Naja 151
erg@@ 151
ment@@ 151
$ 151
bietet 151
bat 151
Galaxien 151
AIDS 150
17 150
erscheinen 150
schalten 150
beschlossen 150
eten 150
wahre 150
rau@@ 150
Gemeinden 150
Pu@@ 150
Elemente 150
Hinsicht 150
verbrachte 150
chts@@ 150
wasser 150
Baum 150
uner@@ 150
Not@@ 150
Nachdem 150
Gang 150
Schimpansen 150
ppe 150
ang@@ 150
21. 150
gra@@ 150
keln 150
Do@@ 150
fängt 150
9@@ 150
Teilchen 150
ht 150
amp 150
Sh@@ 150
Regen@@ 150
zunächst 149
Ansicht 149
verbreiten 149
Folgen 149
pp@@ 149
Ho@@ 149
schwarze 149
lustig 149
einiger 149
Straßen@@ 149
definieren 149
Lern@@ 149
CO2 149
Netzwerke 149
rä@@ 149
Knochen 149
ris@@ 149
Vorteil 149
Richard 149
natürlichen 149
Mensch@@ 149
Arbeiten 149
anz 149
blieb 149
pflanzen 148
appen 148
Norden 148
gelassen 148
Schw@@ 148
on-@@ 148
Produktion 148
punkt 148
Details 148
lungen 148
Lebewesen 148
del@@ 148
springen 148
S 148
rufen 148
eg@@ 148
Online-@@ 148
total 148
nah 148
gefallen 148
dran 148
so@@ 148
bri@@ 148
kurzen 147
Generationen 147
om 147
vollen 147
mann 147
ters 147
Fakten 147
Aspekt 147
Sein 147
tion 147
morgens 147
reisen 147
kurzem 147
siert 147
tel@@ 147
verschwinden 147
wobei 147
Organismen 147
gem 146
ür@@ 146
zig 146
gestorben 146
Medikament 146
spüren 146
geändert 146
Wor@@ 146
Kräfte 146
raus@@ 146
Nation 146
Internet@@ 146
kürzlich 146
Kli@@ 146
s. 146
medizinische 146
Beste 146
Funktion 146
fen@@ 146
Häuser 146
halbe 146
Hallo 145
esen 145
Sicherheits@@ 145
ah 145
Beim 145
persönlich 145
fähigkeit 145
dar 145
wechseln 145
sel 145
solch 145
ill@@ 145
Lachen 145
wert@@ 145
ungsp@@ 145
stärker 145
fol@@ 145
außen 145
na 145
bra@@ 144
Ton 144
Markt@@ 144
drüben 144
tel 144
beschäftigen 144
Vorfahren 144
meiste 144
Beweise 144
Haup@@ 144
erz@@ 144
wagen 144
Weile 144
relativ 144
muster 144
Ju@@ 144
Träume 144
fern 144
prä@@ 144
beobachtet 144
aren 143
har@@ 143
Gr@@ 143
Code 143
mat@@ 143
alisieren 143
for@@ 143
wirtschaft 143
beschloss 143
wirtschaftlichen 143
Rätsel 143
Mal@@ 143
und@@ 143
fährt 143
Emotionen 143
Mehr 143
teuer 143
tik 143
wor@@ 143
Fälle 142
Brasilien 142
berührt 142
herunter@@ 142
buch 142
nicht-@@ 142
Entwicklungsländern 142
Ide@@ 142
Feld 142
Bildungs@@ 142
Landschaft 142
laden 142
kannte 142
ativen 142
Web 142
Ges@@ 142
Erklärung 142
tungs@@ 142
gek@@ 142
Strom@@ 142
grundlegende 142
zurückzu@@ 142
Linien 142
Jemand 142
fäl@@ 141
Verhältnis 141
theit 141
anwenden 141
amm@@ 141
traditionellen 141
cke 141
erscheint 141
Stadt@@ 141
Zitat 141
verbindet 141
haus 141
vers@@ 141
Kern 141
fel@@ 141
Drei 141
gesund 141
zerstört 141
mei@@ 141
Mission 141
ckt 140
Schl@@ 140
Entwicklungs@@ 140
deswegen 140
Australien 140
we@@ 140
Drogen 140
leiten 140
Wal@@ 140
Schutz 140
teilt 140
enorme 140
Mitarbeiter 140
leid 140
greifen 140
Wahrnehmung 140
Bett 140
wen@@ 140
hielten 140
Bel@@ 140
alismus 140
bende 140
aufgebaut 139
verk@@ 139
ess@@ 139
chern 139
far@@ 139
ade 139
ste@@ 139
annehmen 139
welt 139
ich@@ 139
heißen 139
Nachbarn 139
Quelle 139
Freundin 139
feld 139
zerstören 139
aufzubauen 139
Schwierigkeiten 139
liefern 139
Iran 139
net 139
Fra@@ 139
zeigten 139
nis@@ 139
Architekten 139
kli@@ 139
bahn 139
Bl@@ 139
Gi@@ 138
Planet 138
beg@@ 138
Boot 138
Sand@@ 138
erstellt 138
zes 138
stehe 138
Werbung 138
komplexe 138
Ger@@ 138
bil@@ 138
Deutschland 138
All@@ 138
Mund 138
Maus 138
ang 138
Armen 138
Times 138
Bild@@ 137
schlechten 137
Gedicht 137
Elektrizität 137
Maßstab 137
Süd@@ 137
Gu@@ 137
lichem 137
Patient 137
Fest@@ 137
Seine 137
alt@@ 137
notwendig 137
worüber 137
Pe@@ 137
fre@@ 137
blauen 137
artige 137
schlechter 137
ure 136
schl@@ 136
wesentlich 136
imm@@ 136
Bauern 136
angesehen 136
wen 136
erwähnt 136
Korruption 136
vermitteln 136
pel 136
müssten 136
Sal@@ 136
Umfeld 136
vorher@@ 136
folgende 136
School 136
Mexiko 136
Bereiche 136
Bereichen 136
Kulturen 136
trag@@ 135
Dinosaurier 135
menschlicher 135
entdeckte 135
unterschiedlich 135
Ausmaß 135
nete 135
Tra@@ 135
gewissen 135
0ern 135
Sogar 135
stein 135
tin 135
Bill 135
westlichen 135
v 135
verfügbar 135
Gespräch 135
langer 135
bereich 135
Tre@@ 135
Erd@@ 135
eck 135
ehen 135
gebeten 134
See 134
Vögel 134
bet@@ 134
cker 134
Schn@@ 134
Stress 134
Temperatur 134
National 134
sches 134
gründen 134
Zweck 134
ergibt 134
unabhängig 134
hafte 134
wis@@ 134
schlafen 134
Kal@@ 134
zeiten 134
sinn@@ 134
gan@@ 134
wirkt 134
tritt 134
kar@@ 134
Fleisch 134
Neues 134
tal@@ 134
Laden 134
leiden 134
Klein@@ 133
etten 133
Drei@@ 133
bu@@ 133
Kerl 133
Medien@@ 133
nützlich 133
Zimmer 133
tungen 133
Gewebe 133
baute 133
Situationen 133
trinken 133
ersetzen 133
digt 133
Damals 133
Stufe 133
kti@@ 133
des@@ 133
inspiriert 133
Durch@@ 133
verbessert 132
wir@@ 132
ok 132
quasi 132
tigung 132
eit 132
vermeiden 132
untersucht 132
stattdessen 132
Drogen@@ 132
ett 132
We@@ 132
sä@@ 132
lä@@ 132
persönliche 132
po@@ 132
theorie 132
Insel 132
Mikroben 132
zugänglich 132
halt 132
ed@@ 132
singen 132
Beweis 131
entstand 131
welchem 131
seln 131
45 131
gruppe 131
erungen 131
beinahe 131
vorne 131
gem@@ 131
persönlichen 131
verteilt 131
Diskussion 131
Existenz 131
Du@@ 131
fassen 131
bestand 131
mes 131
Viren 131
atoren 131
sam 131
Risiken 131
Radi@@ 131
Strategie 131
zeit@@ 131
wä@@ 130
Pal@@ 130
Abschluss 130
bin@@ 130
zäh@@ 130
1,@@ 130
besuchen 130
stimmen 130
Operation 130
solcher 130
Rücken 130
Tab@@ 130
stieg 130
licht 130
übrig 130
College 130
zul@@ 130
test 130
Inhalt 130
diert 129
hinten 129
600 129
alisiert 129
Erinnerungen 129
Co@@ 129
dunkle 129
realen 129
Ter@@ 129
Definition 129
Gutes 129
maschine 129
ation@@ 129
dungs@@ 129
Tonnen 129
tik@@ 129
lokalen 129
hörten 129
Telefon@@ 129
besondere 129
unterstützt 129
nah@@ 129
0er 129
Anderson 129
War@@ 129
Volk 129
Wesentlichen 129
enth@@ 129
versteht 129
Leider 129
aufs 129
kompliziert 129
erstaunliche 128
brach 128
ologe 128
mo@@ 128
unden 128
durchschnittliche 128
setzten 128
ass@@ 128
El@@ 128
iker 128
seitdem 128
vertraut 128
barer 128
Israel 128
Bes@@ 128
bekannten 128
toren 128
daten 127
Einheit 127
Leben@@ 127
Test@@ 127
moderne 127
MIT 127
verstehe 127
darstellen 127
Danach 127
Gegend 127
beinhaltet 127
band 127
Unternehmer 127
Galaxie 127
Kur@@ 127
Anwendung 127
anische 127
digitalen 127
eindeutig 127
dan@@ 127
Charakter 127
meinte 126
99 126
Wüste 126
Nahrungs@@ 126
Brücke 126
freien 126
internationalen 126
Gesundheitswesen 126
erhielt 126
feststellen 126
ho@@ 126
Großmutter 126
zählt 126
beweisen 126
Außen@@ 126
Konflikt 126
19. 126
Kombination 126
gelegt 126
spezi@@ 126
Berg@@ 126
hel@@ 126
halb 126
Kampagne 125
kra@@ 125
hinzu@@ 125
lediglich 125
enthält 125
vorzustellen 125
Gehen 125
aufnehmen 125
merken 125
gerät 125
Genom 125
besagt 125
Anteil 125
mus@@ 125
Einstein 125
dank 125
wunder@@ 125
Sti@@ 125
vorhanden 125
por@@ 125
Zivilisation 125
gegründet 125
effektiv 125
äh@@ 125
schauten 125
Darum 125
gefähr@@ 125
Bedürfnisse 125
tzen 125
gelebt 124
aufregend 124
darunter 124
stag 124
Geheimnis 124
arme 124
Wohlstand 124
Ozeane 124
rein@@ 124
Sub@@ 124
ierenden 124
scheinbar 124
uss 124
Dat@@ 124
Pfund 124
entfernen 124
gsten 124
fantastisch 124
Stärke 124
bedeut@@ 124
spät 124
gefällt 124
modell 124
Chemikalien 123
anti@@ 123
11. 123
Zuschauer 123
Staats@@ 123
seid 123
assen@@ 123
Lasst 123
Tr@@ 123
regi@@ 123
wirkliche 123
Webseite 123
Stattdessen 123
gemeinsame 123
ans@@ 123
soviel 123
Deswegen 123
av@@ 123
tief@@ 123
schrecklich 123
lte 123
Sprach@@ 123
Würde 123
gewählt 123
2008 123
Sobald 123
übernehmen 123
stra@@ 123
arm 123
Einen 123
ast@@ 123
Na@@ 123
stoff@@ 123
trafen 123
Potential 123
ff 123
Gemein@@ 123
hän@@ 123
kol@@ 123
Berg 123
Diagramm 123
Statistiken 123
5.000 123
äußerst 123
weißen 122
Wow 122
Ton@@ 122
al-@@ 122
veränderte 122
George 122
derzeit 122
ahl 122
ände 122
tigkeit 122
.000 122
James 122
Krebs@@ 122
Les@@ 122
hinzu 122
sicht 122
lichste 122
überwinden 122
arbei@@ 122
hierher 122
digung 122
junger 122
schu@@ 122
eri@@ 122
meist 122
san@@ 122
fri@@ 122
lichkeiten 122
leg@@ 122
Erfindung 122
für@@ 122
Ob 121
gän@@ 121
Grundlage 121
werte 121
Francisco 121
blaue 121
froh 121
Momente 121
internationale 121
Aktivitäten 121
Pl@@ 121
Klima@@ 121
altet 121
atmen 121
stei@@ 121
Süden 121
Dimensionen 121
Herren 121
Schatten 121
Buchstaben 121
Paul 120
kreieren 120
Wahl@@ 120
manchen 120
großartigen 120
fan@@ 120
funktionierte 120
tiv 120
Jahrzehnt 120
Programme 120
glaubte 120
Mehrheit 120
raten 120
Buch@@ 120
Kurs 120
ähnlichen 120
erhöhen 120
gefahren 120
verwandelt 120
fehlt 120
ku@@ 120
beschrieben 120
eil 120
yp@@ 119
Küste 119
oten 119
erre@@ 119
menschliches 119
dieselben 119
Innovationen 119
schwieriger 119
sü@@ 119
Einstellung 119
Steve 119
bot 119
Gibt 119
kal@@ 119
Kopf@@ 119
Jahrzehnten 119
heisst 119
enorm 119
nahme 119
lachen 119
sm@@ 119
afrikanischen 119
Fol@@ 119
75 119
Mc@@ 119
Schu@@ 119
wach@@ 119
fasziniert 119
Papier@@ 119
vertrauen 119
platz 119
geber 119
Kaffee 119
druck 119
Südafrika 119
Sam@@ 119
kur@@ 119
gegenseitig 119
akzeptieren 119
gs@@ 119
oh@@ 119
Geräusch 118
vieles 118
Folie 118
Gebiete 118
Glas 118
schneiden 118
wa@@ 118
Gesichter 118
danken 118
Zwei@@ 118
Wirklich 118
dahinter 118
Ros@@ 118
Bur@@ 118
bildung 118
tere 118
eng 118
üsse 118
weiterer 118
chti@@ 118
medizinischen 118
stern 118
dischen 118
bezüglich 118
ta 118
Lektion 118
fingen 118
Wir@@ 118
bemerken 118
enn@@ 118
Twitter 118
Wann 118
Kenia 118
rote 117
Nase 117
schau@@ 117
mittel@@ 117
aut 117
Mag@@ 117
Schritte 117
produ@@ 117
herr@@ 117
bekomme 117
Seele 117
Mengen 117
Achse 117
Elektro@@ 117
Plastik@@ 117
Signale 117
ide@@ 117
erer 117
schlug 117
schreibt 117
Richtig 117
vorbei@@ 117
Vorteile 117
Ä@@ 117
wahr@@ 117
unglaublichen 117
10@@ 117
iere 117
Harvard 117
ase 117
recht@@ 117
automatisch 117
the 117
äm@@ 117
füllen 117
Kreis 117
Tor@@ 117
ziert 117
grünen 117
erweitern 117
Stuhl 116
angenommen 116
üs@@ 116
trei@@ 116
zelle 116
bten 116
Dach 116
schwimmen 116
Schlaf@@ 116
br 116
Metapher 116
dauerte 116
Wirkung 116
Rechte 116
jener 116
Helden 116
dam@@ 116
ort 116
arti@@ 116
viel@@ 116
Kirche 116
Proz@@ 116
Interaktion 116
etc. 116
berichten 116
Gute 116
woh@@ 116
Fortschritte 116
besitzt 116
Rechts@@ 115
zuge@@ 115
leichter 115
hör@@ 115
enzen 115
falschen 115
G 115
besseres 115
ansieht 115
emp@@ 115
Ker@@ 115
Hy@@ 115
niedri@@ 115
dlich 115
liebte 115
ktionen 115
diger 115
no@@ 115
fung 115
Jahr@@ 115
nett 115
üh@@ 115
aller@@ 115
Text 115
gender 115
fu@@ 115
Energi@@ 115
gebrochen 115
voraus@@ 114
Dazu 114
grundsätzlich 114
Männchen 114
Gegenwart 114
willst 114
2010 114
unver@@ 114
Handel 114
alisierung 114
gro@@ 114
c 114
chung 114
anfing 114
erk@@ 114
met@@ 114
Durchschnitt 114
Gerechtigkeit 114
Sand 114
Verlust 114
Signal 114
Kriegs@@ 114
nden 114
sowas 114
kraft@@ 114
dargestellt 114
derer 114
sieren 114
haften 114
Vorstellungen 114
behaupten 114
Zunächst 114
verstand 114
Dafür 114
Charles 114
Mor@@ 114
Aufnahme 114
kat@@ 113
Damen 113
Prinzipien 113
Angeles 113
tierte 113
licherweise 113
gebraucht 113
beibringen 113
positive 113
starben 113
suchte 113
Gemeinschaften 113
malen 113
Wettbewerb 113
nieder@@ 113
Löcher 113
Zauber@@ 113
stoff 113
plan@@ 113
ley 113
umgeben 113
psych@@ 113
Regierungs@@ 113
stoßen 113
Fuß@@ 113
nis 113
Ohne 113
Den@@ 113
ero@@ 113
weiße 113
Tradition 113
gens 113
beispielsweise 113
Nigeria 113
isten 113
organisieren 113
überlegen 113
Billionen 113
20@@ 112
Phase 112
führ@@ 112
Welten 112
forschung 112
Respekt 112
Afrikas 112
durchführen 112
Erst 112
unteren 112
Dem@@ 112
ther@@ 112
Instrument 112
digitale 112
wofür 112
Auto@@ 112
überraschend 112
pi@@ 112
lern 112
Terrorismus 112
lebe 112
lö@@ 112
ast 112
Schlüssel@@ 112
landen 112
endet 112
8@@ 112
ass 112
interessanter 112
Stücke 112
Ste@@ 112
Klang 112
kel 112
Stammzellen 112
zeichnet 112
aufgewachsen 112
R 112
uss@@ 111
Pop@@ 111
Chicago 111
Klima 111
Kanada 111
Russland 111
Kr@@ 111
Bas@@ 111
zus@@ 111
enthalten 111
Garten 111
gegen@@ 111
gele@@ 111
biologische 111
lungs@@ 111
oo@@ 111
Pf@@ 111
Resultat 111
T-@@ 111
ban@@ 111
Grafik 111
chter 111
moralische 111
Untersuchung 111
auff@@ 111
same 111
markt 111
lokale 111
National@@ 111
eck@@ 111
bemerkte 111
tauchen 111
besorgt 110
geschlagen 110
Präsentation 110
Nutzung 110
seltsam 110
Aussage 110
schwarzen 110
Theater 110
Industri@@ 110
genügend 110
Märkte 110
Absicht 110
stes 110
graben 110
gemeinsamen 110
Bau 110
Annahme 110
fällen 110
ey 110
Mama 110
res@@ 110
Zufall 110
bern 110
Com@@ 110
zweimal 110
Ser@@ 110
dauern 110
ange 110
geholfen 109
komplexen 109
gendes 109
Lu@@ 109
tri@@ 109
chtung 109
starken 109
euer 109
klasse 109
hinter@@ 109
speziellen 109
Voll@@ 109
antwortete 109
Hin@@ 109
unge@@ 109
einiges 109
faszinierend 109
Verhaltens@@ 109
A-@@ 109
Darstellung 109
Holz@@ 109
Unterhaltung 109
verdi@@ 109
Zeitung 109
wel@@ 109
ch-@@ 109
gu@@ 109
sogenannte 109
asse 109
ll@@ 109
Magie 109
gol@@ 109
decken 109
Schließlich 109
Arbeit@@ 109
Mu@@ 109
kri@@ 109
Kameras 109
Wo@@ 109
DNA-@@ 109
Malaria 109
World 108
Wider@@ 108
solange 108
asch@@ 108
fein@@ 108
ka 108
Bein 108
Versuche 108
asen 108
Vorstellungskraft 108
darstellt 108
Anstatt 108
erkannt 108
tive 108
Plan@@ 108
tu@@ 108
Michael 108
1.000 108
Erlebnis 108
selbstverständlich 108
Epidemie 108
woher 108
atur 108
Con@@ 108
geworfen 108
Bevor 108
perfekte 108
kontrolliert 108
Wur@@ 108
Mut 108
0@@ 108
hervor 108
Korallen 108
Restaurant 108
tigt 107
wünschte 107
ative 107
Ereignisse 107
stück 107
sprache 107
dische 107
Ära 107
Star@@ 107
erter 107
Multi@@ 107
lege 107
bücher 107
Debatte 107
Molekül 107
konzentriert 107
Laptop 107
betrieben 107
tausenden 107
ante 107
Ereignis 107
offenen 107
stu@@ 107
aufre@@ 107
Wind@@ 107
oll@@ 107
Räume 107
Ausstellung 107
tau@@ 107
Müll 107
Roh@@ 107
Entfernung 107
dert 107
Arme 107
trag 107
beteiligt 107
stet 107
folgenden 107
2007 107
wand 107
au 107
Regionen 107
Pakistan 107
Jahrzehnte 106
arbeiter 106
fra@@ 106
ingt 106
unterrichten 106
Ti@@ 106
sau@@ 106
Fliegen 106
Erwachsenen 106
Lebensmittel 106
Innen@@ 106
wissenschaften 106
stoppen 106
Chemie 106
schei@@ 106
1.@@ 106
nachts 106
Hunderte 106
High 106
vierte 106
stische 106
langsamer 106
Flu@@ 106
tan@@ 106
leistungs@@ 106
Anti@@ 106
Nutz@@ 106
Geräusche 106
bezeichnen 106
versteckt 106
Mi@@ 106
bst 106
wisst 106
sto@@ 106
half 106
zeu@@ 106
anhand 106
nannten 106
teilweise 106
nachzu@@ 106
Viertel 106
Boston 105
Rand 105
Pap@@ 105
wesen 105
zusammenarbeiten 105
flu@@ 105
drücke 105
Ni@@ 105
bewegung 105
verglichen 105
Ben@@ 105
Prä@@ 105
voneinander 105
nachgedacht 105
L 105
zentrum 105
ad 105
Schicksal 105
Handys 105
gruppen 105
hung 105
Chancen 105
freie 105
DNS 105
betreiben 105
Kontinent 105
Hunger 105
ep@@ 105
Spiegel 105
Wegen 105
vorbereitet 105
schm@@ 105
Nan@@ 105
sichtbar 105
Mach@@ 105
verschwunden 105
Bank 105
nor@@ 105
trug 105
abel 105
neten 105
Bio@@ 105
ros@@ 105
bildet 105
schi@@ 104
Chaos 104
NASA 104
ump@@ 104
Verbreitung 104
Hal@@ 104
nde 104
utz@@ 104
König 104
bte 104
Ohren 104
Große 104
grosse 104
Armee 104
Ac@@ 104
Faktor 104
gekauft 104
chst@@ 104
P 104
Computern 104
At@@ 104
Element 104
bricht 104
reagiert 104
Mis@@ 104
fürs 104
einfaches 104
g-@@ 104
kul@@ 104
Früh@@ 104
Geb@@ 104
Überleben 104
fahrer 104
offen@@ 104
100.000 104
zufrieden 104
University 104
haltung 104
ls 104
mö@@ 104
ori@@ 104
ausgesetzt 104
Kat@@ 103
Aufnahmen 103
sten@@ 103
schrei@@ 103
Film@@ 103
welt@@ 103
Mio. 103
still 103
trat 103
Status 103
Krieges 103
Seh@@ 103
real 103
komplex 103
del 103
cm 103
gering@@ 103
genetische 103
do@@ 103
begegnen 103
mü@@ 103
Informations@@ 103
weshalb 103
Quellen 103
pe@@ 103
fügen 103
trieb 103
artigen 103
derselben 103
zer 103
Ban@@ 103
grund@@ 103
Teams 103
miss@@ 103
X@@ 103
Nieder@@ 103
mung 103
Literatur 103
Werk 103
dliche 102
gebiet 102
plat@@ 102
reduziert 102
Potenzial 102
Schweden 102
struktur 102
tor 102
angeht 102
Hat 102
fern@@ 102
diges 102
Kin@@ 102
etzen 102
oss 102
Musiker 102
Mark@@ 102
Sie@@ 102
chemische 102
verdient 102
insbesondere 102
wenigstens 102
Machen 102
hol@@ 102
fliegt 102
karte 102
grün@@ 102
1. 102
dienen 102
veröffentlichen 102
anschaut 102
nütz@@ 102
eiten 102
reise 102
unbe@@ 102
weltweiten 102
Proteine 102
glaubten 102
fli@@ 102
irgendeine 102
acken 102
vergangenen 102
Al 102
erhöht 102
dro@@ 102
ungspro@@ 101
lten 101
tiker 101
Regen 101
tin@@ 101
2005 101
binden 101
Kleidung 101
mus 101
Emp@@ 101
Aspekte 101
heim@@ 101
kin@@ 101
Fast 101
Rad@@ 101
Ökosystem 101
Fläche 101
Vier@@ 101
besessen 101
sti@@ 101
Frankreich 101
zw@@ 101
Bevölkerungs@@ 101
Echtzeit 101
Militär 101
Pen@@ 101
mittels 101
positiv 101
genießen 101
E-Mail 101
Stein 101
T 101
auseinander 101
Riesen@@ 101
fordern 101
Kapitel 101
Gottes 101
Kle@@ 101
O 101
grüne 101
lebenden 101
schwer@@ 101
liert 101
bewirken 101
Zeitraum 101
Depression 101
doppelt 101
folgendes 101
Geschenk 100
geleitet 100
Gemälde 100
versorgen 100
veränder@@ 100
Null 100
punkte 100
Führung 100
Arbeiter 100
Golf 100
Meer@@ 100
Instrumente 100
Im@@ 100
gewisser 100
mehreren 100
schnitt 100
werten 100
definiert 100
gst 100
klin@@ 100
D-@@ 100
Gras 100
ic@@ 100
sende 100
Flagge 100
Blatt 100
zusehen 100
na@@ 100
Konsequenzen 100
wo@@ 100
Denk@@ 100
beenden 100
Syn@@ 100
Bri@@ 100
Sonnenlicht 100
erneut 100
Kurve 100
Solar@@ 100
Verbrechen 100
zunehmen 100
Interessen 100
worauf 100
menge 100
age 100
Schuld 100
dem@@ 100
Zerstörung 100
Neben@@ 100
schließt 100
tiefer 100
angehen 100
gefühl 100
nutz@@ 100
heilen 100
schafts@@ 99
fahrt 99
hieß 99
aner 99
hinzufügen 99
Cor@@ 99
irgendjemand 99
aufgeregt 99
Sü@@ 99
ore 99
benden 99
Ingenieure 99
Teilnehmer 99
häu@@ 99
faszin@@ 99
Tur@@ 99
Brust@@ 99
änder 99
woran 99
schle@@ 99
einst 99
195@@ 99
unterwegs 99
Da@@ 99
Lie@@ 99
effek@@ 99
beln 99
Level 99
Kre@@ 99
Wikipedia 99
Darwin 99
Dra@@ 99
Fe@@ 99
Sichtweise 99
Kohle 99
Anführer 99
Show 99
Ägypten 99
weißt 99
kostenlos 99
lebendig 99
ener 99
klar@@ 99
Willen 99
weis@@ 99
Elefanten 99
Erwartungen 98
Bre@@ 98
lebende 98
lig 98
deut@@ 98
ats 98
Gebäuden 98
Kapital 98
basierend 98
Erwachsene 98
eingeladen 98
wiederholen 98
Gesamt@@ 98
Verstehen 98
M 98
Wunder@@ 98
momentan 98
elektrische 98
bedeutete 98
legte 98
kulturelle 98
verursachen 98
Tu@@ 98
Inspiration 98
2. 98
Stu@@ 98
Inseln 98
ckte 98
BG 98
Tiefe 98
mächtig 98
verliert 98
Decke 98
irgend@@ 98
wasser@@ 98
Sport 98
Algorithmen 98
Gest@@ 98
niemanden 98
Geburtstag 98
Hu@@ 98
kalt 98
umzugehen 98
Wes@@ 98
erforscht 98
herauszu@@ 98
fü@@ 98
Student 98
dis@@ 98
versorgung 98
speziell 97
Stand 97
Brust 97
artig 97
kle@@ 97
Entdeckungen 97
My@@ 97
bezeichnet 97
Müll@@ 97
wovon 97
Islam 97
geteilt 97
Faktoren 97
hinterlassen 97
maß@@ 97
Reaktionen 97
kaufte 97
deiner 97
Hunde 97
err@@ 97
lasst 97
17@@ 97
Schlaf 97
zugeben 97
jung 97
getrennt 97
Paris 97
Wellen 97
Sagen 97
planen 97
groß@@ 97
Ball 97
Fokus 97
Holz 97
Klassenzimmer 97
ef@@ 97
ischem 97
späten 97
bekannte 97
genetischen 97
F 97
zunehmend 97
schrieben 97
Zweifel 97
Schrift 97
bre@@ 97
wie@@ 97
drückt 97
Immer 97
1000 97
Richtungen 97
dens 97
Schiff 97
Asien 97
höhere 97
schwierige 97
fall@@ 97
stri@@ 97
Lin@@ 97
eingeführt 96
zieren 96
rot 96
fläche 96
erfassen 96
ergeben 96
eigentliche 96
letzter 96
Lauf 96
linge 96
gener@@ 96
gerettet 96
Treffen 96
Erinnern 96
blau 96
Thomas 96
Beruf 96
ra 96
Zucker 96
Gewinn 96
Wi@@ 96
k-@@ 96
Lager 96
Analyse 96
tot@@ 96
begreifen 96
Wagen 96
Heutzutage 96
Frauen@@ 96
spezielle 96
drehte 96
zah@@ 96
Tau@@ 96
Verlauf 96
stän@@ 96
brei@@ 96
entscheidend 96
Trotzdem 96
Geschäfte 96
Chinesen 96
leb@@ 96
besuchte 96
volles 96
sub@@ 96
vorsichtig 96
ath@@ 96
drauf 96
Adam 96
Glück@@ 96
gebildet 96
Uns 96
do 96
stoffe 96
Pla@@ 96
ve 96
betr@@ 95
ack 95
schießen 95
systems 95
Systems 95
Witz 95
Gen 95
Mus@@ 95
wunderbaren 95
dat@@ 95
Vogel 95
ausgeben 95
Überraschung 95
harte 95
blind 95
Art. 95
seht 95
terin 95
weite 95
sam@@ 95
zukommen 95
2009 95
Winter 95
mati@@ 95
tisches 95
Normalerweise 95
oberen 95
tag@@ 95
blicken 95
Es@@ 95
tiven 95
gabe 95
Theorien 95
stand@@ 95
ernähren 95
Mos@@ 95
Medizin@@ 95
ard 95
lernten 95
deinem 95
Schutz@@ 95
Wolken 95
Gegenden 95
tiere 95
Gold 95
Kraft@@ 95
naja 95
Schuhe 95
ater 95
Ö@@ 95
gerufen 95
zimmer 95
Unter 95
gige 95
grundlegenden 95
studiert 95
Robert 95
legten 95
dient 95
sin@@ 95
ober@@ 94
Ernährung 94
investiert 94
üben 94
glichen 94
Auswahl 94
zeichen 94
Symbol 94
Tro@@ 94
Band 94
Ganzen 94
reg@@ 94
grund 94
Plattform 94
vorhin 94
Saal 94
Physiker 94
21 94
Wahlen 94
rit@@ 94
rat 94
Geheim@@ 94
zentrale 94
fache 94
Zahn@@ 94
Mem@@ 94
Kap@@ 94
Hir@@ 94
Pa@@ 94
ach 94
Plastik 94
Glas@@ 94
Bedrohung 94
Denkweise 94
heiß 94
Unfall 94
Dunkelheit 94
organisiert 94
bs@@ 94
leben@@ 94
denk@@ 94
schönes 94
wohl@@ 94
Problems 94
bene 93
fünf@@ 93
biologischen 93
Fabrik 93
X 93
denselben 93
nern 93
Innerhalb 93
umge@@ 93
Bienen@@ 93
Weltkrieg 93
Center 93
Weisheit 93
Projekten 93
traurig 93
unde 93
Lebenserwartung 93
bekämpfen 93
Fi@@ 93
pfen 93
Psychologie 93
Sel@@ 93
Niveau 93
reich@@ 93
interessanten 93
teure 93
Mak@@ 93
Quanten@@ 93
gesunden 93
verfolgt 93
Rat@@ 93
sicher@@ 93
letz@@ 93
hab@@ 93
fal@@ 93
schul@@ 93
Blumen 93
herunter 93
lehren 93
mal@@ 93
gemein@@ 93
fas@@ 93
weiten 93
grossen 93
Detail 93
Mutter@@ 93
Eigenschaft 93
machst 93
chn@@ 93
anzusehen 93
etz@@ 92
technischen 92
bemerkenswert 92
Netz@@ 92
keits@@ 92
ander@@ 92
erklärte 92
Schaden 92
Ursprung 92
fantastische 92
Änderungen 92
wahrnehmen 92
Funktionen 92
the@@ 92
Berge 92
istische 92
Lö@@ 92
Vi@@ 92
Fer@@ 92
lasse 92
Privat@@ 92
Stiftung 92
Stamm@@ 92
sogenannten 92
gründete 92
est 92
nationalen 92
Anstieg 92
krise 92
Katze 92
Systemen 92
indi@@ 92
glücklicher 92
zurückkehren 92
ly 92
kreativ 92
trau@@ 92
Plötzlich 92
wem 92
Bus 92
schten 92
Kapitalismus 92
Zug 92
Dame 92
anpassen 92
ücken 92
einig@@ 92
neigen 91
ecken 91
beigebracht 91
voraus 91
Schicht 91
ativ 91
ländlichen 91
lauf 91
ursprünglich 91
mmen 91
neur@@ 91
dankbar 91
Gas 91
jenen 91
wal@@ 91
Wahrscheinlich 91
falten 91
Wissenschaftlern 91
Inneren 91
big 91
Gespräche 91
wäl@@ 91
schaue 91
Tat@@ 91
-F@@ 91
0,@@ 91
Weibchen 91
Don@@ 91
iPhone 91
begrenzt 91
ak 91
grün 91
rum 91
fach 91
Pan@@ 91
ed 91
Symptome 91
fiz@@ 91
gere@@ 91
soweit 91
Trick 91
Persönlichkeit 91
visuelle 91
Umständen 90
Yorker 90
ia 90
beschreibt 90
träge 90
Gew@@ 90
w 90
Gedächtnis 90
besucht 90
ter-@@ 90
Kurz 90
samkeit 90
Designs 90
Einrichtungen 90
schule 90
Fil@@ 90
iel@@ 90
Mess@@ 90
treibt 90
Mitglieder 90
regelmäßig 90
Tex@@ 90
worum 90
Hinblick 90
Großen 90
Richtige 90
Island 90
Wohl@@ 90
Design@@ 90
mark@@ 90
mor@@ 90
Kohlenstoff 90
schwere 90
effizient 90
Ster@@ 90
ick@@ 90
gestartet 90
verschieden 90
land@@ 90
Darüber 90
Spektrum 90
ernsthaft 90
dor@@ 90
Verwendung 90
kr@@ 90
Ki@@ 90
Privatsphäre 90
chinesische 90
exist@@ 90
Obama 90
Todes@@ 90
bli@@ 90
gesammelt 90
ron@@ 90
kümmert 90
rück@@ 90
stirbt 90
Weltbevölkerung 90
Motor 90
Tumor 90
eig@@ 90
Afrikaner 89
Schmerzen 89
Des@@ 89
Teenager 89
Hor@@ 89
” 89
losigkeit 89
Januar 89
Führer 89
Ball@@ 89
steh@@ 89
fließt 89
schwe@@ 89
Anders 89
verschiedener 89
Eigen@@ 89
stisch 89
kreativen 89
Ah 89
Maß@@ 89
f-@@ 89
teilten 89
Neuigkeiten 89
öffentlich 89
Terroristen 89
Proben 89
ps 89
hre 89
Far@@ 89
Katastrophe 89
Rö@@ 89
blin@@ 89
dunklen 89
neh@@ 89
saßen 89
mehr@@ 89
ensi@@ 89
erungs@@ 89
anstelle 89
Zer@@ 89
Erste 89
wär@@ 89
13@@ 89
werke 89
lang@@ 89
in-@@ 89
streben 89
Universitäten 89
65 89
Ra@@ 89
Zähne 89
Zur 89
hinaus@@ 89
Male 89
wütend 89
Wälder 89
Teil@@ 89
gewann 89
schwarz 89
konfrontiert 89
fisch 89
teren 89
27 89
Nachbarschaft 89
Gesetz@@ 88
pri@@ 88
Viel@@ 88
Ei@@ 88
ütz@@ 88
berühren 88
ertes 88
Kamer@@ 88
spro@@ 88
dest@@ 88
Kommen 88
Wieder 88
chungen 88
Kabel 88
könne 88
Schreiben 88
stammen 88
Sorge 88
vielmehr 88
bewahren 88
oli@@ 88
ev@@ 88
Gl@@ 88
CO2-@@ 88
stoffen 88
Trau@@ 88
Rau@@ 88
höchsten 88
ausmachen 88
Euch 88
betroffen 88
Strand 88
Hotel 88
Street 88
Extre@@ 88
H 88
hoher 88
Techniken 88
Wäre 88
zwingen 88
Rot@@ 88
mitnehmen 88
seltsame 88
Humor 88
Haie 88
Investitionen 88
tur@@ 88
Alternative 88
vieler 87
Verfahren 87
beu@@ 87
ue 87
physische 87
ligen 87
identifizieren 87
schlägt 87
Strategien 87
Raub@@ 87
wieviel 87
The@@ 87
Laufen 87
vorzu@@ 87
BIP 87
chtes 87
Haiti 87
mende 87
Gar@@ 87
Gri@@ 87
Metern 87
Gleichgewicht 87
End@@ 87
Nar@@ 87
Ka@@ 87
Doktor@@ 87
empfinden 87
Komponenten 87
ha 87
Kam@@ 87
grundlegend 87
Bericht 87
hassen 87
ton@@ 87
Paar 87
Fa@@ 87
Fünf 87
go@@ 87
Vide@@ 87
sigen 87
Institut 87
Brief 87
nd 87
Rat 87
langweilig 87
altes 87
Ökonomen 87
nervös 87
Blin@@ 87
ren@@ 87
winzigen 87
packen 87
hü@@ 87
zeichnete 87
Sozi@@ 87
ash@@ 87
zulassen 87
Küche 87
umzu@@ 87
hinunter 86
Kindes 86
wirft 86
flog 86
packt 86
omen 86
infiziert 86
Spezi@@ 86
verein@@ 86
Prozesse 86
berg 86
Satelliten 86
alisierte 86
ven@@ 86
Muskeln 86
heiraten 86
Sau@@ 86
stücke 86
moralischen 86
äs@@ 86
wand@@ 86
Mangel 86
Belohnung 86
bes 86
besonderen 86
blei@@ 86
Einfachheit 86
YouTube 86
ors 86
tende 86
ium 86
mischen 86
Autismus 86
Mö@@ 86
politisch 86
stands@@ 86
tierten 86
hau@@ 86
heran@@ 86
Leiden 86
zieh@@ 86
Nachhaltigkeit 86
eter 86
Sport@@ 86
gebiete 86
aff@@ 86
Würden 86
Cent 86
zurückgehen 86
15@@ 86
Kohlenstoff@@ 86
pres@@ 86
höheren 86
dazwischen 86
ling 85
Pra@@ 85
Dadurch 85
Teufel 85
deckt 85
rollen 85
währ@@ 85
Szene 85
une 85
inspirieren 85
schrift 85
hö@@ 85
suche 85
Noten 85
Gericht 85
Antibiotika 85
mittleren 85
Design-@@ 85
Sensoren 85
domin@@ 85
zte 85
elektrischen 85
einhalb 85
rechnen 85
Si@@ 85
Hum@@ 85
Uni@@ 85
No@@ 85
optim@@ 85
Sitz@@ 85
lieren 85
Toten 85
irgendeinem 85
Schle@@ 85
fang 85
Medium 85
Mil@@ 85
Prototypen 85
jenem 85
echtes 85
wunderschöne 85
schickte 85
alisierten 85
spr@@ 85
Eier 85
Invest@@ 85
Konflikte 85
Leu@@ 85
berechnen 85
gebunden 85
riesiges 85
Vorgang 84
25@@ 84
Stern 84
isch@@ 84
produktion 84
Füße 84
ignorieren 84
12@@ 84
trennen 84
Samen 84
Ehe 84
rennen 84
wahren 84
dauer@@ 84
Woher 84
ierter 84
N 84
Del@@ 84
Microsoft 84
Diabetes 84
Flasche 84
Tanz 84
erwähnen 84
Organ@@ 84
anzen 84
drucken 84
möglichkeiten 84
üb@@ 84
Marke 84
Kongo 84
ole 84
pr@@ 84
sta@@ 84
indischen 84
K 84
Mat@@ 84
änderte 84
Organe 84
Pinguine 84
Box 84
Christ@@ 84
krie@@ 84
As@@ 84
Prof@@ 84
anscheinend 84
leuchten 84
ings 84
feiern 84
insgesamt 84
benutze 84
kreative 84
Hil@@ 83
schwerer 83
Organismus 83
vermögen 83
suchten 83
kg 83
womit 83
Fehl@@ 83
Jedenfalls 83
Pflanze 83
bor@@ 83
Ziel@@ 83
Bibel 83
schöner 83
Ehre 83
lenken 83
geräte 83
19 83
krebs 83
selbe 83
Erdbeben 83
chtern 83
Aufbau 83
Atem@@ 83
gab@@ 83
ruhig 83
Ursache 83
knapp 83
änder@@ 83
griffen 83
Tasche 83
richtung 83
gewöhnt 83
beru@@ 83
analysieren 83
ester 83
ies 83
2,@@ 83
gewachsen 83
Führungs@@ 83
Indem 83
läu@@ 83
gezwungen 83
Anruf 83
Aktion 83
Wa@@ 83
DH 83
Mathematiker 83
mittlerweile 83
ane 83
asche 83
Spe@@ 83
neugierig 83
Fahrer 83
Studio 83
gesunde 83
dien 83
Radio 82
Golf@@ 82
kulturellen 82
Fei@@ 82
glück@@ 82
gli@@ 82
reicher 82
lerin 82
Jahres@@ 82
Druck@@ 82
Militär@@ 82
Ghana 82
ktion@@ 82
material 82
pa@@ 82
weibliche 82
chem@@ 82
Fr@@ 82
hy@@ 82
les@@ 82
Effizienz 82
Biologen 82
bild@@ 82
Unterricht 82
23 82
dieren 82
wundervolle 82
Geistes@@ 82
Komm 82
entgegen@@ 82
schie@@ 82
Nachfrage 82
Anwendungen 82
Ruf 82
Juni 82
bs 82
zehn@@ 82
umso 82
Präsidenten 82
öh@@ 82
ou@@ 82
Pil@@ 82
tor@@ 82
Guten 82
Tom@@ 82
tz 82
kleinere 82
gif@@ 82
ele 82
stände 82
abgesehen 82
Argument 82
ke@@ 82
lige 82
Gleichung 82
Kol@@ 82
nebenbei 82
Lauf@@ 82
problem 82
endete 82
Preise 82
reparieren 82
tes@@ 82
tiv@@ 82
träumen 81
erei 81
SMS 81
Fern@@ 81
fr@@ 81
privaten 81
Verkehr 81
3D-@@ 81
Weltraum 81
uren 81
erende 81
feh@@ 81
hoben 81
emotionale 81
schutz@@ 81
antworten 81
Wichtigste 81
tier 81
dende 81
durfte 81
Feind 81
Gemüse 81
kö@@ 81
Übrigens 81
beides 81
Büchern 81
Vorschlag 81
inzwischen 81
Beru@@ 81
ffe 81
m-@@ 81
Recht@@ 81
arabischen 81
Gleich@@ 81
Höhepunkt 81
außergewöhnlich 81
chron@@ 81
uten 81
Standard@@ 81
zusetzen 81
HIV-@@ 81
Dr@@ 81
Terror@@ 81
Gebieten 81
plan 81
Trans@@ 80
hil@@ 80
dringen 80
Pat@@ 80
nachdenkt 80
voran@@ 80
erzeu@@ 80
chinesischen 80
hingehen 80
terte 80
enormen 80
Flug 80
net@@ 80
Weihnachts@@ 80
Budget 80
positiven 80
geraten 80
mach@@ 80
Batterie 80
Bra@@ 80
dene 80
aktuelle 80
löst 80
unk@@ 80
Mechanismus 80
Wetter 80
mil@@ 80
innere 80
mochte 80
wiederholt 80
achtet 80
kel@@ 80
Herstellung 80
zung 80
Klinik 80
üt@@ 80
sätze 80
lli@@ 80
verließ 80
ari@@ 80
eröffnet 80
fun@@ 80
jährlich 80
Rob@@ 80
lass 80
traditionelle 80
jeweils 80
ür 80
Bibliothek 80
tlicher 80
Ausrüstung 80
trock@@ 80
Verlangen 80
kultur 80
Wirk@@ 80
App 80
Dutzend 80
exakt 80
Kongress 80
Ausnahme 80
benutzten 80
Umstände 80
bst@@ 80
Philosophie 80
bü@@ 80
beitragen 80
Ach 80
ausdrücken 80
Maßnahmen 80
Strei@@ 80
Hü@@ 80
Vergnügen 80
Presse 80
log@@ 80
Tun@@ 80
Aut@@ 80
Resultate 80
Ungleichheit 80
Zah@@ 80
ähr@@ 80
winzig 80
Ü@@ 80
zahl 80
Leid 80
Stil 80
Hom@@ 80
ese 80
prü@@ 80
potenti@@ 80
Reisen 79
dest 79
alien 79
Leiter 79
Verteilung 79
War 79
diskutieren 79
linie 79
2004 79
kaputt 79
univers@@ 79
Entwicklungsländer 79
Schwestern 79
ordnen 79
Verbesserung 79
Em@@ 79
Vogel@@ 79
Versuchen 79
ßes 79
früheren 79
hrt 79
unsichtbar 79
ographie 79
größe 79
Wein 79
verletzt 79
dau@@ 79
karten 79
wechsel@@ 79
ahnen 79
Mas@@ 79
erfüllen 79
verteilen 79
strei@@ 79
Akt 79
nei@@ 79
ras@@ 79
Schei@@ 79
Vorträge 79
befreien 79
Wände 79
erlangen 79
22 79
Schon 79
Schwarze 79
bogen 79
Fal@@ 79
festgestellt 79
ausgehen 79
Char@@ 79
klei@@ 79
ro 79
öfter 79
Sei@@ 79
Mannes 79
repräsentiert 79
Dienstleistungen 79
endste 79
verlor 79
mäch@@ 79
gemessen 79
kräfte 79
Serie 79
überzeu@@ 79
Training 79
Handlungen 79
Erkrankungen 79
abe 79
Trend 79
zuhören 79
ball@@ 78
Bro@@ 78
Beh@@ 78
Regi@@ 78
anzugehen 78
zent@@ 78
rat@@ 78
tanzen 78
Wut 78
letztlich 78
einziges 78
prakti@@ 78
Knie 78
Texas 78
Durchschnitts@@ 78
heutige 78
120 78
Stand@@ 78
Logik 78
getragen 78
höchste 78
zeug 78
Fre@@ 78
nahezu 78
erhielten 78
sicherer 78
Labor@@ 78
behand@@ 78
Links 78
Bon@@ 78
get@@ 78
öl@@ 78
zin@@ 78
2006 78
stellungen 78
übersetzen 78
verlangen 78
schä@@ 78
jähriger 78
Wür@@ 78
ment 78
Motivation 78
holt 78
fried@@ 78
selt 78
Änderung 78
Ern@@ 78
programmieren 78
Klassen@@ 78
Gebäudes 78
stets 78
vorgestellt 78
Geschlecht 78
Zentral@@ 78
Wil@@ 78
95 78
un 78
bungen 78
mess@@ 78
lös@@ 78
entiert 78
bedeckt 78
schreibe 78
keinem 78
sl@@ 78
abstra@@ 78
sozialer 78
einz@@ 78
tig@@ 78
let@@ 78
Lass 78
Lebensmittel@@ 78
Uni 78
ausgest@@ 78
issen 78
sprach@@ 78
öffnet 78
ec@@ 78
Erstaun@@ 78
Haare 78
gelangt 77
zy@@ 77
anfängt 77
lossen@@ 77
Wurzeln 77
wartet 77
dicht 77
schlag@@ 77
frie@@ 77
visuellen 77
Tran@@ 77
verliebt 77
istischen 77
Dollar-@@ 77
reiche 77
Motor@@ 77
gestaltet 77
Ok@@ 77
medi@@ 77
tei@@ 77
körper@@ 77
Maß 77
up@@ 77
schen@@ 77
leeren 77
überlebt 77
verarbeiten 77
Knopf 77
Kü@@ 77
verstecken 77
stab@@ 77
Je@@ 77
Regel@@ 77
allgemein 77
benutzte 77
Bedürfnis 77
tigten 77
nationale 77
sinn 77
misst 77
sozial 77
gebung 77
Bord 77
regel@@ 77
getestet 77
Lab@@ 77
hinsichtlich 77
geöffnet 77
Figur 77
Moral 77
Fin@@ 77
brü@@ 77
Protein 77
chemischen 77
Tränen 77
gehend 77
Gol@@ 77
tiefe 77
Pferd 77
Egal 77
Information@@ 77
fän@@ 77
keit 77
gieren 77
ina 77
vierten 77
näch@@ 77
Ebenen 77
Blase 77
Röntgen@@ 77
agen 77
Hören 77
hof 77
billig 77
Sym@@ 77
Wirtschaftswachstum 77
befassen 77
offene 77
dunkel 76
sige 76
Werden 76
Cyber@@ 76
Knochen@@ 76
gelaufen 76
Überall 76
kreiert 76
zerstör@@ 76
organisationen 76
zü@@ 76
schlimmsten 76
mungen 76
fügt 76
pol@@ 76
fuhren 76
spieler 76
mach 76
va 76
ausmacht 76
anbieten 76
ologische 76
Einheiten 76
schreckliche 76
iertes 76
ie-@@ 76
fürchten 76
Partei 76
abgesch@@ 76
Col@@ 76
gross@@ 76
Meere 76
izieren 76
Konzepte 76
Futter 76
rö@@ 76
Lächeln 76
ografie 76
schlau 76
Pollen 76
zusammenzu@@ 76
gar@@ 76
beträgt 76
verrückte 76
wur@@ 76
lauf@@ 76
Uganda 76
zustellen 76
afrikanische 76
eingesch@@ 76
50.000 76
tiefen 76
aum 76
Lesen 76
trage 76
Gedichte 76
dri@@ 76
Toilette 76
Eli@@ 76
Internets 76
Berechnungen 76
Valley 76
versi@@ 76
Fot@@ 76
Vol@@ 76
Versorgung 76
Autom@@ 76
küh@@ 76
Wechsel@@ 76
Waffe 76
technische 76
Milch 76
leistung 76
Ansichten 76
Wird 75
Party 75
250 75
General 75
Kreuz@@ 75
äuß@@ 75
elli@@ 75
stö@@ 75
Brustkrebs 75
stür@@ 75
App@@ 75
auszudrücken 75
sat@@ 75
ost 75
ossen 75
netz 75
bigen 75
aktuellen 75
physischen 75
800 75
ulen 75
Hinweise 75
pan@@ 75
2001 75
gste 75
San@@ 75
intelligente 75
hinauf 75
verschwindet 75
Stift 75
Wild@@ 75
geschlossen 75
ins@@ 75
verringern 75
Flugzeuge 75
unterstütz@@ 75
Sektor 75
lag@@ 75
gelehrt 75
deck@@ 75
Tja 75
Etwa 75
stadt 75
Kn@@ 75
geblieben 75
Pfei@@ 75
mmer 75
Doktor 75
aktiven 75
Globalisierung 75
agte 75
Lang@@ 75
Amerikas 75
liefert 75
ausschließlich 75
runter@@ 75
wirklichen 75
Handeln 75
älteren 75
32 75
Mehr@@ 75
boden 75
wandern 75
Muslime 75
mag@@ 75
ältere 75
Sek@@ 75
tur 74
kap@@ 74
klingen 74
Indi@@ 74
zeugen 74
werdet 74
fische 74
bedingungen 74
bedarf 74
Mamm@@ 74
llen 74
Fahrzeuge 74
Bewegungs@@ 74
umzusetzen 74
by 74
Bedarf 74
Hä@@ 74
S-@@ 74
erh@@ 74
greift 74
Lehrern 74
Grün@@ 74
inklusive 74
quelle 74
Übung 74
PM 74
ruft 74
eingehen 74
sexuelle 74
geschützt 74
Transparenz 74
Darauf 74
sur@@ 74
schü@@ 74
bewegte 74
ehr 74
berühmt 74
Bewohner 74
Hö@@ 74
Konsumenten 74
Hacker 74
Ruhe 74
spar@@ 74
entwicklung 74
ktive 74
irgendwelche 74
ordnung 74
Freund@@ 74
Forsch@@ 74
Chip 74
BF 74
Höhle 74
kts 74
trä@@ 74
erledigen 74
Zit@@ 74
Hör@@ 74
Fremden 74
folgte 74
Kommunikations@@ 74
jenseits 74
Blätter 74
konstru@@ 73
Aufstieg 73
esse 73
Kontroll@@ 73
projekt 73
Sy@@ 73
kämpft 73
entieren 73
station 73
ersetzt 73
basierte 73
Scham 73
Schwer@@ 73
Reichtum 73
schwar@@ 73
Tief@@ 73
ktiv 73
tsp@@ 73
halb@@ 73
verl@@ 73
linke 73
Pri@@ 73
tü@@ 73
Letztes 73
dah@@ 73
Weißt 73
kannten 73
ritten 73
entdeckten 73
äter 73
Mau@@ 73
14@@ 73
Angriff 73
künstliche 73
Population 73
inneren 73
30@@ 73
Gipfel 73
einzigartig 73
Tö@@ 73
ologisch 73
i-@@ 73
gert 73
Oxford 73
sicht@@ 73
dlichen 73
unterhalb 73
vorwärts 73
Mitglied 73
schaffte 73
dra@@ 73
blu@@ 73
fühlten 73
sig 73
weltweite 73
bedeutend 73
außergewöhnliche 73
Spur 73
20.000 73
Krei@@ 73
sozi@@ 73
zukünftigen 73
ierendes 73
Bank@@ 73
Open 73
politik 73
ehren 73
eien 73
Ausgaben 73
Jugend 73
stischen 73
Hölle 73
schreck@@ 72
hindurch 72
allgemeinen 72
Journalisten 72
1-@@ 72
vieren 72
700 72
Auswirkung 72
Inhalte 72
nachhaltig 72
Ob@@ 72
ierungen 72
Atem 72
stimm@@ 72
Spielzeug 72
bilder 72
Schnee 72
gut@@ 72
Baum@@ 72
Sar@@ 72
Entstehung 72
Spar@@ 72
zukünftige 72
ausgegeben 72
teilte 72
einzusetzen 72
frü@@ 72
öffnete 72
star@@ 72
sechs@@ 72
gestiegen 72
Stille 72
ärmsten 72
Umgang 72
Plat@@ 72
folge 72
iti@@ 72
Dialog 72
Mach 72
Dennoch 72
vorn 72
Autor 72
wes@@ 72
Apple 72
Gebrauch 72
Rezep@@ 72
vorhersagen 72
rt 72
tenden 72
isieren 72
Sammlung 72
ca 72
wahrschein@@ 72
nutzten 72
zuzu@@ 72
sol@@ 72
Life 72
ständen 72
Abl@@ 72
Cou@@ 72
verständlich 72
fehlen 72
ktiven 72
Großvater 72
schlimm 72
kauft 72
Werke 72
Bedenken 72
Dienst 72
behaupte 72
Anti-@@ 72
Wissens 72
Studium 72
Martin 72
erf@@ 71
Frank 71
kop@@ 71
Gold@@ 71
Hitze 71
wu@@ 71
Welle 71
rie 71
vermittelt 71
geist@@ 71
Diagnose 71
liest 71
Bal@@ 71
Gegenstände 71
Figuren 71
Res@@ 71
wissenschaftlich 71
Eu@@ 71
Beitrag 71
gesucht 71
fließen 71
Sur@@ 71
196@@ 71
Pause 71
wü@@ 71
feu@@ 71
angekommen 71
bekann@@ 71
betre@@ 71
us-@@ 71
religiösen 71
schnelle 71
Papa 71
Schwar@@ 71
alisten 71
Proje@@ 71
größ@@ 71
zusätzlich 71
werk@@ 71
liebt 71
Gei@@ 71
bedroht 71
Prin@@ 71
Schülern 71
nachhaltige 71
Werbe@@ 71
freuen 71
Oktober 71
atz 71
Fliege 71
Köpfen 71
erenden 71
Flügel 71
Gesundheitssystem 71
Dok@@ 71
Teleskop 71
zweitens 71
co@@ 71
sie@@ 71
Könnte 71
Videospiele 71
Hyper@@ 71
Such@@ 71
Polizei@@ 71
bruch 71
opp@@ 71
waffen 71
Option 71
fel 71
bert 71
Bäumen 71
Sternen 71
komplizierte 71
See@@ 71
schlussendlich 71
warf 71
flächen 71
Liefer@@ 71
krei@@ 71
Ehemann 71
Werten 71
übersetzt 71
züge 71
Fantasie 71
flug 71
Fahrrad 71
Angebot 71
Trends 71
veranst@@ 71
zurückkommen 70
Bab@@ 70
our@@ 70
überprüfen 70
gesp@@ 70
ve@@ 70
Sequenz 70
klein@@ 70
Geruch 70
person@@ 70
Tom 70
schwierigen 70
brau@@ 70
Grippe 70
dy 70
Dynamik 70
Abfall 70
Identi@@ 70
gh@@ 70
26 70
dumm 70
ets 70
pft 70
Blickwinkel 70
Ment@@ 70
Rio 70
Ruanda 70
aktu@@ 70
Gerade 70
Dinger 70
US@@ 70
Proto@@ 70
schläge 70
physi@@ 70
Stoff 70
senken 70
Amp@@ 70
Milli@@ 70
Lebensqualität 70
profitieren 70
Chef 70
freund@@ 70
erinnerte 70
bedenken 70
Operationen 70
Tee 70
erkunden 70
ähnliches 70
Heim@@ 70
gewinnt 70
ät 70
Grün 70
schafften 70
holte 70
fressen 70
Kiste 70
Joe 70
Flüssigkeit 70
schlei@@ 70
winzige 70
Men@@ 70
reiste 70
fizieren 70
Abenteuer 70
Dan 70
Jung@@ 70
stec@@ 70
Statistik 70
Ärzten 70
virtuellen 70
probieren 70
Nervenzellen 70
verbrauchen 70
finanz@@ 70
bis@@ 70
unterscheidet 70
E-Mails 70
sion 70
Wach@@ 70
Zeitungen 70
tern@@ 70
Schulter 70
Kra@@ 70
gegessen 70
kürz@@ 70
zigen 70
Vier 70
Praxis 70
Rot 70
zentr@@ 70
ents 70
Ret@@ 70
Stat@@ 70
Science 69
Beinen 69
Sin@@ 69
Intuition 69
erfahr@@ 69
schieben 69
ausgebildet 69
Therapie 69
Gas@@ 69
zusätzliche 69
firma 69
wunderschön 69
arm@@ 69
Schauspieler 69
ick 69
här@@ 69
Betrachten 69
Menschlichkeit 69
auer 69
Che@@ 69
Zusammen 69
live 69
erfordert 69
dacht 69
täglichen 69
erzählten 69
ärm@@ 69
Steuer@@ 69
matik 69
Ele@@ 69
spielten 69
spek@@ 69
ierend 69
erie 69
kommen@@ 69
Lehre 69
Später 69
Algorithmus 69
Tempo 69
trugen 69
ki@@ 69
beziehen 69
circa 69
Tages@@ 69
85 69
Köpfe 69
keiten 69
räum@@ 69
zeichnung 69
Lau@@ 69
netz@@ 69
Diesen 69
Allerdings 69
Farb@@ 69
Volks@@ 69
Nachrichten@@ 69
Depressionen 69
Punkten 69
Kreb@@ 69
umwelt@@ 69
schwi@@ 69
ungs-@@ 69
kochen 69
Prot@@ 69
gewöhnlich 69
global 69
Weiter@@ 69
komplexer 69
effizienter 69
benen 69
verbraucht 68
uri@@ 68
Beide 68
Bier 68
33 68
mäßig 68
aku@@ 68
tom@@ 68
angetrieben 68
errichten 68
ausführen 68
cken@@ 68
kun@@ 68
bewerten 68
Polio 68
Illusion 68
Fernseher 68
Schnitt 68
3,@@ 68
prüfen 68
gewöhnliche 68
Störungen 68
angen 68
Zufriedenheit 68
allgemeine 68
Standpunkt 68
‹ 68
weitermachen 68
Sil@@ 68
beschützen 68
unterhalten 68
Magazin 68
Streit@@ 68
Glücklicherweise 68
ministerium 68
Rock@@ 68
druck@@ 68
teilnehmen 68
zur@@ 68
echter 68
Spei@@ 68
Onkel 68
jekt 68
Entschuldigung 68
Wohlbefinden 68
Kluft 68
ücke 68
Versch@@ 68
gent@@ 68
Bin@@ 68
Produk@@ 68
Kriege 68
wol@@ 68
stor@@ 68
Stanford 68
ogra@@ 68
heit@@ 68
schriften 68
tag 68
sicherstellen 68
Anerkennung 68
› 68
diesmal 68
Jeden 68
zir@@ 68
Hinweis 68
Roll@@ 68
Institute 68
disch 68
2003 68
.com 68
zö@@ 68
spezifische 68
Stau@@ 68
fis@@ 68
Dichte 68
Poster 68
il 68
erfüllt 68
altung 68
Nachbar@@ 68
Quadrat 68
tigte 68
Lichter 68
gigen 68
aufen 68
entierte 67
isst 67
Energieverbrauch 67
sorgt 67
endsten 67
Person@@ 67
funktion 67
einziger 67
kan 67
Entwurf 67
Fel@@ 67
Nation@@ 67
discher 67
Big 67
erzielen 67
wirkung 67
Meister@@ 67
lese 67
kommenden 67
these 67
Nordamerika 67
kos@@ 67
Mut@@ 67
aben 67
Weltall 67
versagen 67
zugleich 67
Engagement 67
ge-@@ 67
beendet 67
Air@@ 67
wör@@ 67
Ratten 67
wertvoll 67
Italien 67
Kranken@@ 67
sitze 67
kriege 67
tollen 67
Anzeichen 67
Stein@@ 67
Interview 67
niedrig 67
Allgemeinen 67
ungewöhnlich 67
startete 67
Blau 67
Wollen 67
Leistungen 67
komisch 67
programmiert 67
aufrecht 67
Manhattan 67
private 67
stru@@ 67
Dec@@ 67
Stämme 67
Felsen 67
schüt@@ 67
Strahlung 67
Untersuchungen 67
80ern 67
Offenheit 67
Dre@@ 67
Fein@@ 67
heran 67
Ner@@ 67
zustand 67
Haf@@ 67
Falle 67
chs@@ 67
digkeit 67
waschen 67
wohlhab@@ 67
programm 67
kehrte 67
Mittleren 67
Einmal 67
den-@@ 67
icht 67
nissen 67
Tragödie 67
amp@@ 67
chnen 67
tend 67
berühm@@ 67
Nerven@@ 66
Empathie 66
Schwanz 66
giganti@@ 66
fluss 66
erfuhr 66
irgendwas 66
iel 66
isierung 66
ee 66
alitäten 66
ungeheuer 66
Mäuse 66
Lat@@ 66
dig@@ 66
wohnen 66
gerissen 66
Hügel 66
Analy@@ 66
male 66
herein 66
Symmetrie 66
dien@@ 66
aufmerksam 66
gere 66
durchs 66
Liebes@@ 66
betra@@ 66
Königin 66
Kuh 66
Jo@@ 66
entscheidende 66
kehr@@ 66
Florida 66
nost@@ 66
kennung 66
Abhängigkeit 66
finanzieren 66
soziales 66
moder@@ 66
appe 66
film 66
bedienen 66
drück@@ 66
tägliche 66
glückliche 66
ursprüngliche 66
stück@@ 66
perfekten 66
tolles 66
hilfreich 66
sprech@@ 66
Erwärmung 66
ring@@ 66
Viel 66
Mischung 66
mas@@ 66
Refle@@ 66
edi@@ 66
esten 66
landete 66
Schreib@@ 66
Stamm 66
Statt 66
bend 66
Kooperation 66
genetisch 66
Ir@@ 66
besie@@ 66
teilung 66
fass@@ 66
Flächen 66
Fabriken 66
sinnvoll 66
kern 66
gnis 66
Pre@@ 65
ome 65
jagen 65
les 65
Meinungen 65
angepasst 65
woll@@ 65
geredet 65
dreimal 65
Vortrags 65
Auftrag 65
uni@@ 65
wissenschaftler 65
Gleichheit 65
Maße 65
westliche 65
Güte 65
Kugel 65
bewältigen 65
übt 65
Vielzahl 65
Dezember 65
Gestaltung 65
allzu 65
dramatisch 65
beachten 65
ätz@@ 65
derung 65
jahr@@ 65
ungsprozess 65
haf@@ 65
stie@@ 65
gefüllt 65
Könnten 65
unterricht 65
Autoren 65
irgendein 65
anzuschauen 65
Red@@ 65
grad 65
Park@@ 65
gestoßen 65
Mei@@ 65
genaue 65
Sätze 65
chan@@ 65
hier@@ 65
Kohlendioxid 65
beliebt 65
angeschaut 65
umm@@ 65
Kurzem 65
finanziert 65
Nutzer 65
konkre@@ 65
Einfach 65
liefen 65
Oft 65
umfas@@ 65
stün@@ 65
Lag@@ 65
T-S@@ 65
ce 65
sal@@ 65
gebor@@ 65
Medikamenten 65
halben 65
Mig@@ 65
17. 65
unen 65
te-@@ 65
blö@@ 65
reißen 65
drän@@ 65
ück@@ 65
dienst 65
städ@@ 65
Tricks 65
trainieren 65
Brüder 65
fs 65
Summe 65
Start 65
Kredit@@ 65
stoß 65
Länge 65
bran@@ 65
beeindruckend 65
Sauerstoff@@ 65
Probe 65
durchzuführen 65
weh 65
speichern 65
wunderschönen 65
kombinieren 65
gucken 65
produz@@ 65
Krankheits@@ 65
Taten 65
liefer@@ 65
geflogen 65
häufiger 65
3. 64
Bürgermeister 64
Pol@@ 64
vertik@@ 64
Februar 64
ausgewählt 64
eite 64
ret@@ 64
Herkunft 64
ül@@ 64
Klar 64
spre@@ 64
Gegenstand 64
revolution@@ 64
lers 64
verhindert 64
tens 64
vielerlei 64
schein 64
Abstand 64
Mai 64
Bus@@ 64
Bandbreite 64
organis@@ 64
billi@@ 64
Auflösung 64
erfor@@ 64
Investition 64
inmitten 64
gewissermaßen 64
billiger 64
Vertrau@@ 64
richtet 64
fischen 64
sum@@ 64
enes 64
erledigt 64
rechts@@ 64
erkannten 64
Zeichnungen 64
angesichts 64
lehr@@ 64
wünschen 64
mten 64
Lücke 64
selb@@ 64
erschien 64
,@@ 64
Erfinder 64
kehrt 64
belie@@ 64
prozess 64
Sprung 64
2.000 64
rin@@ 64
aktivieren 64
sern 64
Früher 64
weichen 64
alem 64
vermute 64
verdoppelt 64
effizi@@ 64
Winkel 64
TED@@ 64
Datenbank 64
Wissenschafts@@ 64
nicht@@ 64
Schwerkraft 64
Geheimnisse 64
involviert 64
Büro@@ 64
mäß@@ 64
Inst@@ 64
Sitz 64
wissenschaft 64
erend 64
Punk@@ 64
isiert 64
anstellen 64
Tal@@ 64
Effekte 64
Institution 64
ativ@@ 64
… 64
Peter 64
Wellen@@ 64
fühl@@ 64
Besten 64
Verwand@@ 64
typ@@ 64
Berufs@@ 64
utzen 64
ll 64
Web@@ 64
züchten 64
zweites 64
Löwen 64
gebäude 64
Emissionen 64
herrscht 64
Gefahren 64
einstellen 64
geschäft 64
Ke@@ 63
ol 63
deln 63
Jim 63
Rin@@ 63
bo 63
behörde 63
Anreize 63
täten 63
Hypothese 63
Zi@@ 63
Kö@@ 63
Erforschung 63
Feu@@ 63
Aufzeichnungen 63
sicheren 63
Religionen 63
leute 63
Ameise 63
bot@@ 63
gangen 63
Manager 63
Kop@@ 63
bereiten 63
Prozesses 63
40@@ 63
Füßen 63
stärk@@ 63
Nicht-@@ 63
Somit 63
Autorität 63
mut@@ 63
Lebensraum 63
Bess@@ 63
wundervollen 63
Prim@@ 63
gesellschaftlichen 63
Blog 63
Initiative 63
städtischen 63
Klavier 63
imp@@ 63
füllt 63
Vereinten 63
Animation 63
industrielle 63
Gy@@ 63
ursprünglichen 63
Hut 63
V-@@ 63
üre 63
Schlange 63
wan@@ 63
Mittagessen 63
handel 63
Feedback 63
Heimat 63
Wärme 63
Geri@@ 63
Hilfs@@ 63
fle@@ 63
derte 63
schö@@ 63
Genen 63
burg 63
10-@@ 63
geschn@@ 63
aufgeben 63
berühmte 63
interessantes 63
Täuschung 63
az@@ 63
ecke 63
Ohr 63
Schokolade 63
aussah 63
Frühling 63
krieg 63
vertrau@@ 63
probleme 63
schickten 63
Restaurants 63
stete 63
Tätigkeit 63
verkehr 63
Marketing 63
ba 63
passte 63
Studi@@ 63
reale 63
ash 63
bezieht 63
Kreaturen 63
pon@@ 63
sionen 63
neulich 63
Übergang 63
Pläne 63
arch@@ 63
pen 63
beobachtete 63
ker@@ 63
Weltbank 63
Abendessen 63
fange 63
16@@ 63
sendet 63
lle 63
Nahen 63
Homo 63
geld 63
Wetter@@ 63
Käfer 63
Sonnensystem 63
irgendeiner 63
Spuren 62
Tausenden 62
Strah@@ 62
Rhythmus 62
setzung 62
mächtige 62
relevant 62
berühmten 62
Kilo 62
folgten 62
verletz@@ 62
Sä@@ 62
gend@@ 62
kette 62
Mauer 62
Architekt 62
Ingenieur@@ 62
Dienst@@ 62
minim@@ 62
matische 62
rah@@ 62
Türkei 62
Rand@@ 62
grös@@ 62
atives 62
wozu 62
zten 62
ologischen 62
heim 62
Prei@@ 62
Überzeugung 62
Derek 62
eckt 62
Wolke 62
stattfinden 62
Transport@@ 62
verdammt 62
Pi@@ 62
Optimismus 62
Kindersterblichkeit 62
überlassen 62
staatlichen 62
my@@ 62
Verzweiflung 62
este 62
Hindernisse 62
kes 62
wuchsen 62
Organ 62
aktive 62
fehl@@ 62
merk@@ 62
Umfrage 62
zeichn@@ 62
Rad 62
unendlich 62
Arbeitsplatz 62
th 62
stattfindet 62
Motoren 62
rop@@ 62
gewaltige 62
Beschreibung 62
beginne 62
gesellschaft 62
ankommen 62
Mark 62
gerecht 62
Symbole 62
rische 62
Außer@@ 62
verschm@@ 62
Reden 62
Keiner 62
gedreht 62
pen@@ 62
einzig 62
hebt 62
mitteilen 62
bemerkenswerte 62
gemäß 62
verlangt 62
Reichweite 62
Schau@@ 62
Verkehrs@@ 62
berichtet 62
vorkommen 62
finanziellen 62
bewirkt 62
verhält 62
Ah@@ 62
namen 62
Stahl 62
brüche 62
formt 62
Verletzungen 62
iten 62
betreten 62
Versagen 62
strö@@ 62
gewebe 62
pu@@ 62
Post@@ 61
Austausch 61
Nu@@ 61
Mittelpunkt 61
Baby@@ 61
AB 61
rek@@ 61
29 61
anhalten 61
Tou@@ 61
el-@@ 61
Roman 61
dü@@ 61
präsentieren 61
erfasst 61
1,5 61
Eric 61
Human@@ 61
Boden@@ 61
klinische 61
führenden 61
Haar 61
Leistungs@@ 61
verständ@@ 61
rang 61
läs@@ 61
schil@@ 61
Kurz@@ 61
identi@@ 61
kolle@@ 61
de-@@ 61
individuellen 61
entschlossen 61
Pflege 61
Ignoranz 61
experiment@@ 61
englischen 61
Näch@@ 61
gewis@@ 61
kontrolle 61
Stre@@ 61
Sor@@ 61
Eisen@@ 61
Atome 61
fäh@@ 61
gelang 61
tze 61
Betra@@ 61
hilfe 61
Kab@@ 61
überqueren 61
Einrichtung 61
verkaufte 61
spannend 61
leu@@ 61
Supermarkt 61
konserv@@ 61
wies 61
individuelle 61
Staub 61
Hab@@ 61
plus 61
tage 61
blich 61
elektr@@ 61
Energien 61
redet 61
Schichten 61
blasen 61
Stimmt 61
käme 61
zo@@ 61
verzweifelt 61
erhe@@ 61
räume 61
an-@@ 61
voran 61
pfe 61
erstaunlichen 61
früh@@ 61
bart 61
Trotz 61
Regenwald 61
Einzelnen 61
Wale 61
deuten 61
Ja@@ 61
aris@@ 61
lösung 61
ga@@ 61
Diskussionen 61
gerung 61
ank@@ 61
3.000 61
öff@@ 61
Chinas 61
Friedens@@ 61
verdam@@ 61
ankommt 61
Off@@ 61
design 61
organ@@ 61
Reich 61
Bru@@ 61
Poly@@ 61
heiße 61
tru@@ 61
Schau 61
britischen 61
kurzer 61
einschließlich 61
Objekten 61
Poesie 61
fasst 61
verfügen 61
Vorhersagen 61
ppt 61
Chirurg 61
Haut@@ 61
widmen 61
berechnet 60
drängen 60
Sprecher 60
Glaube 60
enge 60
Pflanzen@@ 60
Felder 60
symmet@@ 60
Reihenfolge 60
popul@@ 60
etze 60
Umgebungen 60
Katzen 60
Ehe@@ 60
Sat@@ 60
Kommentare 60
Produktivität 60
sierung 60
kün@@ 60
ager 60
Explosion 60
schweren 60
Fall@@ 60
st-@@ 60
Hardware 60
vielmals 60
kinder 60
unterrichtet 60
KB 60
schutz 60
Euro 60
bank 60
Simulation 60
klet@@ 60
0-@@ 60
spektakul@@ 60
Tode 60
umher@@ 60
Solche 60
aktivität 60
minister 60
glücklichen 60
wodurch 60
überwachen 60
Gedanken@@ 60
atur@@ 60
Skulptur 60
würdest 60
hierfür 60
leh@@ 60
optimistisch 60
Studierenden 60
Richter 60
zweieinhalb 60
mitteln 60
Krie@@ 60
durchschnittlich 60
ischerweise 60
Heimat@@ 60
Angestellten 60
Hau@@ 60
Psychologen 60
Schreibtisch 60
Lieder 60
fak@@ 60
schar@@ 60
iken 60
designer 60
King 60
Cambridge 60
transportieren 60
wiegt 60
langwei@@ 60
Schlag@@ 60
Selb@@ 60
fotografiert 60
Oxytocin 60
Wander@@ 60
2011 60
enk@@ 60
Laptops 60
Griff 60
Robotern 60
Pin@@ 60
Genauso 60
stol@@ 60
Karto@@ 60
Fahrzeug 60
entgegen 60
definitiv 60
Erziehung 60
Widerspruch 60
legi@@ 60
Erkenntnisse 60
herein@@ 60
for 60
Ernährungs@@ 60
Bescheid 60
ppen@@ 60
unwahrscheinlich 60
zz@@ 60
zut@@ 60
terten 60
frem@@ 60
West 60
veran@@ 60
pflan@@ 60
betonen 60
unden@@ 60
bige 60
bro@@ 60
Führ@@ 60
schwach 60
fachen 60
Wettbewer@@ 60
Lunge 60
aktiviert 60
Besitzer 59
grau@@ 59
Geschmack 59
böse 59
Blogs 59
ffs 59
acht@@ 59
gerü@@ 59
Interaktionen 59
Smith 59
Origami 59
ogen 59
studierte 59
länder 59
bit@@ 59
flogen 59
Rollen 59
kräf@@ 59
Schwarz@@ 59
verurteilt 59
Rennen 59
Verantwor@@ 59
anden 59
Nächstes 59
regeln 59
Kuchen 59
blo@@ 59
Wert@@ 59
räumen 59
bringe 59
Offensichtlich 59
Dreh@@ 59
itäten 59
dur@@ 59
’ 59
stig 59
schluss 59
Post 59
virtuelle 59
pul@@ 59
20-@@ 59
komplette 59
Bis@@ 59
Kolonie 59
Klei@@ 59
eingeschlossen 59
geschnitten 59
Alternativen 59
Haltung 59
Ali@@ 59
essi@@ 59
samer 59
Feuer@@ 59
Affe 59
basieren 59
Tendenz 59
28 59
Koordin@@ 59
erstaunt 59
ellen@@ 59
vergrößern 59
Dimension 59
zige 59
Rechen@@ 59
merkte 59
steigern 59
ritt 59
würdig 59
maschinen 59
Mel@@ 59
Alltag 59
Eth@@ 59
lächerlich 59
ame 59
Parti@@ 59
Mich 59
großartiger 59
jahr 59
steller 59
Kommun@@ 59
Besitz 59
sicherzustellen 59
‘ 59
turen 59
komplizierter 59
Tanz@@ 59
Geburts@@ 59
zel@@ 59
Dro@@ 59
erfand 59
Schrift@@ 59
Irgend@@ 59
Auffassung 59
Fakt 59
Stad@@ 59
Physi@@ 59
Erfindungen 59
zutiefst 59
Blau@@ 59
Konzer@@ 59
eröffnen 59
Ungefähr 59
Menschenrechte 59
empf@@ 59
ön@@ 59
.. 59
öse 59
Steine 59
spei@@ 59
La 59
Bob 59
klug 59
korrekt 59
Bush 59
beantwortet 59
illi@@ 59
Gates 59
Zweiten 59
aufnahme 58
olen 58
Ben 58
litt 58
Drittens 58
aufzunehmen 58
Tropfen 58
chtigen 58
greif@@ 58
pern 58
geeignet 58
bieren 58
Wis@@ 58
umsetzen 58
Hilfsmittel 58
kung 58
getrieben 58
Daumen 58
go 58
baum 58
verbreitete 58
2012 58
dire@@ 58
heu@@ 58
ehe 58
Bom@@ 58
nachhal@@ 58
ele@@ 58
Mr. 58
super@@ 58
grenz@@ 58
wachte 58
auftauchen 58
Star 58
Babies 58
wechselt 58
immer@@ 58
ju@@ 58
haufen 58
Balance 58
Oberflächen 58
kriti@@ 58
Passwörter 58
streiten 58
Drucker 58
Rechner 58
gerin 58
anzunehmen 58
glei@@ 58
Doppel@@ 58
Miss@@ 58
moralisch 58
locken 58
Zwischen@@ 58
Lehrerin 58
Gletscher 58
gezeichnet 58
europäischen 58
sorgfältig 58
sens@@ 58
Sex@@ 58
Ly@@ 58
Sha@@ 58
verab@@ 58
18. 58
Säugetiere 58
beschleunigen 58
belast@@ 58
Ander@@ 58
Neugier 58
itzen 58
tivität 58
Schild 58
Streit 58
sions@@ 58
sitz 58
Lärm 58
ffer 58
Privileg 58
vielfäl@@ 58
Wohnung 58
umgekehrt 58
änge 58
wüsste 58
Got@@ 58
darzustellen 58
tötet 58
Pul@@ 58
flüs@@ 58
auswählen 58
Flughafen 58
Pet@@ 58
verrückten 58
fei@@ 58
Blei@@ 58
Funktion@@ 58
beizubringen 58
schätze 58
wacht 58
Autor@@ 58
abgeschlossen 58
Gefängnis@@ 58
Individuum 58
Panik 58
gefährliche 58
wollt 58
Chirurgen 58
blieben 58
Kreise 58
beobach@@ 58
Schü@@ 58
spezifischen 58
mensch@@ 58
Vermögen 57
ßig 57
beteiligen 57
großem 57
normales 57
Geben 57
eingestellt 57
oc@@ 57
aufnahmen 57
Spannung 57
ktor 57
ordnet 57
Erlaubnis 57
Son@@ 57
ball 57
einander@@ 57
allererst 57
Saturn 57
New@@ 57
Bit@@ 57
anzuwenden 57
Lungen@@ 57
ry 57
klassische 57
staat 57
aush@@ 57
steuert 57
193@@ 57
klang 57
ay 57
niemandem 57
harten 57
Waren 57
intelligent 57
religiöse 57
SS 57
lokal 57
Rollstuhl 57
fa@@ 57
tiefgreif@@ 57
symboli@@ 57
Motto 57
halten@@ 57
Mikroskop 57
Kri@@ 57
Weißen 57
Produkten 57
Besuch 57
roman@@ 57
Speicher 57
Hack@@ 57
Endes 57
aufeinander 57
einzigartige 57
ille 57
ble 57
logisch 57
Medi@@ 57
Allgemein@@ 57
wundervoll 57
leitet 57
wachsende 57
gelt 57
Asteroiden 57
dere 57
Merkmale 57
wüssten 57
auftreten 57
schluss@@ 57
Taliban 57
erem 57
ktes 57
Entropie 57
Strecke 57
Klimawandels 57
wachsenden 57
erstaun@@ 57
intensi@@ 57
weist 57
Ten@@ 57
Wissenschaft@@ 57
gewal@@ 57
weis 57
lügen 57
Künst@@ 57
bio@@ 57
Arch@@ 57
ats@@ 57
männliche 57
eigentlichen 57
Spr@@ 57
freundlich 57
breit 57
brauch 57
Lim@@ 57
mutig 57
vis@@ 57
Jedoch 57
gos 57
Großeltern 57
Sprechen 57
Wörterbuch 57
kasten 57
beweg@@ 57
n-@@ 57
Stabilität 57
um-@@ 57
jedenfalls 57
Arbeitsplätze 57
nochmals 56
freue 56
Kommentar 56
zumachen 56
priv@@ 56
drüber 56
löschen 56
Rezept 56
zwölf 56
Wichtigkeit 56
Is@@ 56
Schizophrenie 56
Stimm@@ 56
zugehen 56
kontro@@ 56
Fettleibigkeit 56
Ballon 56
transportiert 56
chts 56
großartiges 56
öten 56
Gam@@ 56
biologisch 56
Kultur@@ 56
Norwegen 56
kenn@@ 56
ktoren 56
Wen@@ 56
erlaubte 56
Kopie 56
milli@@ 56
entfernten 56
tauschen 56
öser 56
wahrscheinlicher 56
Einwohner 56
Poli@@ 56
komm@@ 56
Satelliten@@ 56
co 56
gelingt 56
Berechnung 56
Durchmesser 56
gerichtet 56
baten 56
flie@@ 56
Besonder@@ 56
Kir@@ 56
Gesetzen 56
Dek@@ 56
Schlagzeilen 56
Impfstoff 56
Gewinner 56
besserer 56
Hirn 56
Howard 56
Stro@@ 56
Verkauf 56
Frucht@@ 56
versagt 56
Gre@@ 56
automati@@ 56
Nerven 56
hu@@ 56
asst 56
schwan@@ 56
belieb@@ 56
ausreichend 56
kanischen 56
beschleunigt 56
pe 56
altete 56
gelähmt 56
Yeah 56
Rakete 56
einig 56
ahn 56
plätze 56
entwick@@ 56
ebene 56
fiziert 56
bens 56
fantastischen 56
konsumieren 56
ic 56
sache 56
warst 56
Projekts 56
vari@@ 56
Alzheimer 56
herbei@@ 56
Zentimeter 56
empfin@@ 56
2-@@ 56
teils 56
qualität 56
Ange@@ 56
motor@@ 56
sichere 56
wick@@ 56
etes 56
Altern 56
der-@@ 56
Kollege 56
Töchter 56
scheitern 56
Phot@@ 56
halfen 56
keinerlei 56
gereist 56
Notwendigkeit 56
fot@@ 56
rüber 56
ile 56
Ler@@ 56
elen 56
liger 56
auseinander@@ 56
handelte 56
Berat@@ 56
sprin@@ 56
Frem@@ 56
Flus@@ 56
Delph@@ 56
klappt 56
5-@@ 56
globaler 56
Schlä@@ 56
off@@ 56
Mer@@ 56
loser 56
ativer 56
Solarenergie 56
geplant 55
Spi@@ 55
90ern 55
leitung 55
Alkohol 55
mte 55
schnitte 55
tö@@ 55
Arm@@ 55
Song 55
Erkrankung 55
Buches 55
lauter 55
schlechtes 55
ös@@ 55
Indiens 55
Branche 55
Cap@@ 55
mein@@ 55
erwähnte 55
mme 55
cker@@ 55
Dichter 55
Macht@@ 55
197@@ 55
anre@@ 55
wachstum 55
verbrennen 55
ältesten 55
kurs 55
Amazonas 55
Media 55
Tei@@ 55
Liebling@@ 55
ders 55
drinnen 55
klinischen 55
gelben 55
Psychop@@ 55
entle@@ 55
Gore 55
spor@@ 55
Dikt@@ 55
Sendung 55
Nebenwirkungen 55
Schäd@@ 55
grei@@ 55
zell@@ 55
beschei@@ 55
springt 55
cen 55
Krankenhäuser 55
Geschle@@ 55
Halb@@ 55
Herr@@ 55
di 55
gesteckt 55
Horizont 55
fil@@ 55
draussen 55
Programmierer 55
sierte 55
entsprechend 55
behin@@ 55
Dankeschön 55
ziehung 55
einheit 55
modelle 55
Produktions@@ 55
Elektronik 55
mithilfe 55
Toiletten 55
atten 55
Unsicherheit 55
holz 55
ventionen 55
flug@@ 55
Kategorie 55
überdenken 55
herstellt 55
Kohle@@ 55
Koran 55
Gelände 55
radikal 55
Leber 55
Kortex 55
Interviews 55
Urknall 55
Weltraum@@ 55
breiten 55
repräsentieren 55
Interessante 55
Heilung 55
faktoren 55
zuletzt 55
Finger@@ 55
Blog@@ 55
Glei@@ 55
beschränkt 55
ktiver 55
Besonders 55
Anweisungen 55
Hersteller 55
Stock 55
läch@@ 55
schuldig 55
geren 55
klen 55
ständige 55
begriffen 55
Kun@@ 55
sektor 55
masse 55
Pharma@@ 55
Korea 55
trans@@ 55
akzeptiert 55
Zucker@@ 55
ewi@@ 55
Kreislauf 55
Weg@@ 55
probe 55
Wissens@@ 55
schlimmste 55
loses 55
übergreif@@ 55
vertei@@ 55
Rasse 55
anlagen 55
wellen 54
studi@@ 54
aufstehen 54
Reak@@ 54
oi@@ 54
gehei@@ 54
strecken 54
itionen 54
rischen 54
menschlich 54
meint 54
Meiner 54
6. 54
erweitert 54
lat@@ 54
erstmals 54
vergewaltigt 54
Konzentration 54
ama@@ 54
fik@@ 54
Straf@@ 54
asien 54
Analogie 54
Spiegel@@ 54
verwendeten 54
Zehn 54
Erzähler 54
sorge 54
Vaters 54
Mühe 54
Plätze 54
gewohnt 54
leer 54
zentren 54
deutet 54
Kum@@ 54
gangs@@ 54
kombiniert 54
Bundes@@ 54
forschen 54
begriff 54
ates 54
2050 54
einzigartigen 54
Beobachtung 54
hang 54
störungen 54
lehnen 54
trainiert 54
krimin@@ 54
gemeinschaf@@ 54
Computer-@@ 54
fokussieren 54
fähigen 54
explo@@ 54
Kenn@@ 54
wil@@ 54
preis 54
Äthiopien 54
Techn@@ 54
Wortes 54
anges@@ 54
kleineren 54
Bauch 54
Cur@@ 54
mathematische 54
Will@@ 54
bewusstsein 54
ziem@@ 54
Mode@@ 54
1960 54
stimme 54
gesteuert 54
Größenordnung 54
beleu@@ 54
verheiratet 54
durchlaufen 54
wörtlich 54
Grap@@ 54
ater@@ 54
ierungs@@ 54
strukturen 54
Alexander 54
historischen 54
Foundation 54
Alters@@ 54
ewig 54
lizieren 54
geschwindigkeit 54
Fett 54
gemeint 54
amen 54
typische 54
entliche 54
poli@@ 54
einnehmen 54
Schie@@ 54
Verrück@@ 54
Wasserstoff 54
inspiri@@ 54
Wand@@ 54
schief 54
magne@@ 54
gebro@@ 54
Nicht@@ 54
drängt 54
Erzählung 54
verraten 54
stau@@ 54
industriellen 54
schätzt 54
gefolgt 54
Welches 54
stärksten 54
gn@@ 54
stamm@@ 54
Handlung 54
Türen 54
RB 54
Einzige 54
finanzielle 54
Widerstand 54
visu@@ 54
sinken 54
hand 54
Lan@@ 54
Ost@@ 54
Verschmutzung 54
Investoren 54
ands 54
bal@@ 54
Standards 54
eurer 54
mern 54
uns@@ 54
zentralen 54
einfach@@ 54
Fran@@ 54
ereien 54
gänge 53
Mike 53
indische 53
litten 53
eingebaut 53
mitt@@ 53
ühlen 53
Flüchtlinge 53
Unfälle 53
motivieren 53
gri@@ 53
Seife 53
eht 53
Ingenieur 53
Messer 53
schwarzes 53
Häu@@ 53
nutzte 53
wichtiges 53
spannen@@ 53
dringt 53
liste 53
Streben 53
Quantenmechanik 53
leihen 53
00@@ 53
2,5 53
Einblick 53
bien 53
US 53
Schlag 53
unterbrochen 53
durchaus 53
en. 53
technisch 53
Polizisten 53
nar@@ 53
Vorbild 53
illegal 53
Ken@@ 53
igt 53
Garage 53
Zurück 53
lan 53
Gerüst 53
genheit 53
ular 53
soli@@ 53
coole 53
talen 53
riesiger 53
hef@@ 53
Antarktis 53
Woh@@ 53
typischen 53
Gig@@ 53
Fangen 53
xi@@ 53
Bären 53
Top@@ 53
tation 53
fossilen 53
Väter 53
ulation 53
inne 53
berühr@@ 53
multi@@ 53
schreien 53
gewaltigen 53
ökonomischen 53
Vir@@ 53
Rande 53
Meile 53
Eltern@@ 53
beha@@ 53
Sklaverei 53
Seil 53
Liter 53
audi@@ 53
technologische 53
effektiver 53
fst 53
wander@@ 53
izi@@ 53
kognitive 53
Märkten 53
Ba@@ 53
Sechs 53
le-@@ 53
strahlen 53
erreichte 53
Ernst 53
Anhänger 53
steu@@ 53
schung 53
stur@@ 53
therapie 53
Gerü@@ 53
sinkt 53
charakter@@ 53
Substanz 53
bereitet 53
dre@@ 53
assung 53
kontrolli@@ 53
worfen 53
Dem 53
Amat@@ 53
ehmen 53
gül@@ 53
meister 53
still@@ 53
li 53
ann 53
wein@@ 53
ackt 53
dün@@ 53
rut@@ 53
organisation 53
fuer 53
Schalter 53
schrecklichen 53
weiger@@ 53
Desig@@ 53
verli@@ 53
zueinander 53
setze 53
scha@@ 53
Sicher@@ 53
x-@@ 53
Obje@@ 53
Fotografie 53
enheit 53
Para@@ 53
Gewi@@ 53
Sinn@@ 53
zun@@ 53
solches 53
natürlicher 53
Spiels 53
häss@@ 53
chtigkeit 53
Slums 53
Kontro@@ 53
inger 53
Wörtern 53
Marken@@ 53
fleisch 53
versetzen 53
bereit@@ 53
Schädel 53
zwanzig 52
Zus@@ 52
kunst 52
Jesus 52
chteten 52
wohn@@ 52
Anreiz 52
Matrix 52
benötigte 52
erweise 52
lossen 52
Hai 52
experimentieren 52
42 52
Ursprün@@ 52
angewandt 52
Video@@ 52
ök@@ 52
Irgendwie 52
55 52
verfahren 52
tatsächlichen 52
Treibstoff 52
welle 52
präzise 52
denkst 52
Hun@@ 52
Stell@@ 52
Dörfer 52
kop 52
wirtschaftlich 52
holten 52
Antrieb 52
Unternehmens@@ 52
esch@@ 52
beten 52
wartete 52
bere@@ 52
befand 52
leiter 52
Sonder@@ 52
Nelson 52
Schad@@ 52
ologi@@ 52
bevorzu@@ 52
Aussehen 52
samm@@ 52
Entdeck@@ 52
klettern 52
emotionalen 52
offenbar 52
Blasen 52
bie@@ 52
sammelt 52
Heimatstadt 52
mitgebracht 52
Traditionen 52
Schätzung 52
Flü@@ 52
kreu@@ 52
defin@@ 52
Der@@ 52
Schaut 52
rum@@ 52
Elektroden 52
Gras@@ 52
Sir 52
bedeutende 52
verbrauch 52
Nährstoffe 52
beeindruckt 52
Planung 52
Rel@@ 52
skal@@ 52
fortgeschritt@@ 52
Nah@@ 52
Interpretation 52
Schlacht 52
Wachstums@@ 52
kauf@@ 52
umher 52
attra@@ 52
70ern 52
test@@ 52
Transport 52
jenes 52
abschließen 52
dichte 52
entsetz@@ 52
Kolonien 52
verboten 52
geschä@@ 52
veröffentlichte 52
Erinn@@ 52
Banken 52
eben@@ 52
ziehe 52
gelten 52
eszenz 52
gei@@ 52
lager 52
gewicht 52
Anliegen 52
einführen 52
Filter 52
Zuhören 52
Strö@@ 52
Vernunft 52
ausger@@ 52
umfasst 52
Ehr@@ 52
Schauspiel@@ 52
Pocken 52
Lot@@ 52
elektronische 52
β@@ 52
Behörden 52
Gän@@ 52
erlich 52
Pazifik 52
Ratte 52
Stufen 52
elegan@@ 52
chtete 52
Ve@@ 52
pre@@ 52
Fasern 52
Annahmen 52
euren 52
ien@@ 52
Kochen 52
ion@@ 52
Therap@@ 52
Roboter@@ 52
bzw. 52
top@@ 52
gehst 52
rückwärts 52
sichts@@ 52
Raumes 52
licht@@ 52
Cal@@ 52
Interessanterweise 52
Netzwerken 52
Kandidaten 52
erfolgreiche 52
id 52
Körpern 52
Sim@@ 52
klare 52
zurecht@@ 52
Bil@@ 52
Selektion 52
1998 52
Tauch@@ 52
stieß 52
Andererseits 52
stung 52
Bü@@ 52
fig@@ 52
Bö@@ 52
TV 52
Juli 51
hey 51
mitglieder 51
Oel 51
wege 51
Direktor 51
verknüpft 51
Fischer 51
woanders 51
Musch@@ 51
amin@@ 51
Kapazität 51
Ap@@ 51
gur@@ 51
jegliche 51
Behandlungen 51
Durchbruch 51
Kategorien 51
ermutigen 51
Bildschir@@ 51
chens 51
Tal 51
chene 51
ökonomische 51
integriert 51
Lügen 51
span@@ 51
schenken 51
Enkel 51
schätz@@ 51
Zehn@@ 51
Kind@@ 51
amer@@ 51
asen@@ 51
wechsel 51
dringend 51
Bergen 51
unabhängige 51
Imp@@ 51
Schnell@@ 51
Hektar 51
Wohin 51
ult 51
Fahrrad@@ 51
Zehen 51
Spanien 51
ves 51
abhängt 51
schli@@ 51
ore@@ 51
physisch 51
ai 51
Versprechen 51
staat@@ 51
ann@@ 51
felder 51
3-@@ 51
Landschaften 51
hingegen 51
toler@@ 51
ausprobieren 51
Exper@@ 51
Refer@@ 51
Ham@@ 51
ungslos 51
Ford 51
fau@@ 51
mm 51
aufgestellt 51
konstruiert 51
daneben 51
äten 51
Gesichts@@ 51
kriegt 51
dehnt 51
zig@@ 51
spitzen 51
Ray 51
derten 51
kä@@ 51
intelligenten 51
ograf@@ 51
Interessantes 51
betreffen 51
schein@@ 51
gier@@ 51
verwand@@ 51
Völker 51
Angesicht 51
Watt 51
Dür@@ 51
diagnostiziert 51
funk@@ 51
gie 51
Hast 51
Kris@@ 51
Tür@@ 51
filmen 51
Bestandteil 51
neuesten 51
bewiesen 51
well 51
Konfli@@ 51
tradition@@ 51
Schwellen@@ 51
anderswo 51
ausgesch@@ 51
E-@@ 51
lok@@ 51
2002 51
ausgebil@@ 51
aufwuchs 51
globales 51
physikalischen 51
kritische 51
3D 51
restlichen 51
stens 51
Angelegenheit 51
lehrt 51
ness 51
sowieso 51
asi@@ 51
tatsächliche 51
Konsum 51
kleinsten 51
Störung 51
marsch@@ 51
irgend 51
Stahl@@ 51
Tru@@ 51
gründeten 51
angezogen 51
recken 51
Brian 51
Höhlen 51
grundle@@ 51
Wohnungen 51
Oper@@ 51
weinen 51
abgel@@ 51
gesünder 51
schufen 51
Rest@@ 51
zahlt 51
blicke 51
digungen 51
stands 51
wärts@@ 51
Werkzeugen 51
tho@@ 51
Go@@ 51
Balken 51
Wasch@@ 51
aufregende 51
Industrie@@ 51
ess 51
zuhause 50
Cra@@ 50
versetzt 50
Up@@ 50
möglichst 50
ausgedrückt 50
massive 50
exponenti@@ 50
Mary 50
agt 50
demokratische 50
Tour@@ 50
flach 50
Mögliche 50
Y 50
pra@@ 50
menschen 50
überrasch@@ 50
48 50
berücksichtigt 50
landet 50
proz@@ 50
Beton 50
beschrieb 50
sequ@@ 50
Cy@@ 50
Typ@@ 50
atz@@ 50
höchst 50
Einschränkungen 50
z-@@ 50
Anfän@@ 50
Aktivisten 50
gig 50
Rab@@ 50
rieren 50
bote 50
schnei@@ 50
Stück@@ 50
Juden 50
unkte 50
val@@ 50
Königreich 50
chende 50
onen@@ 50
Formel 50
klicken 50
Methan 50
motiviert 50
freiwillig 50
Trinkwasser 50
Ab 50
sag@@ 50
viert 50
Bombe 50
elf 50
affen 50
Bakterium 50
ars 50
Gewinn@@ 50
Bä@@ 50
Preis@@ 50
männlichen 50
Quad@@ 50
wachen 50
straße 50
ci@@ 50
gegenüber@@ 50
Tour 50
scher@@ 50
Ärger 50
ausprobiert 50
Klassi@@ 50
mä@@ 50
Kalorien 50
Kä@@ 50
Johnson 50
Küsten@@ 50
hä@@ 50
freiheit 50
jederzeit 50
erlebte 50
Lach@@ 50
isch-@@ 50
wohnt 50
Talent 50
Cock@@ 50
Wahr@@ 50
größtenteils 50
Parks 50
angeboten 50
fordert 50
gewiesen 50
Wit@@ 50
Kil@@ 50
Stra@@ 50
ulieren 50
erfüll@@ 50
negativ 50
Silicon 50
Nachmittag 50
klassi@@ 50
müsst 50
Impf@@ 50
minist@@ 50
Kühe 50
ulationen 50
1990 50
Entwicklungen 50
anfingen 50
Q@@ 50
Nadel 50
werken 50
Alters 50
Wär@@ 50
Pfer@@ 50
Sper@@ 50
abends 50
Räumen 50
Biom@@ 50
Sieben 50
riesig 50
säu@@ 50
auszuprobieren 50
vermuten 50
persönlicher 50
High-@@ 50
ital@@ 50
bus@@ 50
zugrunde 50
bislang 50
Problem@@ 50
vol@@ 50
Drohnen 50
änden 50
satz@@ 50
Prakti@@ 50
absol@@ 50
anspruchs@@ 50
Ausland 50
meinten 50
anhören 50
einbringen 50
aufhalten 50
rad 50
schlägen 50
Comics 50
relev@@ 50
größeres 50
genau@@ 50
wenigsten 50
Kanal 50
technologie 50
Berei@@ 50
Staat@@ 50
stürzen 50
Treppe 50
liebsten 50
60ern 50
W 50
vorschlagen 50
Gro@@ 50
zusp@@ 50
Anderen 50
wünsche 50
Knoten 50
ank 50
Hi 50
Kurse 50
abhän@@ 50
tus 50
muslimischen 50
Renn@@ 50
Anpassung 50
enkt 50
verdoppeln 50
betrachte 49
gewöhnlichen 49
ams 49
maßnahmen 49
hir@@ 49
Gehör 49
bewahr@@ 49
kunft 49
Rettung 49
mol@@ 49
gien 49
Immunsystem 49
Gan@@ 49
amerikan@@ 49
Cl@@ 49
leucht@@ 49
wah@@ 49
Mot@@ 49
kauften 49
süchtig 49
schicht 49
Sei 49
wette 49
Bedauern 49
tom 49
existierte 49
zutragen 49
struktur@@ 49
Elektronen 49
Psych@@ 49
Laut 49
Repar@@ 49
Glamour 49
eilen 49
verleihen 49
5. 49
leidet 49
Moral@@ 49
sche@@ 49
let 49
Mün@@ 49
dru@@ 49
Är@@ 49
deu@@ 49
veröffentlichten 49
zone 49
jap@@ 49
rel@@ 49
pflanzt 49
Wäh@@ 49
Lichts 49
Bewer@@ 49
versorgt 49
Konstru@@ 49
jähriges 49
willkommen 49
identifiziert 49
jahrelang 49
maßen 49
bemerkens@@ 49
beach@@ 49
ani@@ 49
schnit@@ 49
Sinnes@@ 49
führe 49
Dien@@ 49
beschäftigte 49
kollektiven 49
Rituale 49
Hals 49
Größ@@ 49
Reserv@@ 49
ay@@ 49
geglaubt 49
eventuell 49
ungsweise 49
Lok@@ 49
Genome 49
März 49
Rate 49
t. 49
kran@@ 49
medizin 49
quer 49
toten 49
Brei@@ 49
Ed@@ 49
solle 49
thei@@ 49
nam@@ 49
Distanz 49
ökonom@@ 49
Anwälte 49
gebieten 49
can 49
ausser@@ 49
müde 49
August 49
oni@@ 49
sprechend 49
tex@@ 49
Seiden@@ 49
negativen 49
wendet 49
schlage 49
Sto@@ 49
Herangehensweise 49
Kliniken 49
ielen 49
Feld@@ 49
niedriger 49
Zeichnung 49
liz@@ 49
Güter 49
fru@@ 49
30.000 49
klär@@ 49
wild 49
stehlen 49
Bud@@ 49
Ausgabe 49
Business 49
angemessen@@ 49
hierbei 49
verteilung 49
findung 49
angewendet 49
Meeting 49
Innenstadt 49
äufe 49
gener 49
assi@@ 49
w-@@ 49
dür@@ 49
Schriftsteller 49
Hunder@@ 49
sli@@ 49
ilen 49
dierte 49
politischer 49
bequ@@ 49
ähn@@ 49
Sommer@@ 49
kter 49
melden 49
Einführung 49
schulen 49
reak@@ 49
ollen 49
warm 49
psychische 49
interpretieren 49
Schweine 49
Primaten 49
bestätigen 49
zuzuhören 49
Ozeans 49
PC@@ 49
Mod@@ 49
verlust 49
kreis 49
Verhaltensweisen 49
tren@@ 49
bewegungen 49
ösen 49
integrieren 49
ruf 49
konta@@ 49
beschrei@@ 49
günst@@ 49
Leh@@ 49
Absichten 49
William 49
analysiert 49
furchtbar 49
spannen 48
klo@@ 48
Jahrhunderte 48
Artenvielfalt 48
teu@@ 48
Davon 48
beseitigen 48
starteten 48
Taschen 48
bewe@@ 48
ürzt 48
ansonsten 48
are@@ 48
mith@@ 48
ute 48
Second 48
Hausaufgaben 48
Muskel@@ 48
pfte 48
° 48
oll 48
Informa@@ 48
mengen 48
gkeit 48
Netzwer@@ 48
Rückseite 48
andererseits 48
skraft 48
untersuchten 48
Treibhausgase 48
Leit@@ 48
dring@@ 48
Wichtiges 48
Mandela 48
umgesetzt 48
é 48
bestätigt 48
Pau@@ 48
ili@@ 48
toller 48
Journalist 48
eineinhalb 48
äufer 48
öffentlicher 48
benannt 48
Botschaften 48
britische 48
Hauses 48
Bestandteile 48
Inder 48
gefasst 48
gefährdet 48
Kaffe@@ 48
Auff@@ 48
smus 48
Schne@@ 48
100-@@ 48
sichti@@ 48
Pyramide 48
erisch 48
niedrigen 48
generell 48
redu@@ 48
kalten 48
Mü@@ 48
Finden 48
Quadratmeter 48
Diejenigen 48
stimmte 48
untereinander 48
spenden 48
Fischen 48
Schlei@@ 48
Töne 48
garantiert 48
flo@@ 48
Blu@@ 48
büchern 48
tätig 48
leise 48
aß 48
Standard 48
Ergebnissen 48
erle@@ 48
gene@@ 48
Taschen@@ 48
leitungen 48
Orchester 48
schmerz@@ 48
Magnet@@ 48
Gesicht@@ 48
pat@@ 48
0 48
Zie@@ 48
ermöglichte 48
strom 48
Anlage 48
Gal@@ 48
Urlaub 48
gelbe 48
verletzen 48
Vis@@ 48
Gelegenheiten 48
tives 48
Wirbel@@ 48
gres@@ 48
verwirklichen 48
uen 48
Kapit@@ 48
intensiv 48
rist@@ 48
riecht 48
profession@@ 48
Verletzlichkeit 48
Organis@@ 48
Rauch 48
vertreten 48
festzustellen 48
Mythos 48
klagen 48
sieben@@ 48
riefen 48
Sturm 48
brennen 48
festhalten 48
Team@@ 48
iss 48
Applaus 48
fair 48
generieren 48
Shanghai 48
taucht 48
gewaltig 48
JH 48
sters 48
nchen 48
Briefe 48
demokratischen 48
sens 48
Rückenmark 48
Vertrag 48
Anzeige 48
halbes 48
verni@@ 48
Held 48
50@@ 48
Scho@@ 48
vereint 48
institution@@ 48
Proph@@ 48
Neue 48
staatliche 48
Wörter@@ 48
frag@@ 48
Gleichungen 48
trie@@ 48
ings@@ 48
Gener@@ 48
hervorra@@ 48
branche 48
Tim@@ 48
absichtlich 48
Schweigen 48
Wein@@ 48
Ausschnitt 48
frühe 48
Zwan@@ 48
UN@@ 48
gerechnet 48
facht 48
Urheber@@ 48
Führungskräfte 48
wesentlichen 48
auti@@ 48
Dschihad 47
monat@@ 47
ignoriert 47
Metall@@ 47
Mand@@ 47
Enzy@@ 47
47 47
geringer 47
schütteln 47
produkte 47
typisch 47
Gor@@ 47
nebeneinander 47
wickelt 47
aufstellen 47
ankam 47
Ebenso 47
es-@@ 47
lied 47
Beispielen 47
klass@@ 47
gü@@ 47
Geräten 47
rational 47
kind 47
tät 47
Fü@@ 47
veränderten 47
verblüff@@ 47
viertel 47
Letztendlich 47
erschafft 47
code 47
Interface 47
Earth 47
empfangen 47
Astro@@ 47
lohnt 47
angebracht 47
Mist 47
Katastrophen 47
Weisen 47
firmen 47
Pfle@@ 47
bliche 47
ty 47
freu@@ 47
Zutaten 47
ot 47
aktiver 47
unmittelbar 47
schneidet 47
Richtlinien 47
jahre 47
schaffe 47
faszinierende 47
körper 47
Vorder@@ 47
Skala 47
Eigentum 47
beherr@@ 47
Schöne 47
Kontin@@ 47
Kannst 47
Bewusstseins 47
ells 47
verständnis 47
Experimenten 47
Sach@@ 47
kämen 47
Anwalt 47
spontan 47
Bio-@@ 47
ängen 47
unklar 47
Chips 47
zau@@ 47
Therapien 47
begleitet 47
untere 47
schmerzhaft 47
Betracht 47
linien 47
Schlu@@ 47
effekt 47
Freiwilligen 47
Op@@ 47
merkt 47
Metall 47
Atlantik 47
verläuft 47
koh@@ 47
weitaus 47
Herz-@@ 47
geformt 47
einfluss@@ 47
weiblichen 47
SW 47
Reformen 47
gewalttä@@ 47
maxim@@ 47
künstlichen 47
Dün@@ 47
gering 47
Republikaner 47
erwar@@ 47
Syndrom 47
Mik@@ 47
normaler 47
absolute 47
eurem 47
Flie@@ 47
squ@@ 47
Nest 47
üblichen 47
rest@@ 47
Fu@@ 47
übernommen 47
Univers@@ 47
Filmen 47
Kevin 47
Pack@@ 47
Pion@@ 47
vel@@ 47
starkes 47
quellen 47
UN 47
jün@@ 47
Tony 47
bas@@ 47
umgewandelt 47
beherrschen 47
authenti@@ 47
Bohr@@ 47
Konsu@@ 47
keines 47
aufweisen 47
super 47
Empfänger 47
ansprechen 47
ville 47
Neurowissenschaft 47
zit@@ 47
drittens 47
Disziplin 47
itäts@@ 47
samen 47
liegenden 47
Waffen@@ 47
verwandt 47
natürliches 47
äng@@ 47
ete 47
Mond@@ 47
ura 47
denden 47
bein@@ 47
womöglich 47
fotografieren 47
illa 47
Irgendwann 47
rep@@ 47
vorhand@@ 47
spitze 47
Variationen 47
vertre@@ 47
Übertragung 47
riert 47
zustimmen 47
ausgelöst 47
Geht 47
Lincoln 47
alteten 47
fizierten 47
Flut 47
6.000 47
verwirrt 47
Häusern 47
Brau@@ 47
einfallen 47
kosten@@ 47
Fahrt 47
Gast@@ 47
entlich 46
Schwimmen 46
Neg@@ 46
besor@@ 46
ahn@@ 46
transparent 46
cool@@ 46
Streifen 46
gesunken 46
Forschern 46
tödliche 46
agern 46
Pflege@@ 46
ühle 46
Schwein@@ 46
verblüffend 46
1999 46
Chile 46
Prototyp 46
körperliche 46
teuren 46
Stephen 46
platzieren 46
ir 46
absch@@ 46
geladen 46
Erbe 46
Henry 46
Tum@@ 46
geprägt 46
staaten 46
Meister 46
biologie 46
Wiederhol@@ 46
allgemein@@ 46
posi@@ 46
vergrößert 46
studien 46
gelte 46
abel@@ 46
Kalk@@ 46
Mechanismen 46
absor@@ 46
Zau@@ 46
Zivilisationen 46
dustrie 46
Span@@ 46
mathematischen 46
pfer@@ 46
amer 46
agieren 46
langes 46
Tie@@ 46
istisch 46
ator@@ 46
Sondern 46
Maschinen@@ 46
zielt 46
Deine 46
unglaubliches 46
grü@@ 46
Parteien 46
schock@@ 46
pal@@ 46
Bli@@ 46
Künstlern 46
eingenommen 46
Allein 46
bewohner 46
Zäh@@ 46
extra 46
Sky@@ 46
ärer 46
erneu@@ 46
teres 46
Konzep@@ 46
islamischen 46
effiziente 46
Konflikten 46
steckte 46
bestimmtes 46
kompet@@ 46
ätzen 46
ühren 46
negative 46
strah@@ 46
Transformation 46
onie 46
Fortsch@@ 46
ausgestattet 46
Expedition 46
hing 46
einigt 46
kund@@ 46
4-@@ 46
mächtigen 46
els@@ 46
Steuern 46
ws 46
Beutel@@ 46
beinhalten 46
Metaphern 46
klären 46
zucht 46
durchgehen 46
philosoph@@ 46
kleinste 46
chnik 46
genossen 46
Berührung 46
Teilchen@@ 46
medizin@@ 46
Erzählungen 46
Wohnzimmer 46
wort 46
englische 46
Femin@@ 46
Minist@@ 46
tnissen 46
haut 46
proble@@ 46
Gru@@ 46
Jugendlichen 46
abzul@@ 46
ftung 46
Pot@@ 46
Hoffentlich 46
verpflichtet 46
außer@@ 46
Hem@@ 46
ison 46
Tafel 46
é@@ 46
hr 46
gefäl@@ 46
Impuls 46
sauber 46
schwanger 46
achte 46
Benjamin 46
schuf 46
terung 46
Sicher 46
stige 46
stabil 46
förmige 46
1950 46
beliebigen 46
erwarteten 46
ozi@@ 46
gespeichert 46
entscheidet 46
dd@@ 46
kompon@@ 46
oper@@ 46
Zw@@ 46
itz@@ 46
Schafe 46
fundamentale 46
verarbeitet 46
Delfine 46
Atomenergie 46
Premierminister 46
Probanden 46
blick 46
Gefä@@ 46
stätte 46
engagieren 46
pump@@ 46
anzufangen 46
wahrgenommen 46
genannten 46
anrufen 46
Charlie 46
üllen 46
Trennung 46
Tem@@ 46
zierten 46
Teller 46
verfü@@ 46
Christen 46
County 46
Zy@@ 46
lud 46
bele@@ 46
nied@@ 46
Studierende 46
risk@@ 46
schließend 46
quot 46
Sum@@ 46
High@@ 46
Lungen 46
künst@@ 46
interessierte 45
SP 45
Bir@@ 45
Erweiterung 45
esses 45
Community 45
kämp@@ 45
festen 45
Obdach@@ 45
emotional 45
GPS-@@ 45
wirksam 45
Flam@@ 45
hing@@ 45
iziert 45
Campus 45
schau 45
Last 45
Nimm 45
rier 45
ent-@@ 45
Besonderes 45
ernten 45
Form@@ 45
2030 45
PC 45
engen 45
Carolina 45
Dörfern 45
methoden 45
Gut@@ 45
36 45
inge 45
fikation 45
Krankenhäusern 45
mos@@ 45
primi@@ 45
Funk@@ 45
übers 45
Einladung 45
krat@@ 45
zubringen 45
Indonesien 45
alls 45
Daraus 45
Rechten 45
Lü@@ 45
griff 45
industri@@ 45
hoffnungs@@ 45
Hollywood 45
mäßige 45
verschle@@ 45
Krä@@ 45
herkömm@@ 45
van@@ 45
Anzug 45
Ängste 45
langfristige 45
we 45
Ethik 45
passi@@ 45
Fiktion 45
abb@@ 45
vergleichbar 45
fabrik 45
kurzes 45
mmern 45
schreiten 45
Ecken 45
uung 45
ana 45
inform@@ 45
Klänge 45
Haust@@ 45
Stolz 45
endgül@@ 45
Experte 45
ünst@@ 45
offensicht@@ 45
erfol@@ 45
redete 45
sensi@@ 45
Wald@@ 45
Acht@@ 45
recherch@@ 45
anony@@ 45
verschaffen 45
lin 45
Koralle 45
sion@@ 45
teln 45
zeln 45
alie 45
zweiter 45
din@@ 45
7. 45
Long 45
Geometrie 45
Schweiz 45
theore@@ 45
Betrieb 45
10. 45
ks@@ 45
Unabhängigkeit 45
Frequenz 45
Gegner 45
rufe 45
chenen 45
ümm@@ 45
vorkommt 45
Agenda 45
diskutiert 45
Ursachen 45
Blü@@ 45
Vagina 45
invest@@ 45
Erfolge 45
Texte 45
Zunge 45
kontinuier@@ 45
Woll@@ 45
film@@ 45
Versionen 45
Grenz@@ 45
Überrasch@@ 45
bahnen 45
Zugriff 45
ungssystem 45
Kit@@ 45
Engli@@ 45
glücklicherweise 45
tigsten 45
Erzäh@@ 45
berücksichtigen 45
beglei@@ 45
Dienste 45
Haushalt 45
Adresse 45
pati@@ 45
implan@@ 45
klaren 45
süß 45
sprü@@ 45
italien@@ 45
vollständige 45
Süß@@ 45
geschossen 45
Arab@@ 45
gespräch 45
Kleine 45
Leser 45
setz@@ 45
Sing@@ 45
ungsmittel 45
Diät 45
Milch@@ 45
Bedingung 45
radikale 45
untersuchte 45
Überzeugungen 45
Prioritäten 45
artiges 45
erwartete 45
Salz@@ 45
simulieren 45
Entweder 45
Band@@ 45
NA@@ 45
Brut@@ 45
bewertet 45
durchschnittlichen 45
Mitleid 45
Syrien 45
region 45
Net@@ 45
Skulpturen 45
Angenommen 45
erische 45
Leinwand 45
ständigen 45
irdischen 45
State 45
Kolum@@ 45
stein@@ 45
Abschnitt 45
ys@@ 45
Bausteine 45
Farm 45
Demonstration 45
kopieren 45
kleben 45
block 45
wärmer 45
enke 45
angemessen 45
Entwick@@ 45
Wohl 45
preis@@ 45
koordin@@ 45
becken 45
Blume 45
Genetik 45
Zentren 45
Ironie 45
historische 45
wiegen 45
olitik 45
bösen 45
Brooklyn 45
Mad@@ 45
energie 45
Stur@@ 45
Sig@@ 44
ena 44
U-Bahn 44
Skelett 44
Amerikan@@ 44
verringert 44
Lebensstil 44
Mög@@ 44
Krankenhaus@@ 44
Anspruch 44
Ressource 44
ble@@ 44
riechen 44
Ren@@ 44
fizierte 44
produkt 44
Ag@@ 44
übersehen 44
seltsamen 44
Kampf@@ 44
physik 44
EM 44
Einfl@@ 44
geschaut 44
Bein@@ 44
stag@@ 44
konzentrierte 44
umwandeln 44
voranzu@@ 44
schlu@@ 44
mod@@ 44
inn 44
verschwand 44
bren@@ 44
dimensionalen 44
Wechsel 44
Jack 44
immt 44
Text@@ 44
Faszin@@ 44
Phantom-@@ 44
zusammenfassen 44
Erfol@@ 44
ammern 44
blatt 44
ierender 44
methode 44
dend 44
humanit@@ 44
kommst 44
außergewöhnlichen 44
Behandlungs@@ 44
Anten@@ 44
FBI 44
Charaktere 44
förder@@ 44
gemerkt 44
quali@@ 44
usion@@ 44
Pilze 44
pil@@ 44
Zusätzlich 44
Bürgern 44
Singapur 44
digte 44
ow 44
orien 44
igkeiten 44
Seide 44
entnehmen 44
Frieden@@ 44
Sowjetunion 44
obere 44
Ring 44
has@@ 44
Mur@@ 44
stechnologie 44
ami@@ 44
meln 44
Reg@@ 44
männer 44
proben 44
gungen 44
Ökosysteme 44
üssel 44
brech@@ 44
führer 44
Dauer 44
west@@ 44
aly@@ 44
blä@@ 44
Wachstums 44
Prüf@@ 44
erschreck@@ 44
Sol@@ 44
Iran@@ 44
Szenario 44
graus@@ 44
Vag@@ 44
Automobil@@ 44
fürchte 44
kognitiven 44
exponentiell 44
oftmals 44
Spenden 44
isoliert 44
ffenen 44
zelt 44
Sicht@@ 44
orientiert 44
dick 44
hungrig 44
deh@@ 44
annt 44
onien 44
grä@@ 44
Detroit 44
Hos@@ 44
Meeresspiegel 44
fördert 44
gemeinschaft 44
Live-@@ 44
Spezial@@ 44
schichten 44
Veranstaltung 44
lichten 44
Feinde 44
4. 44
Tut 44
demokra@@ 44
beruht 44
wiesen 44
ten-@@ 44
Herbst 44
Rem@@ 44
Bahn@@ 44
kostengünst@@ 44
tendieren 44
November 44
stren@@ 44
Techniker 44
mische 44
Gestalt 44
örtlichen 44
erheben 44
wettbewer@@ 44
alist 44
treffe 44
illen 44
füh@@ 44
Anwesenheit 44
schir@@ 44
amerikanischer 44
Einstellungen 44
nette 44
kus 44
Differ@@ 44
Forschungen 44
struktu@@ 44
zulegen 44
194@@ 44
Pandemie 44
Grafik@@ 44
dentin 44
Fledermäuse 44
Schwe@@ 44
merkwürdig 44
befanden 44
Ganzes 44
herausfanden 44
gas@@ 44
komplexes 44
U-@@ 44
Zuschau@@ 44
Studien@@ 44
besteh@@ 44
lichere 44
uli@@ 44
tippen 44
ols 44
starren 44
Verfassung 44
blü@@ 44
Out@@ 44
Konkurrenz 44
Verwandten 44
Aristoteles 44
gläu@@ 44
moralis@@ 44
fasste 44
Dor@@ 44
Dan@@ 44
Erschaffung 44
spiegelt 43
brauch@@ 43
34 43
steten 43
Square 43
= 43
stärken 43
dbar 43
Perfe@@ 43
städte 43
chse 43
aches 43
Anstrengung 43
Dorf@@ 43
agert 43
mäßigen 43
72 43
vereinen 43
Mac@@ 43
näh@@ 43
Jones 43
ya 43
engli@@ 43
belohnt 43
Stimmung 43
teurer 43
Ell@@ 43
Bruno 43
Bomben 43
Orbit 43
Beobach@@ 43
Sahara 43
hofft 43
se-@@ 43
verlor@@ 43
Vom 43
stufe 43
Nachdenken 43
Polar@@ 43
einfachste 43
Mitteln 43
Mol@@ 43
Flücht@@ 43
fertigen 43
Freiwillige 43
direkte 43
Drohne 43
erschienen 43
Merk@@ 43
Mode 43
Anlagen 43
Umfang 43
angegriffen 43
verse 43
tale 43
liebe@@ 43
füll@@ 43
North 43
kam@@ 43
chend 43
Spinn@@ 43
Tsunami 43
Front 43
stel 43
zahl@@ 43
trennt 43
Part@@ 43
min 43
Amy 43
Letzten 43
Verbün@@ 43
Kas@@ 43
Fremde 43
rekt 43
Rauschen 43
tagen 43
vorlesen 43
ala 43
verbrei@@ 43
kleidet 43
4.000 43
ro-@@ 43
Geistes 43
Teen@@ 43
zurzeit 43
Delhi 43
ehrt 43
Dic@@ 43
angeblich 43
anlage 43
begraben 43
od@@ 43
sender 43
Stammes@@ 43
herausgestellt 43
zurecht 43
eingeschränkt 43
rasch 43
Erscheinung 43
nisses 43
Bor@@ 43
bett 43
Blick@@ 43
irgendeinen 43
klapp@@ 43
stunden 43
beurteilen 43
Bot@@ 43
aschen 43
erstens 43
Station 43
Hier@@ 43
rechn@@ 43
Aber@@ 43
Schachtel 43
sammelten 43
Whit@@ 43
tos 43
schnellen 43
nungs@@ 43
beschä@@ 43
demü@@ 43
erschüt@@ 43
giert 43
ähe 43
gemein 43
Nat@@ 43
Biosphäre 43
Ents@@ 43
massiven 43
kooperieren 43
Intel@@ 43
Fundament 43
Strafe 43
Geschäft@@ 43
getreten 43
Management 43
Bay 43
Fotograf 43
einzugehen 43
geholt 43
Wünsche 43
künstler@@ 43
Verbrauch 43
beschleun@@ 43
ermutigt 43
Programmier@@ 43
Top-@@ 43
tnis@@ 43
Koll@@ 43
Computers 43
öffneten 43
Frage@@ 43
Project 43
Bibliothe@@ 43
Bedeut@@ 43
Kni@@ 43
37 43
Stich@@ 43
Fen@@ 43
Fußball@@ 43
see 43
alige 43
Afri@@ 43
manipulieren 43
Nachts 43
folgendermaßen 43
blät@@ 43
Weiß 43
Nähr@@ 43
freier 43
AIDS-@@ 43
einzelnes 43
kür@@ 43
hinterfragen 43
Konserv@@ 43
3.@@ 43
Behälter 43
schwachen 43
tteln 43
Beleuchtung 43
ähnelt 43
überein 43
Brennstoffe 43
inj@@ 43
gefühlt 43
legung 43
stechen 43
strahl 43
Zelt 43
Tinte 43
Erden 43
Behinderungen 43
Begeisterung 43
gesetz@@ 43
TK 43
Barri@@ 43
Tag@@ 43
Pä@@ 43
markiert 43
Pizza 43
ran 43
tote 43
demon@@ 43
Männer@@ 43
Ach@@ 43
Benzin 42
Korallenriffe 42
stattfand 42
Bestäu@@ 42
Verteidigung 42
kreativer 42
Hütte 42
forscher 42
gestanden 42
heil@@ 42
resulti@@ 42
Gem@@ 42
und-@@ 42
Verbesserungen 42
menten 42
psychologische 42
Konstruktion 42
Träumen 42
kei@@ 42
Besu@@ 42
hafter 42
Bürgerkrieg 42
dünne 42
kurzfri@@ 42
Böse 42
verwendete 42
kreb@@ 42
Verbraucher 42
eur@@ 42
hn 42
Repräsent@@ 42
Ökologie 42
alli@@ 42
richtungen 42
LG 42
nende 42
it-@@ 42
digten 42
Scheibe 42
selek@@ 42
Bronx 42
strategie 42
GPS 42
beruf@@ 42
Koch@@ 42
Mäd@@ 42
gendste 42
fielen 42
Produkt@@ 42
strateg@@ 42
2020 42
Finanzierung 42
ückt 42
richtete 42
Cre@@ 42
klassischen 42
Versuch@@ 42
siehst 42
onalen 42
Gur@@ 42
verlän@@ 42
Bell 42
ierbar 42
Beginnen 42
Halluzinationen 42
Auseinander@@ 42
Rettungs@@ 42
Betrachtung 42
ance 42
MI@@ 42
glob@@ 42
Krist@@ 42
Newton 42
zufolge 42
tsam 42
verkauften 42
Letzte 42
April 42
dlicher 42
ull@@ 42
gebau@@ 42
Arthur 42
verhaftet 42
potenzi@@ 42
Dasselbe 42
Meme 42
Bade@@ 42
akzep@@ 42
sch-@@ 42
Angelegenheiten 42
Verletzung 42
organisierten 42
unsicher 42
vernachläs@@ 42
Gewinne 42
Kommt 42
Batterien 42
nutze 42
Vari@@ 42
lächeln 42
Mes@@ 42
IS@@ 42
aufgabe 42
vermis@@ 42
dose 42
Stärken 42
bewaff@@ 42
gramm 42
16. 42
physikalische 42
Watson 42
Lektionen 42
Überwachung 42
ett@@ 42
Dokument 42
Angriffe 42
Schmu@@ 42
skosten 42
eignen 42
aufgezeichnet 42
Sternen@@ 42
altern@@ 42
zugs@@ 42
ügen 42
außergewöhn@@ 42
Erfüllung 42
anim@@ 42
Mich@@ 42
filtern 42
Flüsse 42
Brücken 42
mikroskop@@ 42
altungen 42
unsichtbaren 42
lehre 42
Rente 42
Mais 42
enken 42
sprang 42
Gehalt 42
Enkel@@ 42
vern@@ 42
Hoffnungen 42
fris@@ 42
verlässt 42
bür@@ 42
Tiger 42
auffäl@@ 42
flüssi@@ 42
Geschäftsmodell 42
Rover 42
Gehirnen 42
fes@@ 42
üren 42
24@@ 42
Schwimm@@ 42
Gravitation 42
Büros 42
Nervensystem 42
statist@@ 42
Unternehmens 42
gramme 42
osphäre 42
Nahrungsmittel 42
Tit@@ 42
Normal@@ 42
Landwir@@ 42
Cr@@ 42
Kill@@ 42
Monster 42
Wais@@ 42
behör@@ 42
wass@@ 42
jü@@ 42
Milliar@@ 42
Übersetzung 42
Tastatur 42
ionen 42
treu 42
win 42
Raums 42
Grundlagen 42
Soldat 42
gedul@@ 42
ka@@ 42
bezo@@ 42
human@@ 42
to-@@ 42
wach 42
verges@@ 42
ome@@ 42
fahre 42
Tun 42
Lebensunterhalt 42
demselben 42
Parlament 42
Ausnahmen 42
herausstellt 42
Peri@@ 42
Bildungssystem 42
neurolog@@ 42
verschieben 42
igte 42
bezogen 42
unheimlich 42
Vergessen 42
traum 42
gefährlichen 42
kritischen 42
Leonardo 42
Han@@ 42
frustri@@ 42
Sag 42
Lab 42
Götter 42
thetische 42
Kram 42
schaff@@ 42
Profit 42
Bemühungen 42
Netze 42
ßend 42
programme 42
Bestes 42
schockiert 42
kende 42
konstruieren 42
Rückgang 41
auslösen 41
Denkens 41
Wisst 41
zufällige 41
Tatsachen 41
Stapel 41
brand@@ 41
Trainer 41
Firmen@@ 41
ranten 41
könntest 41
Kür@@ 41
reaktion 41
Herrn 41
geliefert 41
tigem 41
rettet 41
Öff@@ 41
ritu@@ 41
sonder@@ 41
Elektron@@ 41
Bele@@ 41
weitgehend 41
Cartoons 41
älteste 41
verstärkt 41
Eier@@ 41
syste@@ 41
bevorzugen 41
90er 41
pt 41
äume 41
Hätte 41
Ameisen@@ 41
Dokumente 41
ligkeit 41
langfristig 41
Tolle 41
Einzelne 41
Astronomen 41
Pres@@ 41
Andrew 41
verbergen 41
läufe 41
schickt 41
RM 41
Erklärungen 41
durften 41
Roten 41
Schri@@ 41
board 41
Mustern 41
gewinn@@ 41
Sollte 41
haber 41
Kilometern 41
Kredi@@ 41
Kritiker 41
Heu@@ 41
Sam 41
iegen 41
ühne 41
Dop@@ 41
Student@@ 41
vollziehen 41
4,@@ 41
Verteidigungs@@ 41
hat@@ 41
U-Boot 41
beschaffen 41
Teu@@ 41
bedeutsam 41
stiegen 41
Fit@@ 41
zwan@@ 41
Wochenende 41
model@@ 41
lichung 41
farbe 41
Bol@@ 41
stigen 41
Hierarchie 41
Block 41
Mobiltelefone 41
tausend@@ 41
Evolutions@@ 41
Passa@@ 41
Charakter@@ 41
Aufklärung 41
regionen 41
zin 41
Fels@@ 41
ellem 41
Kosten@@ 41
grenze 41
sagst 41
rup@@ 41
Demokraten 41
Zeitspanne 41
Gespräch@@ 41
ausbreiten 41
schnell@@ 41
wertvolle 41
Gefäng@@ 41
ester@@ 41
31 41
konzep@@ 41
alitäts@@ 41
saal 41
wärmen 41
integri@@ 41
Entwicklungshilfe 41
Zeu@@ 41
Gleichzeitig 41
unken 41
programm@@ 41
malte 41
vir@@ 41
Chinesisch 41
vergleicht 41
demonstrieren 41
dauernd 41
begehen 41
auszusehen 41
Schwelle 41
acher 41
markieren 41
angewiesen 41
Nick 41
wonach 41
diagnost@@ 41
Benutz@@ 41
nähern 41
Will 41
Schil@@ 41
Partnerschaft 41
weit@@ 41
Zuhörer 41
Eing@@ 41
Smar@@ 41
dies@@ 41
On@@ 41
versteckte 41
gliche 41
übliche 41
Beschäftigung 41
günstig 41
vermei@@ 41
grenzen 41
landschaft 41
Genie 41
Data 41
Schock 41
Mathemati@@ 41
Geographic 41
Exempl@@ 41
Wildnis 41
98 41
Stan@@ 41
130 41
Truppen 41
islam@@ 41
reine 41
sis 41
Keller 41
Unterwasser@@ 41
zeichneten 41
Mobilität 41
40.000 41
atten@@ 41
Harry 41
version 41
h. 41
märkte 41
Infektionen 41
geschütz@@ 41
Hon@@ 41
Brun@@ 41
entscheidenden 41
Wüsten@@ 41
realisieren 41
zufrie@@ 41
Erfolgs@@ 41
yle 41
Dü@@ 41
MA@@ 41
komm 41
überein@@ 41
Grand 41
ränken 41
hunderten 41
Rou@@ 41
Chemotherapie 41
Japan@@ 41
niedrige 41
Schlimmste 41
Suppe 41
spart 41
eintreten 41
kost@@ 41
kämpften 41
pflegen 41
Wett@@ 41
ächer 41
wahrhaftig 41
fortschritt@@ 41
gewün@@ 41
reichte 41
feuern 41
antreibt 41
orientierte 41
Schiff@@ 41
extreme 41
drucks@@ 41
ops 41
elie@@ 41
Robotik 41
unterschied@@ 41
technik 41
199@@ 41
ästhesie 41
resist@@ 41
schwimmt 41
L.A. 41
anstren@@ 41
Seitdem 41
fehler@@ 41
Lehren 41
Übungen 41
200.000 41
Verhandlungen 41
identisch 41
sich@@ 41
Source 41
Erstes 41
Steuer 41
chi@@ 41
träume 41
Time 40
schwei@@ 40
regulieren 40
gehenden 40
V 40
irdische 40
überqu@@ 40
zusätzlichen 40
Kohlen@@ 40
brasili@@ 40
umsonst 40
Gö@@ 40
vergi@@ 40
versichern 40
Dankbarkeit 40
reifen 40
möchtest 40
Tim 40
äf@@ 40
errichtet 40
ografische 40
Gall@@ 40
Geh 40
Paare 40
1900 40
Quar@@ 40
interessanterweise 40
nehm@@ 40
natur@@ 40
kühlen 40
Übersetz@@ 40
angeschlossen 40
Getreide 40
recyc@@ 40
dago@@ 40
bemerkten 40
Argumente 40
Sorte 40
breitet 40
1984 40
kugel 40
Bauern@@ 40
reif@@ 40
saubere 40
Sklaven 40
verschieden@@ 40
Rom 40
Beobachtungen 40
reis 40
schuss 40
Meistens 40
dokumentieren 40
wischen 40
spie@@ 40
alternative 40
Gefühlen 40
Comedy 40
körperlich 40
Chines@@ 40
ginge 40
Pix@@ 40
Komp@@ 40
sag 40
Strasse 40
furcht@@ 40
star 40
ograp@@ 40
frau 40
Spre@@ 40
Verhalten@@ 40
ise 40
5000 40
kurz@@ 40
Quer@@ 40
Parasiten 40
Glau@@ 40
Messungen 40
Rick 40
sit@@ 40
Haar@@ 40
acken@@ 40
Künste 40
Elternteil 40
Profil 40
abgeben 40
bedroh@@ 40
Technologi@@ 40
spuren 40
ieber 40
ätze 40
stütz@@ 40
tie@@ 40
frustriert 40
überlegt 40
Misser@@ 40
Spen@@ 40
Herzinfarkt 40
dunkler 40
Nicht-Nullsummen@@ 40
systematisch 40
Fünf@@ 40
Erdgas 40
30-@@ 40
Rezession 40
Optionen 40
zusammenzubringen 40
spä@@ 40
länge 40
spürt 40
Sün@@ 40
peinlich 40
Zwischen 40
Ca@@ 40
desig@@ 40
sichern 40
Küchen@@ 40
Alli@@ 40
Mathe 40
paaren 40
schmut@@ 40
gelegentlich 40
erwachsen 40
Fundament@@ 40
spazieren 40
ari 40
radik@@ 40
Hochschul@@ 40
blase 40
Grab@@ 40
Witze 40
Währung 40
Aufregung 40
Todesur@@ 40
Kritik 40
schaden 40
ös 40
zutreten 40
zurufen 40
worin 40
ähnlicher 40
ysi@@ 40
aussuchen 40
Brille 40
ranken 40
körperlichen 40
DP 40
Kla@@ 40
anziehen 40
enttäuscht 40
leichte 40
Stunden@@ 40
Epidemi@@ 40
titel 40
Reis 40
mysteri@@ 40
wahnsinnig 40
analy@@ 40
wunderbares 40
schaft@@ 40
atom@@ 40
Brenn@@ 40
Gramm 40
geringen 40
Überfluss 40
sinni@@ 40
Cloud 40
zellul@@ 40
gleicht 40
ungsprogramm 40
sth@@ 40
vention 40
ypen 40
liebten 40
Republik 40
Autob@@ 40
verwende 40
Prozentsatz 40
Rechnung 40
sitz@@ 40
nirgendwo 40
einbeziehen 40
usi@@ 40
Entschei@@ 40
Programmen 40
Fischerei 40
Verbrau@@ 40
tis 40
ttern 40
rän@@ 40
hohem 40
Nordpol 40
Strat@@ 40
enter 40
beigetragen 40
Guer@@ 40
Herzkrankheiten 40
Schä@@ 40
ßer 40
Blö@@ 40
unglücklich 40
künstlich 40
Mäusen 40
gestaltung 40
Higgs-@@ 40
angen@@ 40
vo@@ 40
UN-@@ 40
möglichkeit 40
Link 40
storbenen 40
generiert 40
befreit 40
lichkeits@@ 40
Lücken 40
l-@@ 40
außerordentlich 40
entlassen 40
Außer 40
aßen 40
erneuerbare 40
our 40
Müttern 40
Biene 40
gers 40
Molekülen 40
kampf 40
fluoresz@@ 40
innovativ 40
rotten 40
kopiert 40
Jah@@ 40
umpf 40
Stoffwechsel 40
schwä@@ 40
Enth@@ 40
Bücher@@ 40
Äuß@@ 40
kanal 40
wählten 40
schwache 40
Ozeanen 40
Green@@ 40
yn 40
herumzu@@ 40
Bar 40
Logo 40
Bildes 40
position 40
Ira@@ 40
proj@@ 40
wäh@@ 40
can@@ 40
Belast@@ 40
entwarf 40
wund@@ 40
Redner 40
Komponente 40
hob 40
od 40
beunruhigt 40
Lego 39
erwischt 39
80er 39
utz 39
starr@@ 39
psychischen 39
Skep@@ 39
Positionen 39
Fron@@ 39
sied@@ 39
Krähen 39
Tromm@@ 39
Sicherlich 39
Kauf@@ 39
fs@@ 39
ungewöhn@@ 39
Künstlerin 39
Ferne 39
hte 39
60er 39
Essenz 39
Rohstoffe 39
hervorbringen 39
6-@@ 39
abläuft 39
klu@@ 39
Personal 39
Variante 39
drü@@ 39
algorith@@ 39
car@@ 39
drückte 39
clever@@ 39
á@@ 39
gespannt 39
Raumfahr@@ 39
verschlüs@@ 39
gewalt@@ 39
mittags 39
Atlanta 39
traten 39
durcheinander 39
enddessen 39
mitmachen 39
geg@@ 39
ik-@@ 39
Tasman@@ 39
Kolle@@ 39
Kok@@ 39
zwischen@@ 39
verschmelzen 39
Wahnsinn 39
Steinen 39
umbringen 39
kostenlose 39
entwickel@@ 39
gebrauchen 39
2.@@ 39
verantwor@@ 39
aufgegeben 39
ron 39
Rauchen 39
Brown 39
vergeben 39
Erb@@ 39
platziert 39
winden 39
wägen 39
küste 39
zuständig 39
Abed 39
stum@@ 39
trin@@ 39
zusam@@ 39
person 39
zum@@ 39
zyklus 39
² 39
grade 39
Mikro-@@ 39
Histor@@ 39
obje@@ 39
Dilemma 39
South 39
wa 39
null 39
Phosphor 39
aufzugeben 39
Rom@@ 39
Einkommens@@ 39
unsichtbare 39
anzupassen 39
anderthalb 39
U.S. 39
präsenti@@ 39
betrachteten 39
ermu@@ 39
Ersatz@@ 39
abteilung 39
reck@@ 39
International 39
Sucht 39
Vorhersage 39
initi@@ 39
Rückkehr 39
kommun@@ 39
austauschen 39
begrenz@@ 39
Biomasse 39
ansah 39
rien 39
dünn 39
essen@@ 39
üblich 39
Platten 39
andau@@ 39
mutter 39
astronom@@ 39
bizar@@ 39
isoli@@ 39
bedro@@ 39
Aufgrund 39
Innere 39
ont 39
ordentlich 39
aufhört 39
Kunde 39
Kunstwerk 39
geleistet 39
Neuseeland 39
wählt 39
deines 39
geschichten 39
essor 39
Pir@@ 39
brett 39
50-@@ 39
oskop@@ 39
gets 39
Entscheidungs@@ 39
Cas@@ 39
Note 39
Nobelpreis 39
begeben 39
gelan@@ 39
Völkermord 39
atemberau@@ 39
starker 39
versamm@@ 39
Vorgehensweise 39
bege@@ 39
steine 39
Temperaturen 39
Philosophen 39
scharf 39
Betrie@@ 39
Herstell@@ 39
erkläre 39
Hall 39
syn@@ 39
hl@@ 39
riskieren 39
ateri@@ 39
Universitäts@@ 39
St. 39
virtu@@ 39
Bauer 39
bewer@@ 39
biet@@ 39
angesprochen 39
350 39
evolution@@ 39
fo@@ 39
Agrar@@ 39
Darin 39
unendliche 39
ney 39
vorhersehbar 39
lis@@ 39
transplan@@ 39
Jane 39
chem 39
Meeresboden 39
entierten 39
leug@@ 39
tiefgrün@@ 39
Ware 39
JA 39
gefiel 39
Sender 39
werf@@ 39
terie 39
American 39
ystem 39
sang 39
Tel@@ 39
Spezialisten 39
liber@@ 39
Angestellte 39
Söhne 39
Beteiligung 39
Rücken@@ 39
seri@@ 39
Experim@@ 39
spri@@ 39
erfolgreichen 39
bären 39
detailli@@ 39
Brief@@ 39
agten 39
sem@@ 39
wecken 39
Bauch@@ 39
Magazine 39
Gandhi 39
Ufer 39
gelb 39
graf@@ 39
Atomen 39
gross 39
Scott 39
Oper 39
Zusammenbruch 39
Denker 39
orienti@@ 39
Spra@@ 39
Designern 39
Veröffentlichung 39
geh 39
kord 39
Brand@@ 39
Uhr@@ 39
Wolken@@ 39
drin@@ 39
tra 39
Kapital@@ 39
unterschiede 39
Sterben 39
kandi@@ 39
ly@@ 39
Kie@@ 39
Geduld 39
Individu@@ 39
Apfel 39
Wasserstoff@@ 39
landes@@ 39
Jerusalem 39
Feuerwehr@@ 39
Genauigkeit 39
bearbeiten 39
open 39
schem 39
pfel 39
70er 39
gemalt 39
15-@@ 39
äres 38
Penis 38
Wall 38
Raketen 38
beugen 38
Griechenland 38
hinweisen 38
nachhaltigen 38
Parkplatz 38
Folien 38
tum 38
sierten 38
ax@@ 38
übernimmt 38
Club 38
wood-@@ 38
Teppich 38
anzubieten 38
Berlin 38
gestohlen 38
decke 38
nder 38
bezahl@@ 38
rannte 38
experim@@ 38
stopp@@ 38
ander 38
ama 38
Titan 38
Klu@@ 38
schlicht 38
eigener 38
Programm@@ 38
Käse 38
Einsicht 38
Gewässer 38
persönliches 38
Monterey 38
erholen 38
Worüber 38
bauer 38
bewahrt 38
Unternehmer@@ 38
argumentieren 38
mangel@@ 38
verbrachten 38
Kreatur 38
atsch 38
aufgehört 38
Falten 38
ultimative 38
Dir 38
Webseiten 38
43 38
Universen 38
Bald 38
Möbel 38
erlernen 38
Mobil@@ 38
Marken 38
rümm@@ 38
zehntausende 38
Kriminalität 38
benennen 38
tan 38
anschließend 38
Konsum@@ 38
beschul@@ 38
bur@@ 38
Spri@@ 38
reib@@ 38
art@@ 38
Dollars 38
Behinderung 38
gesellschaften 38
Sarah 38
Jugendliche 38
Schaltkreise 38
1995 38
ärzte 38
Afghan@@ 38
Vorurteile 38
präsentiert 38
anischer 38
Algen 38
Muster@@ 38
Gift 38
Konsequenz 38
Betrachter 38
fizierung 38
ökologischen 38
Schlangen 38
Harmonie 38
einladen 38
schließ@@ 38
teilzunehmen 38
Parall@@ 38
Habe 38
opfern 38
unangenehm 38
Handels@@ 38
Sieht 38
Baseball 38
ergie 38
jüngeren 38
icken 38
parti@@ 38
96 38
personen 38
flexi@@ 38
Würfel 38
äst@@ 38
ktiert 38
neutr@@ 38
Berkeley 38
nutzung 38
ktives 38
then 38
Up 38
Koh@@ 38
Teilnahme 38
Verhand@@ 38
beeindruck@@ 38
Trauri@@ 38
herausfand 38
Nebel 38
zukünf@@ 38
Voraussetzungen 38
Unru@@ 38
nes 38
drah@@ 38
elektronischen 38
Ideologie 38
Mumbai 38
Oma 38
artikel 38
Zone 38
Sili@@ 38
chlich 38
Kino 38
phänomen@@ 38
Materi@@ 38
Schwarzen 38
motivi@@ 38
stop@@ 38
Halt 38
fläch@@ 38
Süd-@@ 38
allmählich 38
Union 38
verpassen 38
prinzi@@ 38
sy@@ 38
komplizierten 38
Videosp@@ 38
Bin 38
Schnitt@@ 38
stab 38
wichti@@ 38
Dich 38
dach@@ 38
Buck@@ 38
koennen 38
Arg@@ 38
Diam@@ 38
individu@@ 38
Spinnen@@ 38
AR@@ 38
ausgeht 38
Ingenieuren 38
intellektuelle 38
Notfall@@ 38
Get@@ 38
ba@@ 38
orientierten 38
fron@@ 38
Ih@@ 38
LT 38
Lateinamerika 38
gänzlich 38
klü@@ 38
pumpen 38
trö@@ 38
Optim@@ 38
öl 38
katastrophen 38
Flaggen 38
umentation 38
anfühlt 38
Kilogramm 38
Tansania 38
Gang@@ 38
leere 38
zusammengefasst 38
komplex@@ 38
Anstrengungen 38
interessan@@ 38
Wirtschaft@@ 38
vermehr@@ 38
auftritt 38
Fotografen 38
Zweite 38
Hang 38
Tak@@ 38
Normen 38
Maus@@ 38
bemühen 38
dynamische 38
aussterben 38
Weihnachten 38
brenn@@ 38
Schi@@ 38
kräften 38
Quadrat@@ 38
post@@ 38
Massen 38
auftau@@ 38
Pfad 38
Fün@@ 38
loswerden 38
reali@@ 38
Luxus 38
üblicherweise 38
besaß 38
Umsetzung 38
Temperatur@@ 38
Schwan@@ 38
erzäh@@ 38
Zwecke 38
chtem 38
kenntnis 38
Risiko@@ 38
passten 38
Begriffe 38
chtig 38
Cha@@ 38
anfangs 38
brä@@ 38
set 38
bereitete 38
hole 38
wun@@ 38
MS 38
Pilot 38
ieden 38
Service 38
Dol@@ 38
therap@@ 38
geni@@ 38
Solarzellen 38
Ankunft 38
Schnittstelle 38
einzelner 38
Jahrhunderten 38
Verkaufs@@ 38
Die@@ 38
Ran@@ 37
intelligenter 37
slich 37
Nik@@ 37
beraten 37
militärische 37
zutrifft 37
bös@@ 37
Mrd. 37
Seattle 37
ech@@ 37
gelungen 37
Fund@@ 37
weiterentwickelt 37
Pille 37
Foie 37
Alice 37
News 37
gefilmt 37
Runde 37
Laser@@ 37
schuhe 37
dienste 37
informiert 37
15. 37
kehren 37
glamourös 37
Att@@ 37
Beri@@ 37
setzungen 37
dul@@ 37
geschlossen@@ 37
LKW 37
verließen 37
Briten 37
erien 37
Abfall@@ 37
erreichten 37
Notaufnahme 37
Projektes 37
elektron@@ 37
schreitet 37
Himmels 37
Lampe 37
Stig@@ 37
verantwortungs@@ 37
alter@@ 37
Patente 37
alltäglichen 37
Jeff 37
Unsinn 37
vit@@ 37
vielver@@ 37
Diri@@ 37
Volkes 37
zeitgenöss@@ 37
berechti@@ 37
ruppe 37
Bogen 37
Krab@@ 37
zunehmen@@ 37
Verb 37
Lautsprecher 37
Cricket 37
bieter 37
umenten 37
Grippe@@ 37
Einsamkeit 37
iPod 37
herab@@ 37
spezifisch 37
ielle 37
Supernov@@ 37
verknüpfen 37
zusammenkommen 37
Kompon@@ 37
liziert 37
ähneln 37
aul@@ 37
netten 37
verlan@@ 37
Everest 37
Vögeln 37
anzug 37
lim@@ 37
Ris@@ 37
eist 37
These 37
zoomen 37
zün@@ 37
Paradigma 37
X-@@ 37
Klassen 37
Fäl@@ 37
brot 37
unterschiedlicher 37
annähernd 37
Amerikanern 37
leitete 37
teilungen 37
Clinton 37
tschaft 37
rus 37
mischer 37
Effek@@ 37
Dru@@ 37
Zun@@ 37
yl@@ 37
vornehmen 37
ement 37
Arabien 37
Zeitschrift 37
behauptet 37
Chor 37
Geschwister 37
einsch@@ 37
ote 37
Vermächtnis 37
El 37
B-@@ 37
inner@@ 37
Spinnen 37
genie@@ 37
angeb@@ 37
eline 37
stationen 37
Gesundheitsversorgung 37
Zeitschriften 37
europäische 37
sper@@ 37
herzlichen 37
tem@@ 37
schlauer 37
erwachsen@@ 37
1994 37
Fur@@ 37
Engel 37
komische 37
schönsten 37
ktions@@ 37
vereinfach@@ 37
geschenkt 37
angenehme 37
schnitten 37
erstmal 37
tnis 37
Ei 37
Rah@@ 37
Fleisch@@ 37
Kolli@@ 37
verlaufen 37
Bindung 37
gedauert 37
stehenden 37
blickt 37
israel@@ 37
Yor@@ 37
½ 37
redeten 37
element@@ 37
Daniel 37
pp 37
Visualisierung 37
informieren 37
Rich@@ 37
Chem@@ 37
probiert 37
Bälle 37
Schweizer 37
getaucht 37
korea 37
ahmen 37
angeneh@@ 37
Stri@@ 37
Feynman 37
fehlte 37
Lieb@@ 37
sexy 37
Farmer 37
3000 37
stock 37
Mahlzeiten 37
kamera 37
Denkt 37
störung 37
quet@@ 37
urban@@ 37
dienst@@ 37
dumme 37
Schale 37
zahlreiche 37
JF 37
Einnahmen 37
chel@@ 37
lädt 37
hinzugefügt 37
Melodie 37
gegenwärtigen 37
Erzählen 37
Gründer 37
Merkmal 37
aufgefallen 37
Route 37
Belastung 37
trauen 37
wat@@ 37
Muskel 37
gerungen 37
graph@@ 37
bestanden 37
Mär@@ 37
Kämpfe 37
folgung 37
tödlichen 37
Favor@@ 37
Flaschen 37
wortwörtlich 37
kopf 37
Paar@@ 37
Mitgefühls 37
französische 37
zu-@@ 37
endem 37
seits 37
Hass 37
schläft 37
jedermann 37
führende 37
allt 37
Linse 37
belei@@ 37
Programmieren 37
Redak@@ 37
jünger 37
sour@@ 37
katastrop@@ 37
Galax@@ 37
gespro@@ 37
verarbeitung 37
abgest@@ 37
Celsius 37
offensichtliche 37
Kräften 37
Kosm@@ 37
Freizeit 37
fassung 37
hochwer@@ 37
ächern 37
gründe 37
Phänomene 37
extra@@ 37
hasse 37
feln 37
ket@@ 37
heiligen 37
Virginia 37
il-@@ 37
Ted 37
Scheitern 37
000-@@ 37
Haken 37
pien 37
Wunden 37
unbekannten 37
wöch@@ 37
sauer 37
sätzen 37
frisch 37
Karrier@@ 37
klagt 37
abstrakte 37
grob 37
Schrei@@ 37
Krankenschwestern 37
Riff 37
män@@ 37
begeg@@ 37
respektieren 37
Clip 37
verhe@@ 37
ffeln 37
Aufwand 37
existierenden 37
Dun@@ 37
bildeten 37
orten 37
ire 37
mes@@ 36
geborenen 36
warte 36
anerkennen 36
d. 36
finanziell 36
abhängen 36
1980 36
flächen@@ 36
antreiben 36
Techni@@ 36
Gelb 36
Dies@@ 36
Grab 36
haftes 36
wässer@@ 36
brut@@ 36
ions@@ 36
gru@@ 36
bewus@@ 36
Fäden 36
Gefähr@@ 36
reten 36
dopp@@ 36
Krebszellen 36
Stop@@ 36
chnet 36
nuklear@@ 36
inie 36
versprechen 36
erforder@@ 36
schlüsse 36
Nämlich 36
änderung 36
Hauptstadt 36
Sieg 36
Betrü@@ 36
Chromos@@ 36
Trag@@ 36
Basis@@ 36
Schalt@@ 36
gels 36
Verluste 36
ite 36
konvention@@ 36
Profi@@ 36
äne 36
Kongress@@ 36
Säulen 36
Verhäl@@ 36
frequenz 36
bewegten 36
Tinten@@ 36
zusammenbringen 36
Acht 36
molekularen 36
Titel@@ 36
gelandet 36
obby 36
Griechen 36
moderner 36
überholt 36
kenden 36
Them@@ 36
aden@@ 36
beängstigend 36
nötigen 36
Epi@@ 36
Album 36
kante 36
zuhalten 36
sammelte 36
ässe 36
zusammenzuarbeiten 36
Läden 36
erstellten 36
falls@@ 36
erwecken 36
put@@ 36
Meinungs@@ 36
Soll 36
pot@@ 36
Steven 36
scannen 36
irren 36
Köni@@ 36
zierte 36
ktivität 36
jugend@@ 36
wieviele 36
Plattformen 36
Tempel 36
Hawaii 36
U 36
Durchfall 36
Neurowissenschaftler 36
guli@@ 36
pä@@ 36
entkommen 36
Romanti@@ 36
künf@@ 36
abli@@ 36
differ@@ 36
Bedien@@ 36
Block@@ 36
massen 36
Besucher 36
Ziemlich 36
mochten 36
Cri@@ 36
gewissem 36
gier 36
Millimeter 36
verwandelte 36
chirur@@ 36
höhe 36
Eigent@@ 36
Arbei@@ 36
genommen@@ 36
ausüben 36
jagt 36
äusern 36
pfer 36
stin@@ 36
spi@@ 36
Luther 36
kungen 36
uh 36
Atmen 36
Vertreter 36
Förderung 36
dunkel@@ 36
Hol@@ 36
Hemisphäre 36
beliebige 36
flexibel 36
stattgefunden 36
tliches 36
galt 36
entsprechen 36
gerweise 36
praktische 36
Linken 36
Erspar@@ 36
systemen 36
trauri@@ 36
Zug@@ 36
Wh@@ 36
glie@@ 36
Endeffekt 36
Innov@@ 36
häufigsten 36
Pubertät 36
geradezu 36
konst@@ 36
drastisch 36
krankheiten 36
Schultern 36
190@@ 36
Überlebens@@ 36
ausseh@@ 36
hervorrufen 36
quad@@ 36
weitergeben 36
lingen 36
äuren 36
nötige 36
inspirierend 36
Zero 36
Stere@@ 36
Hans 36
op 36
Trei@@ 36
herkommen 36
ingenie@@ 36
stad@@ 36
stattung 36
Ski 36
SETI 36
ium@@ 36
Stür@@ 36
schwierigsten 36
schienen 36
Macher 36
Aqu@@ 36
Berichte 36
tiver 36
kluge 36
forsch@@ 36
einrichtungen 36
Schulden 36
Flugzeu@@ 36
breite 36
Berufe 36
wandert 36
D.C. 36
Gesichtsaus@@ 36
Cola 36
hiermit 36
Funktionsweise 36
gemeinnützige 36
Gewohnheiten 36
Hot@@ 36
knü@@ 36
arzt 36
Jäger 36
nördlichen 36
ktischen 36
betrug 36
nummer 36
Phasen 36
kunden 36
Schall@@ 36
beeinflus@@ 36
Stellt 36
einm@@ 36
Tote 36
chtert 36
inseln 36
müt@@ 36
äuben 36
Betrag 36
Mauern 36
Geschäftsführer 36
hell 36
Trauer 36
Prüfung 36
1997 36
Schot@@ 36
herauskommen 36
brillan@@ 36
Verkehr@@ 36
geliebt 36
Weiter 36
Steigerung 36
Grundschule 36
Stei@@ 36
begrenzten 36
chnungen 36
flucht 36
stert 36
unt@@ 36
Leber@@ 36
dreieinhalb 36
lautete 36
visuell 36
Software-@@ 36
Grösse 36
eignet 36
C. 36
Hindernis 36
zettel 36
Jon@@ 36
griff@@ 36
Ash@@ 36
dynamisch 36
schnellsten 36
Erderwärmung 36
sensor@@ 36
jedesmal 36
Neigung 36
analyse 36
zurückzukehren 36
Vorbereitung 36
karto@@ 36
tempor@@ 36
Verarbeitung 36
weitergegeben 36
Rock 36
Som@@ 36
besuchten 36
Samm@@ 36
stundenlang 36
Ägypter 36
keit@@ 36
mel 36
verbr@@ 36
Hän@@ 36
Mobiltelefon 36
Unterwass@@ 36
Beachten 36
fro@@ 36
regierung 36
Hülle 36
ograph@@ 36
Kondome 36
eit@@ 36
vorgeschlagen 36
Angiogenese 36
leuchtet 36
Nest@@ 36
Domin@@ 36
Das@@ 36
abend 36
molekü@@ 36
Lust 36
Hunderten 36
Albert 36
Ästhetik 36
38 36
spanne 36
Konversation 36
Flugzeug@@ 36
chirurg@@ 36
reist 36
Äl@@ 36
zweier 36
förm@@ 36
schlüs@@ 36
Amerikanischen 36
Kosmos 36
Fang@@ 36
ma-@@ 36
Health 36
BI@@ 36
zusammengestellt 36
Fett@@ 36
macht@@ 36
wissenschaft@@ 36
Landkarte 36
rosa 36
sph@@ 36
Än@@ 36
harm@@ 36
studium 36
Story 36
hunderttausende 36
beschädigt 36
Elefant 36
Start@@ 35
Brü@@ 35
Defin@@ 35
Hungers@@ 35
gungs@@ 35
platten 35
kostete 35
afen 35
Schiffe 35
verschwanden 35
Deut@@ 35
Gebir@@ 35
Verhaltens 35
ungewöhnliche 35
hinterher 35
schliessen 35
gliches 35
Ansammlung 35
Dur@@ 35
ope 35
arbeits@@ 35
zeitig 35
sichtbaren 35
Zwischenzeit 35
Für@@ 35
Dutzende 35
gesellschaftliche 35
thema 35
under 35
theoretisch 35
lü@@ 35
regnet 35
Passwort 35
Amazon 35
Irland 35
ain 35
Beute 35
Schwä@@ 35
itä@@ 35
stest 35
Sonnensystems 35
publi@@ 35
warteten 35
Mutationen 35
bombe 35
stiges 35
Boot@@ 35
Virtu@@ 35
flüssig 35
Karten@@ 35
verteidigen 35
kriminellen 35
kontrollierte 35
bekannter 35
hie@@ 35
ologin 35
Absol@@ 35
Stirn 35
Sich 35
Mechan@@ 35
Wichtig 35
dank@@ 35
Beglei@@ 35
dy@@ 35
CA@@ 35
Gelder 35
bru@@ 35
zigern 35
Zeichen@@ 35
synthe@@ 35
Glühbirne 35
--- 35
erheblich 35
watt 35
Café 35
Zoo 35
gebauten 35
oberfläche 35
ek 35
versehen 35
kollab@@ 35
selts@@ 35
minus 35
klatschen 35
exo@@ 35
organisierte 35
unt 35
entschloss 35
Vit@@ 35
stört 35
Arz@@ 35
cks@@ 35
Dumm@@ 35
Fli@@ 35
gewidmet 35
Fortbewegung 35
Krimin@@ 35
verabschie@@ 35
dauer 35
frauen 35
Theat@@ 35
Kompet@@ 35
Gruppen@@ 35
stig@@ 35
verfügbaren 35
Sehvermögen 35
konkurrieren 35
Glob@@ 35
Glühbirnen 35
Base@@ 35
Erdbe@@ 35
Libanon 35
Diagn@@ 35
Geschma@@ 35
Fantast@@ 35
Bundesstaat 35
isierte 35
benötigten 35
Furcht 35
grauen 35
Pump@@ 35
Sechs@@ 35
benach@@ 35
Installation 35
lagern 35
ego@@ 35
AG 35
kü@@ 35
grundsätz@@ 35
kritisch 35
verbesser@@ 35
tanz@@ 35
wider 35
abilität 35
aufnimmt 35
send 35
Bösen 35
Tunnel 35
stro@@ 35
Appar@@ 35
venti@@ 35
+ 35
japanischen 35
Sollten 35
Air 35
raffin@@ 35
kocht 35
rollt 35
verpasst 35
lab@@ 35
gendsten 35
Interak@@ 35
Klang@@ 35
Foot@@ 35
Wussten 35
elligkeit 35
ergab 35
geschätzt 35
Sign@@ 35
Joseph 35
formu@@ 35
Kleider 35
faktor 35
Schein@@ 35
gestimmt 35
DNS-@@ 35
River 35
Index 35
MR@@ 35
ungs 35
derselbe 35
Patent@@ 35
ap 35
dauerhaft 35
Hafen 35
Zurück@@ 35
örung 35
Ani@@ 35
D. 35
bewerkstelligen 35
Camp@@ 35
Apps 35
besonderes 35
dreidimensionalen 35
Mikros@@ 35
Bruchteil 35
tötete 35
Kühlschrank 35
Erst@@ 35
wesentliche 35
Bauen 35
baue 35
Zivilgesellschaft 35
bestimm@@ 35
robo@@ 35
geheim 35
aufgaben 35
Philosoph 35
Buchst@@ 35
Jährigen 35
näher@@ 35
Abteilung 35
enger 35
Zylinder 35
Kunststoff 35
kultur@@ 35
ics 35
fällig 35
Ladung 35
Gebilde 35
junges 35
Entschul@@ 35
Varianten 35
Hinterkopf 35
zwangsläufig 35
müh@@ 35
MT 35
Schach@@ 35
Huhn 35
flei@@ 35
hör 35
Haushalte 35
entliches 35
osse 35
Abfolge 35
nerin 35
uts 35
frucht@@ 35
Gefangen@@ 35
Politikern 35
12. 35
Veranst@@ 35
Canyon 35
einbauen 35
freiwilli@@ 35
organische 35
sank 35
Pro-Kopf-@@ 35
komp@@ 35
pfung 35
Tol@@ 35
vorzubereiten 35
entwarfen 35
Zigar@@ 35
cen@@ 35
Auslöser 35
geomet@@ 35
Fort@@ 35
rechtzeitig 35
Homosexu@@ 35
Erwachsener 35
tors 35
re-@@ 35
Salz 35
versor@@ 35
historisch 35
äus@@ 35
zivil@@ 35
weiser 35
seu@@ 35
Frosch 35
ffel 35
Laser 35
Synap@@ 35
Telefone 35
fehler 35
abspielen 35
gehende 35
sprüche 35
organischen 35
hörigen 35
füttern 35
Ähnliches 35
attraktiv 35
öst@@ 35
sexuell 35
fla@@ 35
verläs@@ 35
king 35
mentale 35
Moskiton@@ 35
wit@@ 35
liegende 35
ES@@ 35
nungen 35
anen 35
Stränge 35
erzogen 35
boot 35
planung 35
richte 35
fantastisches 35
Regulierung 35
ücken@@ 35
schwim@@ 35
mitglied 35
Hong 35
ham 35
überraschen 35
Kompromiss 35
anlegen 35
Impfstoffe 35
Abraham 35
schütz@@ 35
Zielen 35
tags@@ 35
trinkt 35
verstärken 35
geistige 35
vermu@@ 35
lett 35
befolgen 35
Zustände 35
ms@@ 35
wertes 35
städtische 35
unternommen 35
stößt 35
chenden 35
übergehen 35
dazu@@ 35
Ökonomie 35
ausbilden 34
beiseite 34
Erkenn@@ 34
verrück@@ 34
ganzer 34
Partikel 34
enor@@ 34
tiefsten 34
inta@@ 34
Apparat 34
onale 34
Perspektiven 34
Ansätze 34
gemeinsames 34
Schätzungen 34
gehörte 34
Etik@@ 34
evolutionäre 34
Sexual@@ 34
Konta@@ 34
schla@@ 34
trü@@ 34
Tar@@ 34
Rund@@ 34
Ernte 34
Jazz 34
Demokratien 34
Verb@@ 34
temperatur 34
Fußgänger 34
Tänzer 34
leistet 34
sprung 34
beteili@@ 34
Gib 34
schmeckt 34
reiten 34
kollektive 34
verdrei@@ 34
chender 34
belegen 34
ignor@@ 34
Schwein 34
Außenwelt 34
Nachhal@@ 34
Säu@@ 34
Mall 34
archie 34
Rek@@ 34
que 34
Vulkan@@ 34
respe@@ 34
ergebnisse 34
gießen 34
absoluten 34
Tot@@ 34
Verzerr@@ 34
beding@@ 34
gangs 34
wuer@@ 34
Gemü@@ 34
ral 34
sig@@ 34
Flederm@@ 34
interessiere 34
musikalische 34
zugän@@ 34
enderweise 34
widerstehen 34
ora 34
Stoffe 34
Weiße 34
unvermei@@ 34
Hur@@ 34
Neun@@ 34
halt@@ 34
kreisen 34
TED-Vortrag 34
Selbstmord 34
Kamp@@ 34
Schöpfung 34
lachten 34
Vietnam 34
Gestern 34
Wille 34
Frustration 34
Arabisch 34
schützt 34
westen 34
Akteure 34
triebenen 34
unzählige 34
schön@@ 34
serviert 34
Arzneimittel@@ 34
wirtschaftlicher 34
Genoms 34
Anthrop@@ 34
anbauen 34
ow@@ 34
robu@@ 34
Sher@@ 34
SO@@ 34
verwei@@ 34
Wendepunkt 34
Seel@@ 34
eim 34
schöpfen 34
Top 34
Sierra 34
fähiger 34
Fingern 34
Täter 34
fa 34
dee 34
ong 34
Wiederaufbau 34
fühlst 34
figen 34
Can@@ 34
kapit@@ 34
verbrannt 34
offizi@@ 34
kollabor@@ 34
tons 34
fach@@ 34
banken 34
fabri@@ 34
nahme@@ 34
goog@@ 34
häus@@ 34
Modellen 34
Montana 34
ce@@ 34
SM@@ 34
ernste 34
Liber@@ 34
Benutzer 34
ikan@@ 34
Todesfälle 34
bedient 34
revolution 34
Schaffung 34
Material@@ 34
kombin@@ 34
Momenten 34
protest@@ 34
unend@@ 34
Bedrohungen 34
Standort 34
dex 34
verzwei@@ 34
schließe 34
erender 34
jenigen 34
Freu@@ 34
zielen 34
Züge 34
team 34
-Bom@@ 34
überaus 34
höh@@ 34
Blät@@ 34
klappen 34
Sylvia 34
erkrankungen 34
ration@@ 34
ehst 34
band@@ 34
one-@@ 34
kör@@ 34
überprü@@ 34
60.000 34
yl 34
grösser 34
ärger@@ 34
basierten 34
McDonald 34
ölfe 34
glicher 34
standes 34
Schnurr@@ 34
Audi@@ 34
motion 34
Geschäftswelt 34
Spitz@@ 34
studie 34
Shakespeare 34
Gewebe@@ 34
simu@@ 34
statt@@ 34
magische 34
verschie@@ 34
fänger 34
vorherigen 34
Wright 34
versteckten 34
ate@@ 34
Südpol 34
fähige 34
romantische 34
reflektieren 34
ziele 34
unternehmer@@ 34
anfällig 34
Back@@ 34
lehnte 34
-P@@ 34
erwachsene 34
Thailand 34
Tätigkeiten 34
gesendet 34
Lewis 34
besiegen 34
ger-@@ 34
Ersten 34
use 34
notwendigen 34
Verpflichtung 34
Bezahlung 34
Beton@@ 34
ämmer@@ 34
olog@@ 34
Dosis 34
ernsthaf@@ 34
Talente 34
verbrau@@ 34
will@@ 34
2015 34
Space 34
gesetze 34
künfte 34
Palä@@ 34
erfolgrei@@ 34
ations-@@ 34
Ul@@ 34
interview@@ 34
Kurven 34
maschin@@ 34
Dinosauri@@ 34
Behauptung 34
laufe 34
Wahrneh@@ 34
chst 34
aks 34
Eröff@@ 34
Performance 34
ernährt 34
umfassende 34
aten@@ 34
Larry 34
geben@@ 34
ami 34
II 34
Kokain 34
bungs@@ 34
Energiequ@@ 34
ther 34
zenten 34
IBM 34
Internet-@@ 34
Autobahn 34
Jan@@ 34
imitieren 34
Archiv 34
aft 34
gig@@ 34
glas 34
50er 34
argum@@ 34
Wahlmöglichkeiten 34
lon@@ 34
intellektuellen 34
Fiction 34
iete 34
derjenige 34
Rum@@ 34
Regime 34
Neugierde 34
wow 34
Sequenzen 34
Aktivi@@ 34
abnehmen 34
Gewe@@ 34
Globus 34
bezah@@ 34
Ausgangs@@ 34
pack@@ 34
stap@@ 34
schäd@@ 34
Jugend@@ 34
Zentr@@ 34
ziel 34
eth@@ 34
train@@ 34
genauen 34
ja@@ 34
reflektiert 34
ook 34
agi@@ 34
Galerie 34
Bege@@ 34
Ozean@@ 33
stitu@@ 33
mitbringen 33
skeptisch 33
Instr@@ 33
verfügt 33
akadem@@ 33
eingesperrt 33
schloss 33
bildern 33
zustande 33
betrachtete 33
schwamm 33
spiegeln 33
schild 33
Posi@@ 33
aufzeigen 33
Pilz 33
Seien 33
Fas@@ 33
zusammenge@@ 33
Insekt 33
Plä@@ 33
dreidimensionale 33
streifen 33
Kälte 33
passend 33
verpflich@@ 33
sw@@ 33
bevor@@ 33
bewusste 33
konzentri@@ 33
ausgesprochen 33
Selbstvertrauen 33
Hochzeit 33
44 33
Überblick 33
fehlenden 33
Raten 33
Mul@@ 33
Grafiken 33
beam@@ 33
peri@@ 33
atmet 33
begegnet 33
spartner 33
träumt 33
Raumschiff 33
Skl@@ 33
Münze 33
kennen@@ 33
Baumwolle 33
Hüfte 33
konfli@@ 33
akademischen 33
ard@@ 33
Hühnchen 33
Pazi@@ 33
Peer-@@ 33
Beu@@ 33
erweiter@@ 33
riss 33
itten 33
wertung 33
bevölk@@ 33
modi@@ 33
Kommand@@ 33
igsten 33
bedecken 33
nachdachte 33
Diagramme 33
ema 33
Fertig@@ 33
trank 33
q@@ 33
triebs@@ 33
bombar@@ 33
Steu@@ 33
Gesten 33
halter 33
86 33
Platte 33
wale 33
längere 33
ziger 33
Haushalts@@ 33
rücken 33
Tumor@@ 33
südlich 33
Willkommen 33
Lehrplan 33
ck-@@ 33
TEDTalks 33
Akzent 33
Bestimm@@ 33
Ol@@ 33
praktischen 33
Südamerika 33
essenti@@ 33
I. 33
gött@@ 33
Kennedy 33
elektromagne@@ 33
stin 33
Kombin@@ 33
seins 33
berü@@ 33
Zukunfts@@ 33
Nacht@@ 33
Puzz@@ 33
Ehem@@ 33
way 33
abschluss 33
Nachkommen 33
plötz@@ 33
Umlauf@@ 33
Alumin@@ 33
Tausend 33
Erdoberfläche 33
erfolgreicher 33
gewöhnliches 33
bänder 33
besaßen 33
woraus 33
kit@@ 33
hervorragend 33
gebil@@ 33
Politik@@ 33
hh 33
Frie@@ 33
stadium 33
innovative 33
Wassers 33
Professoren 33
Letzt 33
Wochen@@ 33
illegale 33
chert 33
G-@@ 33
ratie 33
gesteu@@ 33
ehrgei@@ 33
Chemiker 33
einzuführen 33
bul@@ 33
Bakter@@ 33
Kön@@ 33
Massa@@ 33
nör@@ 33
kum@@ 33
ueber 33
Connectome 33
verschwenden 33
verbringe 33
Moskitos 33
Dam@@ 33
herstellung 33
flüge 33
Hubschrau@@ 33
Dy@@ 33
kni@@ 33
durchschnit@@ 33
Korallenri@@ 33
Eisen 33
chines@@ 33
verursachte 33
auswendig 33
Sech@@ 33
kers 33
afrika 33
vollstän@@ 33
Stach@@ 33
Dopamin 33
herunterladen 33
Missbrauch 33
sauber@@ 33
Schatz 33
verrichten 33
depressiv 33
griech@@ 33
jahren 33
schlau@@ 33
bol@@ 33
Berater 33
Tor 33
Wäldern 33
digital 33
strahlung 33
Geschö@@ 33
tchen 33
parallel 33
Herde 33
älen 33
sachen 33
by@@ 33
erinnen 33
Fossilien 33
fügte 33
Glet@@ 33
60@@ 33
Eingang@@ 33
Freundes 33
Beijing 33
Diplomatie 33
gal@@ 33
rei 33
JC 33
ausgelöscht 33
Kais@@ 33
qualit@@ 33
geistigen 33
Mozart 33
bahn@@ 33
formuliert 33
mers 33
leidenschaf@@ 33
utung 33
ruppen 33
Global 33
verlangsamen 33
schmelzen 33
listen 33
kriegs 33
ils 33
Reser@@ 33
verlangsamt 33
chtige 33
Alb@@ 33
Kette 33
gewandt 33
58 33
antworteten 33
Filmemacher 33
Gran@@ 33
Demon@@ 33
Redu@@ 33
gesundes 33
Polen 33
Steuerung 33
dergleichen 33
nahen 33
Spitzen@@ 33
gler 33
vernünftig 33
Bist 33
Verschwendung 33
einverstanden 33
gehir@@ 33
hell@@ 33
verbringt 33
Olympischen 33
yp 33
Mill@@ 33
DE@@ 33
mar 33
messer 33
überwälti@@ 33
ökologische 33
umgebracht 33
schot@@ 33
tismus 33
verfein@@ 33
Akademiker 33
wandelt 33
Leb@@ 33
Wie@@ 33
It@@ 33
löste 33
runden 33
impor@@ 33
äk@@ 33
Tän@@ 33
Verbin@@ 33
ausgerichtet 33
Thermo@@ 33
üssen 33
Abkommen 33
mobil@@ 33
ecks 33
ous@@ 33
Olymp@@ 33
beher@@ 33
beständig 33
unterschied 33
beeindruckende 33
Frü@@ 33
mak@@ 33
ind 33
Nervenzelle 33
Tageslicht 33
stunde 33
likationen 33
AM 33
lebens 33
iegel 33
Lichtgeschwindigkeit 33
neun@@ 33
Detektor 33
dynam@@ 33
Gesundheitsp@@ 33
gefroren 33
optimieren 33
zern 33
haupt 33
Geschlechts@@ 33
Gemeinschafts@@ 33
Interessen@@ 33
Banker 33
Tax@@ 33
erkenn@@ 33
etzung 33
gebenen 33
engagi@@ 33
ill 33
Aufruf 33
Model 33
kling@@ 33
Sho@@ 33
waff@@ 33
Erdn@@ 33
träger 33
beweist 33
Kämpfer 33
Hass@@ 33
dox@@ 33
dominiert 33
atte 33
bohr@@ 33
Oben 33
passen@@ 33
vermischt 33
Kriterien 33
berfläche 33
verkehr@@ 32
Tumore 32
austr@@ 32
char@@ 32
pos@@ 32
Beschränkungen 32
80@@ 32
hilflos 32
aber@@ 32
Asp@@ 32
präfron@@ 32
dum@@ 32
mikrobi@@ 32
korre@@ 32
Linsen 32
Hero@@ 32
Anpass@@ 32
Früchte 32
Teleskope 32
wehren 32
essoren 32
witzig 32
massi@@ 32
geschlafen 32
psychologischen 32
ierer 32
Original 32
stärke 32
ace@@ 32
wolle 32
Hebel 32
Verwaltung 32
Herrschaft 32
besitz 32
Boote 32
erraten 32
subje@@ 32
gleicher 32
Fis@@ 32
Hybri@@ 32
Extra-@@ 32
fahrts@@ 32
drehten 32
Pip@@ 32
mität 32
Suchen 32
Älterwerden 32
universelle 32
afgh@@ 32
Anforderungen 32
stehende 32
Schlechtes 32
Stö@@ 32
billige 32
Lee 32
ont@@ 32
aufwärts 32
König@@ 32
Schwefelwasserstoff 32
´ 32
Anatomie 32
pur@@ 32
schüchtern 32
fremden 32
Hätten 32
studenten 32
kredi@@ 32
schlimme 32
kosm@@ 32
ller 32
Lippen 32
empfindlich 32
Weizen 32
warfen 32
Cous@@ 32
Pros@@ 32
up 32
Patienten@@ 32
biologischer 32
etten@@ 32
Tiefen 32
Spielern 32
Bedürfnissen 32
liter@@ 32
bemüht 32
neben@@ 32
übermitteln 32
glau@@ 32
ströme 32
höch@@ 32
ährt 32
rauchen 32
Ehrlich 32
sätzlich 32
heimischen 32
Dalai 32
tragbare 32
Len@@ 32
gie@@ 32
tags 32
lehrte 32
gefer@@ 32
kreislauf 32
wegs 32
et-@@ 32
Kontinente 32
Fleck 32
ausgeführt 32
Alaska 32
Meerwasser 32
Kindergarten 32
ringen 32
Einschränkung 32
wahrzunehmen 32
Rückmeldung 32
Heim 32
dit 32
lette 32
ika 32
triebene 32
religi@@ 32
Botschaf@@ 32
Visionen 32
Zeitraff@@ 32
Gift@@ 32
Flugzeugen 32
opft 32
angenehm 32
beleben 32
räte 32
Kansas 32
tran@@ 32
begrenzte 32
Pos@@ 32
zent 32
Aff@@ 32
Hormone 32
Skelettmus@@ 32
schmer@@ 32
Gesellschafts@@ 32
posten 32
gent 32
wilden 32
albern 32
Kör@@ 32
zielte 32
natur 32
Rhyth-@@ 32
davon@@ 32
intelligent@@ 32
assoziiert 32
vollem 32
zuführen 32
mathemati@@ 32
derart 32
Artik@@ 32
ause 32
Darm@@ 32
besorgen 32
schaltet 32
dokum@@ 32
Dritt@@ 32
teilhaben 32
Lebenszeit 32
ogramm 32
wandeln 32
Mex@@ 32
hungern 32
Vorlieben 32
Os@@ 32
Wal 32
Versuchs@@ 32
Abends 32
spiritu@@ 32
überprüft 32
Vorgänge 32
alo@@ 32
wack@@ 32
bräuchten 32
Dein 32
schoss 32
Zeile 32
Zumindest 32
all-@@ 32
intuitiv 32
phase 32
appt 32
Bergsteiger 32
Bron@@ 32
Glu@@ 32
installieren 32
ziel@@ 32
Höhlen@@ 32
Spektr@@ 32
Wänden 32
ärkt 32
äumen 32
geres 32
ausgestellt 32
debat@@ 32
Social 32
pin@@ 32
verwalten 32
aufwachsen 32
Nachbar 32
Eingriff 32
Komplex 32
ernsthafte 32
ansäs@@ 32
addi@@ 32
tigend 32
pass 32
Jac@@ 32
unker 32
Lux@@ 32
Fahren 32
Glaubens@@ 32
matischen 32
Bett@@ 32
Meetings 32
einhei@@ 32
usion 32
nek@@ 32
ehre 32
Wurzel 32
Landes@@ 32
Minen 32
Arbeiter@@ 32
Relig@@ 32
Reise@@ 32
EU 32
chao@@ 32
DR 32
wesens 32
din 32
ix 32
unmittel@@ 32
direkten 32
sichtbare 32
Blue 32
abges@@ 32
testeten 32
Fris@@ 32
Ego 32
ungen@@ 32
repräsent@@ 32
umdrehen 32
Smartphone 32
proje@@ 32
Synthese 32
Regal 32
professionelle 32
Einsatz@@ 32
stimuliert 32
Recherche 32
WK 32
verklein@@ 32
unbewusst 32
Werk@@ 32
enttäu@@ 32
stü@@ 32
Anrufe 32
vielfältigen 32
Kno@@ 32
Alpha 32
ball-@@ 32
dafri@@ 32
Mount 32
Nuklear@@ 32
Glücks@@ 32
Sied@@ 32
Karik@@ 32
anschließen 32
umzuwandeln 32
antwor@@ 32
museum 32
beruhigen 32
ode 32
verbindung 32
Research 32
vermin@@ 32
stetig 32
Reaktor 32
Animationen 32
unbekannte 32
Kup@@ 32
jüngste 32
Matt 32
begrü@@ 32
auslän@@ 32
rot@@ 32
Super 32
Gleich 32
adi@@ 32
Treibhaus@@ 32
verg@@ 32
wün@@ 32
fün@@ 32
red@@ 32
beh@@ 32
Cortex 32
Nahrungsmittel@@ 32
Vieh 32
ttelt 32
vorstell@@ 32
Abstra@@ 32
verbindungen 32
mächtiger 32
Darm 32
Rassen@@ 32
Nigeri@@ 32
alle@@ 32
Ess@@ 32
alts@@ 32
ug@@ 32
christ@@ 32
Laut@@ 32
dens@@ 32
bahnbrech@@ 32
pften 32
Himm@@ 32
bus 32
Hormon 32
Blitz 32
installiert 32
ko 32
East 32
das@@ 32
realistisch 32
Reifen 32
seltenen 32
Ostküste 32
jüngere 32
haar@@ 32
Einklang 32
Schwi@@ 32
Rep@@ 32
Nahrungskette 32
visueller 31
schrift@@ 31
Elektr@@ 31
Ausgangspunkt 31
statten 31
Fülle 31
nachher 31
vertrauens@@ 31
zip@@ 31
heiratete 31
28@@ 31
multip@@ 31
Pass@@ 31
Abholzung 31
Nationalpark 31
treibung 31
endeten 31
nes@@ 31
lieb 31
auftaucht 31
mikro@@ 31
siehe 31
Schmerz@@ 31
Cents 31
Replik@@ 31
Wohlergehen 31
Werkstatt 31
ergän@@ 31
arr@@ 31
völli@@ 31
luss 31
ou 31
traurige 31
ey@@ 31
Kul@@ 31
ess-@@ 31
aufzuhören 31
tust 31
Terror 31
Erlebnisse 31
manipuliert 31
las@@ 31
Aussagen 31
ian@@ 31
Ausschau 31
aturen 31
Unmögliche 31
Brennstoff@@ 31
Kopenhagen 31
ausgedacht 31
Patent 31
Clar@@ 31
Ausbreitung 31
Venus 31
Kamel 31
za 31
magischen 31
auslöst 31
Entwur@@ 31
Lex@@ 31
ungsproz@@ 31
Schildkr@@ 31
trocken 31
bili@@ 31
nigen 31
Höhen 31
sammlung 31
Spinne 31
Klisch@@ 31
kurve 31
fremde 31
Langzeit@@ 31
50ern 31
Variation 31
Anony@@ 31
draht@@ 31
leidenschaftlich 31
hervorheben 31
nö@@ 31
töteten 31
fröh@@ 31
Heil@@ 31
Eng@@ 31
wilde 31
üllt 31
Garten@@ 31
MRT 31
Dritte 31
däch@@ 31
Kredit 31
vernünftige 31
Interessant 31
abschneiden 31
ieten 31
längst 31
angel@@ 31
herz@@ 31
Partnern 31
heraush@@ 31
rech@@ 31
machbar 31
biert 31
korrigieren 31
erfuhren 31
zudem 31
brieren 31
vorbereiten 31
schweben 31
Flüssig@@ 31
Konz@@ 31
ty@@ 31
eingebettet 31
außerord@@ 31
Nullen 31
Kran@@ 31
Vok@@ 31
Mädchens 31
Anstelle 31
spezialisiert 31
Kong 31
künstlerische 31
behindert 31
Vordergrund 31
Pick@@ 31
älterer 31
Hinter 31
Stämmen 31
seltener 31
my 31
Journal 31
unterdrücken 31
Mön@@ 31
Energies@@ 31
LHC 31
Gewissen 31
gesamtes 31
willi@@ 31
begab@@ 31
Halten 31
Saf@@ 31
Kathedr@@ 31
akte 31
Tele@@ 31
ion 31
nenden 31
Währ@@ 31
Trocken@@ 31
Betro@@ 31
kooper@@ 31
big@@ 31
zusammensetzen 31
grenzung 31
Toleranz 31
eigen 31
architektonische 31
Stadi@@ 31
Maschin@@ 31
AA 31
utzung 31
Zweig 31
verank@@ 31
Sonde 31
bürger@@ 31
mitfühl@@ 31
Symmetrien 31
ausrichten 31
able 31
vernetzt 31
bedenkt 31
Wohltätigkeits@@ 31
Bühnen@@ 31
Pflicht 31
sebene 31
Winter@@ 31
Aktiv@@ 31
äußeren 31
hundert@@ 31
Magen 31
bericht 31
Kosovo 31
Sonnensch@@ 31
Schli@@ 31
emen 31
spürte 31
altmo@@ 31
angele@@ 31
Angel@@ 31
üge 31
phären 31
Schwei@@ 31
zungen 31
utzt 31
ace 31
Helium 31
dun@@ 31
zip 31
spü@@ 31
rolle 31
Down@@ 31
verhandeln 31
biegen 31
Z 31
fter 31
Nadeln 31
Partner@@ 31
ld 31
Jün@@ 31
mittler 31
Gelehr@@ 31
Datens@@ 31
Ausbruch 31
Goldene 31
famili@@ 31
Server 31
wissenschaftlicher 31
ads 31
59 31
50. 31
einzufangen 31
ausschalten 31
unglücklicherweise 31
Geste 31
Minderheit 31
inchen 31
Zusammenspiel 31
Bananen 31
I-@@ 31
striert 31
Priester 31
Draht 31
Dunk@@ 31
blichen 31
stellungs@@ 31
fehlende 31
denjenigen 31
richteten 31
Taus@@ 31
Gestein 31
Kasten 31
oden 31
alog@@ 31
Schriftstell@@ 31
Alex 31
Frühstück 31
be-@@ 31
angerufen 31
mechanische 31
leichten 31
zeug@@ 31
Vakuum 31
Unterri@@ 31
Spor@@ 31
zeichne 31
verschmutzung 31
dsch@@ 31
Gewal@@ 31
gewiss 31
fundamentalen 31
Malari@@ 31
ahlen 31
MA 31
allgegenwärtig 31
Kontinenten 31
umgibt 31
bearbeitet 31
Infektion 31
1,3 31
park 31
fige 31
Oklahoma 31
geri@@ 31
grosser 31
französischen 31
O-@@ 31
fur@@ 31
linear@@ 31
Ras@@ 31
reichsten 31
fließ@@ 31
Facebook-@@ 31
Geburt@@ 31
köni@@ 31
ineinander 31
Kompromis@@ 31
Gemeinsamkeiten 31
zurückge@@ 31
Beweis@@ 31
sprozess 31
roll@@ 31
Klarheit 31
evolutionären 31
Fo@@ 31
wurf 31
ds@@ 31
mium 31
Qaida 31
lem 31
Busse 31
nimm 31
ington 31
Empfin@@ 31
Modell@@ 31
Spek@@ 31
Unterscheidung 31
System@@ 31
Infe@@ 31
Unterhal@@ 31
Moder@@ 31
h-@@ 31
Stadium 31
gründlich 31
Abkürz@@ 31
Windenergie 31
ethischen 31
synchron@@ 31
eingerichtet 31
Vietnam@@ 31
zeichnungen 31
Gewalt@@ 31
Lernens 31
Polizist 31
wertet 31
Wahrheiten 31
Bangladesch 31
vergleich@@ 31
Motiv@@ 31
igste 31
rechtliche 31
frisst 31
verwur@@ 31
Indianer 31
tödlich 31
Fan 31
Wozu 31
Hefe 31
stimmung 31
Materials 31
loss 31
Anblick 31
ule 31
Craig 31
Gä@@ 31
unbekannt 31
liges 31
Lyn@@ 31
Telekommunik@@ 31
Bam@@ 31
Patientin 31
Fischerei@@ 31
überschreiten 31
überwacht 31
Hob@@ 31
gesundheits@@ 31
mathematisch 31
Panzer 31
io 31
gleichermaßen 31
Intensität 30
ehl 30
hom@@ 30
begangen 30
spirituellen 30
Norm 30
gehoben 30
Ärztin 30
statistisch 30
mitzu@@ 30
ützen 30
technologischen 30
unerwartete 30
Bakterien@@ 30
Stewart 30
schätzung 30
Akti@@ 30
Staates 30
befasst 30
7.@@ 30
geheimnis@@ 30
gesellschaf@@ 30
Gesundheit@@ 30
Mysterium 30
reisten 30
yer 30
olo@@ 30
Krokodi@@ 30
amm 30
besit@@ 30
Hai@@ 30
itives 30
dichten 30
shel@@ 30
denheit 30
techni@@ 30
gerade@@ 30
pak@@ 30
unglaub@@ 30
Spass 30
Spielzeuge 30
Immig@@ 30
.org 30
L-@@ 30
Vorsitz@@ 30
bewusster 30
sprich@@ 30
Bleisti@@ 30
Astronomie 30
Misch@@ 30
ablaufen 30
gänger 30
Zudem 30
ne-@@ 30
Mä@@ 30
Bern@@ 30
verwen@@ 30
kamp@@ 30
Rechn@@ 30
1993 30
kapital 30
schrump@@ 30
Oran@@ 30
Flecken 30
Dünger 30
erschwinglich 30
Wissenschaften 30
Val@@ 30
enten@@ 30
Keith 30
worben 30
phäre 30
ergreifen 30
merkten 30
Cli@@ 30
herausra@@ 30
Versuchung 30
Eim@@ 30
Arzneimittel 30
bed@@ 30
Coca-Cola 30
Kontrast 30
fliehen 30
Tesla 30
vernetzen 30
parks 30
Tisch@@ 30
Akteur 30
notwen@@ 30
Schulbildung 30
aterial 30
träum@@ 30
berichtete 30
äbe 30
För@@ 30
onnen 30
Minister 30
Geschichtenerzäh@@ 30
One 30
Git@@ 30
olymp@@ 30
aktuell 30
Immobili@@ 30
Bereitschaft 30
Bespre@@ 30
vollste 30
dokumentiert 30
Viertel@@ 30
smar@@ 30
ument@@ 30
lierte 30
Verwen@@ 30
glänz@@ 30
Datensatz 30
anwes@@ 30
höl@@ 30
Philadelphia 30
Umfragen 30
fär@@ 30
regen 30
Bag@@ 30
Browser 30
Cartoon 30
Bestre@@ 30
cho@@ 30
Gescheh@@ 30
Shar@@ 30
Ehrlichkeit 30
geheime 30
änen 30
Musli@@ 30
rennt 30
Subst@@ 30
Wichtige 30
Nr. 30
Psycho@@ 30
angreifen 30
hacken 30
resistent 30
gemä@@ 30
Tank@@ 30
verbesserte 30
achtung 30
erziehen 30
einerseits 30
Gärten 30
Apfel@@ 30
Wass@@ 30
blockiert 30
fokussiert 30
Brennstoff 30
Ord@@ 30
Öster@@ 30
stati@@ 30
Ritual 30
ina-@@ 30
leistungen 30
Erfassung 30
angeben 30
stim@@ 30
quivalent 30
Hemd 30
fettlei@@ 30
greifbar 30
Internationale 30
tivsten 30
richtiger 30
luden 30
freut 30
planet@@ 30
ethische 30
bedeutenden 30
basis 30
bstoff@@ 30
Kei@@ 30
Gedächtnis@@ 30
Kanäle 30
Integrität 30
Radio@@ 30
1996 30
Paradies 30
hohes 30
gefror@@ 30
befestigt 30
bindung 30
Blo@@ 30
ze@@ 30
Bambus 30
Neu 30
fischer 30
ernde 30
Spot@@ 30
indu@@ 30
Priorität 30
O.@@ 30
Aquarium 30
verur@@ 30
spir@@ 30
herausstellte 30
führungen 30
hochgeladen 30
dramatische 30
ote@@ 30
haftigkeit 30
versität 30
Schuh@@ 30
Zigaretten 30
prüft 30
gespräche 30
heimlich 30
got@@ 30
Fehler@@ 30
intu@@ 30
stimmten 30
vers 30
Jem@@ 30
blockieren 30
Oli@@ 30
spektive 30
Solange 30
überwältigt 30
ahr 30
ear@@ 30
Bad 30
97 30
grusel@@ 30
hoff@@ 30
Bach 30
schwem@@ 30
Ungleichgewicht 30
PR-@@ 30
Oliver 30
lokaler 30
Dschungel 30
Zeuge 30
Lob@@ 30
Black@@ 30
Mutation 30
appar@@ 30
Vo@@ 30
mismus 30
Lebensformen 30
Blindheit 30
beheben 30
lasen 30
rey 30
Piloten 30
kreuzen 30
Ries@@ 30
Libellen 30
Zwill@@ 30
sts 30
herausforder@@ 30
ausdenken 30
Billi@@ 30
ernden 30
Sterber@@ 30
Hotel@@ 30
Spektrums 30
Non@@ 30
belegt 30
merkwür@@ 30
ries@@ 30
herauskommt 30
Zehntel 30
Software@@ 30
schießt 30
Ungerechtigkeit 30
proportional 30
Open-Source-@@ 30
Oz@@ 30
euten 30
Landung 30
hässlich 30
Kreuzung 30
Freitag 30
kompletten 30
schrittweise 30
52 30
anhalten@@ 30
landwirtschaftlichen 30
ägyp@@ 30
Mikrofon 30
Fan@@ 30
Möchten 30
Green 30
geringe 30
Scheiße 30
ente@@ 30
vorherrsch@@ 30
erfährt 30
rift 30
Krieg@@ 30
wiederzu@@ 30
Errungenschaften 30
mau@@ 30
Aussterben 30
aufgeteilt 30
arden 30
Disziplinen 30
Chromosomen 30
haie 30
ermordet 30
einfachsten 30
Fußball 30
verwal@@ 30
nu@@ 30
sexuellen 30
ungsh@@ 30
nützen 30
ziff@@ 30
Moderne 30
Präsident@@ 30
informa@@ 30
emo@@ 30
Geträn@@ 30
Onk@@ 30
Geschlechter@@ 30
gehörigkeit 30
gefördert 30
Aussicht 30
ehemalige 30
improvis@@ 30
offener 30
lampe 30
gedeihen 30
zimmern 30
Jupiter 30
Ruhm 30
Gründung 30
belohnen 30
versicherung 30
Kopfschmerzen 30
Engineering 30
Rechenleistung 30
Trä@@ 30
Unterstütz@@ 30
dekor@@ 30
IP@@ 30
Spruch 30
FDA 30
Voraussagen 30
schungen 30
verbin@@ 30
sech@@ 30
ehlt 30
ros 30
individuell 30
demokrati@@ 30
Ultrasch@@ 30
gereicht 30
Rose 30
Telef@@ 30
Museen 30
pfei@@ 30
Freien 30
Kollaps 30
unbesch@@ 30
T. 30
olle 30
derzeitigen 30
Schirm 30
alit@@ 30
brecher 30
entschuldigen 30
allen@@ 30
Produ@@ 30
tetes 30
hindert 30
Fünftel 30
Mahlzeit 30
krankheit 30
kommerzi@@ 30
chen-@@ 30
Konferenzen 30
Reduktion 30
spunkt 30
stä@@ 30
ags 30
Vernetzung 30
krist@@ 30
verspreche 30
wunderbarer 30
ums@@ 30
Aktionen 30
verblei@@ 30
line 30
auce 30
Unglaub@@ 30
Händler 30
Prozent@@ 30
transformieren 30
Sehn@@ 30
Demut 30
veranschau@@ 30
stran@@ 30
abgeschnitten 30
clever 30
unfähig 30
Comic@@ 30
südlichen 30
tha 30
stätten 30
lieb@@ 30
signale 30
latein@@ 30
respekt@@ 30
Gattung 30
Tiefsee 30
unglaublicher 30
í@@ 30
risch 29
ital 29
unabhängigen 29
regionale 29
zungs@@ 29
Pist@@ 29
orte 29
haus@@ 29
Wahn@@ 29
Arte@@ 29
mungs@@ 29
Marketing@@ 29
medizinischer 29
Poll@@ 29
eignete 29
hunderttaus@@ 29
bevölkerung 29
bedingte 29
empfehlen 29
Inhalts@@ 29
weitergehen 29
iga 29
Exist@@ 29
wegnehmen 29
örtliche 29
voraussagen 29
iniert 29
Beach 29
Symp@@ 29
Persön@@ 29
verhältnisse 29
Europä@@ 29
entsch@@ 29
agen@@ 29
tas@@ 29
verlegen 29
spot@@ 29
Allen 29
zuteilen 29
Google-@@ 29
verdeutlichen 29
motor 29
Waschmaschine 29
aur@@ 29
pos 29
higen 29
Parkinson 29
Becher 29
intellektu@@ 29
tigungen 29
Kreislauf@@ 29
musik 29
reser@@ 29
besuche 29
verabschieden 29
ausgerottet 29
lit@@ 29
Montag 29
Kauf 29
Gitter 29
Engl@@ 29
partei@@ 29
Kogni@@ 29
Rassismus 29
schmei@@ 29
signi@@ 29
wohnern 29
Vul@@ 29
ausgehend 29
unternehmer 29
schiff 29
dge 29
Schlussfolgerung 29
unterbrechen 29
auton@@ 29
drahtlose 29
Bewertungen 29
Bezirk 29
Bangalore 29
kaner 29
inspirierte 29
dist@@ 29
gerei@@ 29
giger 29
Shi@@ 29
Ein-@@ 29
begrüßen 29
anwen@@ 29
erhäl@@ 29
befür@@ 29
bisher@@ 29
kümmerte 29
atische 29
Verur@@ 29
gelder 29
deutsche 29
katholi@@ 29
vere 29
Kyros 29
Repor@@ 29
Mitarbeitern 29
Twitter-@@ 29
geograph@@ 29
ED 29
Idi@@ 29
1980ern 29
Leder@@ 29
cy 29
Jor@@ 29
bezahlte 29
Rechts 29
Breite 29
zurei@@ 29
Rechenschaft 29
abgelegenen 29
überwältigend 29
bon@@ 29
Install@@ 29
boten 29
Großartig 29
äußere 29
box 29
tox@@ 29
pper 29
freundliche 29
anschau@@ 29
simpel 29
Frequenzen 29
operieren 29
ktur 29
Mais@@ 29
läufer 29
Ökosystem@@ 29
Ähnlich 29
Verk@@ 29
hon@@ 29
fassend 29
ammelt 29
sonderlich 29
mancher 29
Wichti@@ 29
Molekular@@ 29
fünfte 29
Rap@@ 29
antwortet 29
Arktis 29
ühlt 29
Amt 29
gewohnheiten 29
ee@@ 29
Ähnlichkeit 29
180 29
Architek@@ 29
komprim@@ 29
Vorlesungen 29
menden 29
beabsichti@@ 29
fisch@@ 29
Central 29
Pier@@ 29
inneh@@ 29
Willst 29
blühen 29
beschränken 29
Russen 29
werben 29
Royal 29
effektive 29
gliedern 29
unbeabsichti@@ 29
Ereignissen 29
glo@@ 29
immerhin 29
bomben 29
ritt@@ 29
erwarte 29
fuß 29
Szenarien 29
etz 29
macher 29
versich@@ 29
hinab 29
Chi@@ 29
Geldes 29
Bewertung 29
Anek@@ 29
meistern 29
mmt 29
8. 29
beseitigt 29
gelie@@ 29
spannt 29
not 29
betrügen 29
vermehren 29
Peking 29
disku@@ 29
jung@@ 29
Hühner 29
Harv@@ 29
mög@@ 29
ummi 29
Wiederauf@@ 29
bereitstellen 29
gekostet 29
Erträge 29
Daraufhin 29
wählte 29
Schön 29
Stich 29
Strassen 29
1991 29
Glücks 29
Genom@@ 29
Bemerk@@ 29
untersu@@ 29
religiös 29
Zeugs 29
komplizier@@ 29
14. 29
etzt 29
sexu@@ 29
zufälligen 29
Unterbre@@ 29
Küh@@ 29
unauswei@@ 29
kommerzielle 29
klüger 29
Joshua 29
stuhl 29
rank 29
Honig 29
Selbst-@@ 29
Carl 29
alistischen 29
Mineralien 29
erleu@@ 29
punk@@ 29
Rü@@ 29
Liebling 29
Eingang 29
lchen 29
Portugal 29
Strang 29
Unterschieden 29
gesetzten 29
bereiche 29
schnellste 29
öffentliches 29
würdigkeit 29
gegenseitige 29
Kambodscha 29
nem 29
van 29
Milo 29
Beer@@ 29
externe 29
Mitternacht 29
inst@@ 29
überlegte 29
besprechen 29
fet@@ 29
erwiesen 29
lebender 29
gewöhnen 29
Regisse@@ 29
Kreuz 29
lächer@@ 29
jeweiligen 29
verzer@@ 29
Lagos 29
Nochmal 29
hunder@@ 29
belt 29
rand 29
As 29
Neanderth@@ 29
Bür@@ 29
Urban@@ 29
Notizen 29
ov@@ 29
Wandels 29
mechanischen 29
kontakt 29
Stief@@ 29
rechtfertigen 29
ktieren 29
therapeu@@ 29
deutschen 29
Flucht 29
una 29
unk 29
Ech@@ 29
Sul@@ 29
Schwangerschaft 29
punkten 29
weinte 29
Al-@@ 29
rekru@@ 29
viren 29
gewartet 29
afrikan@@ 29
konfron@@ 29
Warten 29
positiver 29
Grönland 29
barem 29
meer 29
osp@@ 29
Frösche 29
Act 29
vermark@@ 29
sollst 29
Brett 29
Crow@@ 29
Lama 29
antas@@ 29
gen-@@ 29
entmu@@ 29
wegzu@@ 29
Jefferson 29
fresser 29
Ero@@ 29
cherung 29
Chol@@ 29
Holly@@ 29
Johnny 29
Lebensweise 29
General@@ 29
its 29
griffe 29
Emily 29
gesteuerte 29
Ausrottung 29
ausbildung 29
Jagd 29
Paläst@@ 29
Ty@@ 29
Neurogenese 29
letzt 29
Jährige 29
kateg@@ 29
storgan@@ 29
Befreiung 29
nachahmen 29
sist@@ 29
Hmm 29
infe@@ 29
Transistor@@ 29
Meeren 29
CD 29
Zusammensetzung 29
Periode 29
140 29
hiervon 29
NGOs 29
geschrie@@ 29
gewählten 29
gesün@@ 29
Austr@@ 29
gestres@@ 29
ländern 29
Islam@@ 29
Erhö@@ 29
Gesichtern 29
Säugetieren 29
produktiv 29
viol@@ 29
Stickstoff 29
sicherheit 29
gegenwärtige 29
Verträge 29
Contro@@ 29
autorit@@ 29
kunde 29
herauskam 29
Tick@@ 29
jüngsten 29
Zeilen 29
d.h. 29
extremen 29
bakter@@ 29
han@@ 29
stres@@ 29
Lon@@ 29
Dep@@ 29
yo@@ 29
designen 29
hattest 29
hungen 29
1970 29
Kommunikation@@ 29
Neun 29
Pas@@ 29
versammeln 29
Morgens 29
ade@@ 29
Psychiater 29
Fertigkeiten 29
tauchte 29
erw@@ 29
wache 29
bürger 29
Solarzelle 29
radi@@ 29
Klienten 29
langfristigen 29
stem@@ 29
Athei@@ 29
schlä@@ 29
übergeben 28
Selbstmordattent@@ 28
Börse 28
arien 28
behaup@@ 28
materialien 28
Acker@@ 28
recke 28
gründung 28
sterblichkeit 28
May@@ 28
Dog@@ 28
Ausland@@ 28
tauchten 28
Genes@@ 28
Parameter 28
erfreut 28
ores 28
taler 28
origin@@ 28
geniale 28
Bör@@ 28
Biotechnologie 28
Listen 28
änderten 28
IQ 28
senen 28
terweise 28
Zivil@@ 28
begeistern 28
Geister 28
Fehlern 28
Wohltätigkeit 28
Work@@ 28
Libyen 28
kindern 28
Pennsylvania 28
technischer 28
ehnt 28
zonen 28
nationaler 28
Warnung 28
tar@@ 28
bewege 28
mission 28
Befehle 28
fixiert 28
ust 28
Flüchtlingsl@@ 28
nähert 28
Tyran@@ 28
Ofen 28
Grundi@@ 28
Ken 28
gewi@@ 28
Astron@@ 28
Andro@@ 28
Stipendium 28
Stühle 28
Snowden 28
funktionen 28
ond 28
Armuts@@ 28
AS 28
Schlachtfeld 28
Wieviele 28
Chemik@@ 28
zeuge 28
Edinburgh 28
Leone 28
verstre@@ 28
don@@ 28
grösste 28
absurd 28
out 28
Säuge@@ 28
kehrten 28
Pinguin 28
mechanismus 28
Portrait 28
Todes 28
mechanisch 28
fertig@@ 28
Grüne 28
gh 28
geriet 28
Benzin@@ 28
pläne 28
Instinkt 28
denten 28
Befehl 28
füttert 28
Nieren 28
verschwen@@ 28
sparungen 28
tast@@ 28
brilli@@ 28
seltene 28
Skizzen 28
het@@ 28
seither 28
tlos 28
anders@@ 28
Beschleunigung 28
dsel@@ 28
Dau@@ 28
Produzenten 28
Terr@@ 28
leichter@@ 28
aufpassen 28
ohl@@ 28
alistische 28
Geschehen 28
ye 28
Jemen 28
klässler 28
Force 28
häuser 28
Tante 28
Nennen 28
offiziell 28
Weis@@ 28
Mac 28
ausgesucht 28
Notiz@@ 28
ees 28
Schall 28
6,@@ 28
Unglaublich 28
blas@@ 28
mittlere 28
großzü@@ 28
Entwickler 28
Spon@@ 28
CO 28
Michigan 28
ampen 28
Aller@@ 28
mechan@@ 28
Arme@@ 28
Milchstraße 28
öte 28
Leder 28
befriedi@@ 28
ures 28
Schaltkreis 28
Stickstoff@@ 28
Vegas 28
schwung 28
Implan@@ 28
zuverlässig 28
flasche 28
Disney 28
Tech 28
Revolutionen 28
Ausrichtung 28
erischen 28
Recycling 28
erhö@@ 28
Chirurgie 28
sperr@@ 28
internationaler 28
tion-@@ 28
Stock@@ 28
Flugh@@ 28
Roboter-@@ 28
stellige 28
autonome 28
lade 28
spu@@ 28
Gros@@ 28
risik@@ 28
Diesel@@ 28
ko-@@ 28
durchge@@ 28
abwärts 28
krebs@@ 28
Bekann@@ 28
Begegnung 28
Kiribati 28
korb 28
Gedenk@@ 28
allerersten 28
andauernd 28
bir@@ 28
Geck@@ 28
Zir@@ 28
werfe 28
beobachteten 28
Expansion 28
Fans 28
nie@@ 28
Statist@@ 28
kulturell 28
LE@@ 28
terer 28
genten 28
YR 28
ition 28
eindeu@@ 28
900 28
kommuniziert 28
wahres 28
Barrel 28
glä@@ 28
verzi@@ 28
ungste@@ 28
nschaft 28
AT 28
Musikstück 28
explodieren 28
Lange 28
instinktiv 28
ila 28
Essens@@ 28
bens@@ 28
deprimiert 28
160 28
schär@@ 28
Südo@@ 28
Ablauf 28
kultureller 28
reiz@@ 28
ermaßen 28
Hip@@ 28
reproduzieren 28
ständ@@ 28
istin 28
Blutgefäße 28
nukle@@ 28
russischen 28
rinde 28
angelegt 28
Lebensräume 28
apfen 28
geist 28
eigent@@ 28
Gemeinde@@ 28
Besitz@@ 28
agenturen 28
Seri@@ 28
Neutr@@ 28
Heilmittel 28
etzte 28
hälfte 28
Schlafzimmer 28
schliesslich 28
packte 28
auseinandersetzen 28
Kürzlich 28
besitzer 28
langem 28
Taucher 28
Kalten 28
Stress@@ 28
KA 28
tierung 28
entsprechende 28
Schritten 28
Seht 28
ffend 28
Mörder 28
ler-@@ 28
erd@@ 28
Massachusetts 28
Konzert 28
Tü@@ 28
laufenden 28
Renaissance 28
Säule 28
laufende 28
peti@@ 28
Hypothesen 28
Digit@@ 28
techn@@ 28
verbundenen 28
ernährung 28
tepp@@ 28
dent@@ 28
Journalismus 28
krank@@ 28
Schande 28
sigkeit 28
willen 28
Spann@@ 28
Größenordnungen 28
aufbaut 28
geheimen 28
Brokkoli 28
1,2 28
zitieren 28
nachrichten 28
heilige 28
zulösen 28
Online 28
wärmt 28
dichter 28
Phili@@ 28
Palästina 28
beschweren 28
drittes 28
kriminierung 28
Treib@@ 28
Kerle 28
einsam 28
verborgen 28
computer@@ 28
Luf@@ 28
Eri@@ 28
Dunkeln 28
zugelassen 28
Unglücklicherweise 28
Sonntag 28
wäs@@ 28
wirkte 28
Schritt@@ 28
spiegel 28
Provinz 28
Danny 28
vorherzusagen 28
übereinstimmen 28
instab@@ 28
Wen 28
kommerziellen 28
auftauchte 28
Rasen 28
umgeht 28
Umsatz 28
bewerben 28
engagiert 28
selbst-@@ 28
Vogelgrippe 28
erstellte 28
Hotels 28
talter 28
streichen 28
dreck@@ 28
gewannen 28
nahr@@ 28
dynamischen 28
guckt 28
ez 28
Kuba 28
Neuron 28
erfanden 28
ilfe@@ 28
stabili@@ 28
üll@@ 28
unschuldig 28
interess@@ 28
Pferde 28
sey 28
BC 28
ner-@@ 28
Kabel@@ 28
schlugen 28
exp@@ 28
Reporter 28
wahl 28
Tasse 28
bergen 28
Barrieren 28
Überre@@ 28
emper@@ 28
Hof 28
Wähler 28
ethnischen 28
baus 28
Mass@@ 28
erb@@ 28
Thunfische 28
Lebensdauer 28
Pr@@ 28
gewinnung 28
dimensional 28
tür@@ 28
urbane 28
Weniger 28
Wun@@ 28
Beispielsweise 28
drauf@@ 28
international 28
rett@@ 28
glaub@@ 28
Schatten@@ 28
kuchen 28
Schwach@@ 28
loch 28
anfühlen 28
ergi@@ 28
rebs 28
Schwierigkeit 28
spa@@ 28
entschlüsseln 28
erhöhten 28
bestän@@ 28
Niemals 28
bestehenden 28
Goog@@ 28
Beachtung 28
erhöhte 28
thes@@ 28
ennen 28
Fluktu@@ 28
richtiges 28
gesetz 28
schlossen 28
perfe@@ 28
herab 28
Elend 28
vernetzten 28
Venti@@ 28
stützen 28
umkreisen 28
molekulare 28
ua 28
wirkungen 28
chaotisch 28
zensi@@ 28
Grupp@@ 28
Größen 28
Alan 28
but 28
Wiki@@ 28
Lehrer@@ 28
stücken 28
beruflich 28
Fortpflanzung 28
Sem@@ 28
dutzende 28
Gitar@@ 28
gestoppt 28
Paradig@@ 28
spür@@ 28
Sterblichkeit 28
Wol@@ 28
Zimmer@@ 28
Belohnungen 28
Sonn@@ 28
Marihuana 27
füge 27
bender 27
ffekt 27
Kanten 27
abe@@ 27
Anwen@@ 27
Zunahme 27
Neben 27
stör@@ 27
Hochschule 27
betreibt 27
Transa@@ 27
NSA 27
entfernte 27
Flexibilität 27
gehor@@ 27
Agent@@ 27
geseg@@ 27
eni@@ 27
taus@@ 27
Priv@@ 27
Veteranen 27
MM 27
robot@@ 27
vorstellt 27
abhalten 27
han 27
waffe 27
Handlungs@@ 27
vin 27
atorium 27
Warren 27
Zwei-@@ 27
arischen 27
Dach@@ 27
weites 27
verletzungen 27
Buff@@ 27
bildete 27
begründet 27
Weltmeister@@ 27
ners 27
Akadem@@ 27
Handvoll 27
bindet 27
geschlossenen 27
verlegt 27
drungen 27
förderung 27
Gay 27
präsent 27
tnisse 27
strieren 27
wachs 27
perfektion@@ 27
Gefan@@ 27
dimen@@ 27
Malerei 27
bein 27
Psyche 27
bildungen 27
Edward 27
höherer 27
‟ 27
Trainings@@ 27
Spreng@@ 27
Aktien@@ 27
unauf@@ 27
Mittlerweile 27
Codes 27
emotion@@ 27
depressi@@ 27
ef 27
neuro@@ 27
tim@@ 27
passiv 27
hervorzubringen 27
ambi@@ 27
Extra@@ 27
verärgert 27
Buddha 27
anschaue 27
Spitzen 27
Nächte 27
Ähn@@ 27
arer 27
Rhyth@@ 27
Westküste 27
akzeptabel 27
ystem@@ 27
platte 27
erwerben 27
EDI 27
Teig 27
konzer@@ 27
filme 27
U-Bahn@@ 27
ritter 27
Abstamm@@ 27
ausgestorben 27
aup@@ 27
Erschein@@ 27
leite 27
Erdöl 27
rise 27
zusammensch@@ 27
Entscheidungsträger 27
Fabrik@@ 27
til@@ 27
Stär@@ 27
Mücken 27
dynamik 27
ware 27
Helikopter 27
glatt 27
Innern 27
blinden 27
Ökosystemen 27
zurückbringen 27
Deutschen 27
Leere 27
ting 27
ertragen 27
Vorstellungs@@ 27
buch@@ 27
verstär@@ 27
eindrucks@@ 27
ützt 27
ky 27
AO 27
verschrieben 27
bec@@ 27
ägern 27
Warte@@ 27
fordere 27
bräuchte 27
papier 27
Athleten 27
wanderte 27
erkun@@ 27
dler 27
necke 27
energie@@ 27
wiederherzustellen 27
Ski@@ 27
zusammengesetzt 27
Vorfall 27
Ablenk@@ 27
Psychiat@@ 27
Sens@@ 27
skrankheiten 27
bstoff 27
verbieten 27
Pillen 27
gre@@ 27
Films 27
fortfahren 27
Grü@@ 27
medien 27
Key@@ 27
Größen@@ 27
Räder 27
küssen 27
Abhandlung 27
esz@@ 27
Rein@@ 27
regelrecht 27
ano 27
Gliedmaßen 27
Spanisch 27
Partnerschaften 27
tent@@ 27
erzeit 27
Steck@@ 27
Schienen 27
überraschte 27
Brasili@@ 27
Hände@@ 27
Nachthimmel 27
weh@@ 27
rigen 27
ausch 27
Mohammed 27
dium 27
sonst@@ 27
ftungen 27
Mammographie 27
vollständigen 27
arabische 27
Lebensmitteln 27
Magneten 27
starrt 27
giftigen 27
Doll@@ 27
schweigen 27
Bemerkens@@ 27
Klimaanlage 27
Dorfes 27
Welchen 27
mail 27
bil 27
flügel 27
Propaganda 27
nan@@ 27
wohingegen 27
Funken 27
54 27
Franzosen 27
Songs 27
tanzt 27
Ostafrika 27
pert 27
höflich 27
Alkoh@@ 27
Nairobi 27
tigkeiten 27
tagsüber 27
rechnung 27
zivili@@ 27
verge@@ 27
num@@ 27
netter 27
Verlu@@ 27
Träger 27
windigkeits@@ 27
Schlussendlich 27
Aha 27
Erwachsenen@@ 27
Körpersprache 27
rak@@ 27
after 27
Stipen@@ 27
Vorhaben 27
Marathon 27
Ky@@ 27
pf 27
beanspru@@ 27
lebendige 27
Unten 27
zügigkeit 27
Schiffen 27
Wunde 27
bess@@ 27
äss@@ 27
bloße 27
nehmer 27
funktionierten 27
verwaltung 27
perfektes 27
rump@@ 27
Lar@@ 27
BS 27
einbezogen 27
Vergewaltigung 27
eis 27
bede@@ 27
versprochen 27
Adi@@ 27
disziplin@@ 27
mul@@ 27
verkörpert 27
ackte 27
brennt 27
oben@@ 27
Schimpanse 27
täuschen 27
sproz@@ 27
oph@@ 27
Ori@@ 27
irt 27
Sammler 27
fessel@@ 27
auswirken 27
entzün@@ 27
Teilnehmern 27
amera 27
fröhlich 27
Entfernungen 27
AC@@ 27
Arbeitsp@@ 27
prob@@ 27
einzubeziehen 27
dicke 27
Geor@@ 27
Slum 27
UNO 27
simple 27
Anwendungs@@ 27
Fahrten 27
mation 27
Brot@@ 27
Gouverne@@ 27
isation 27
Physiologie 27
don 27
ica 27
schwäch@@ 27
Städ@@ 27
straßen 27
politisches 27
Isolation 27
Columbia 27
Momentan 27
knochen 27
beschäftige 27
Konsens 27
Publikums 27
konkur@@ 27
Segel@@ 27
Lähmung 27
Reichen 27
zwin@@ 27
phys@@ 27
Louis 27
Roger 27
hin- 27
hinausgehen 27
Konkurr@@ 27
Hunderttausende 27
vorgeht 27
Galerien 27
rekonstruieren 27
Wide 27
lich-@@ 27
schwier@@ 27
chtungen 27
Rekord 27
verkün@@ 27
iv@@ 27
erzielt 27
Blumen@@ 27
Vieh@@ 27
hnen 27
Möbel@@ 27
Jeans 27
Komplik@@ 27
Aben@@ 27
Carnegie 27
Temp@@ 27
Verschw@@ 27
Vorschläge 27
ration 27
interpretiert 27
fert 27
bemer@@ 27
-Show 27
ao 27
hinunter@@ 27
unerwartet 27
lst 27
Verwaltungs@@ 27
reinigen 27
altern 27
zerstörte 27
pedi@@ 27
_ 27
eur 27
freigesetzt 27
Straft@@ 27
Absolventen 27
Alphabet 27
Programms 27
Doaa 27
garanti@@ 27
steigenden 27
Mittag 27
erm@@ 27
Scanner 27
Durchschnit@@ 27
sin 27
rissen 27
ip@@ 27
.... 27
Höhen@@ 27
faltet 27
tender 27
Authentizität 27
würdigen 27
Zyklus 27
Larven 27
Ex-@@ 27
sauberes 27
Katrina 27
optische 27
Spir@@ 27
missbraucht 27
Peru 27
Asteroid 27
erstaunliches 27
ennt 27
1945 27
Sputnik 27
irr@@ 27
Train@@ 27
ablehnen 27
Sprung@@ 27
Dänemark 27
Volumen 27
Fund 27
wahrsten 27
feuert 27
Avatar 27
old 27
Reihen 27
radio@@ 27
Cent@@ 27
haup@@ 27
fünften 27
Orientierung 27
Zähnen 27
steigen@@ 27
Präsenz 27
landeten 27
ard-@@ 27
zusagen 27
Unrecht 27
Karikaturen 27
längen 27
itzt 27
Interviewer 27
Bedeutungen 27
tak@@ 27
möglicher 27
esien 27
gewöhn@@ 27
bohren 27
kunfts@@ 27
Wolfram 27
Immun@@ 27
ören 27
Betriebs@@ 27
essor@@ 27
notwendigerweise 27
Privatleben 27
Grundstück 27
fürchter@@ 27
zufügen 27
Coll@@ 27
Friede 27
mals 27
Plankton 27
angelangt 27
hop 27
sil@@ 27
Ethanol 27
großzügig 27
stufen 27
Scherz 27
partner 27
einzut@@ 27
Netzwerks 27
Autonomie 27
Hydro@@ 27
Vereinbarung 27
kulieren 27
Illusionen 27
illu@@ 27
legal 27
BA-@@ 27
Schmetter@@ 27
esischen 27
eldet 27
vorm 27
Erneu@@ 27
idealen 27
konzept 27
verd@@ 27
illegalen 27
Stockwerke 27
Gesamtheit 27
Szenen 27
organismen 27
Sudan 27
gefär@@ 27
ütze 27
geschicht@@ 27
Affen@@ 27
Sieb@@ 27
Vergleichen 27
World@@ 27
kar 27
cin@@ 27
lands 27
igung 27
bewundern 27
Chr. 27
Barmherzigkeit 27
Überlebenden 27
Zivilisten 27
Cop@@ 27
Enzyklopädie 27
katastrophe 27
anst@@ 27
klat@@ 27
Maria 27
naiv 27
teur@@ 27
Diego 27
beine 27
Just@@ 27
Daran 27
Schleife 27
amt 27
chnologi@@ 27
osigkeit 27
Prostatak@@ 27
Lieben 27
ests 27
Dächer 27
e- 26
getäu@@ 26
zurückgeht 26
Moore 26
anti-@@ 26
sick@@ 26
verbreiteten 26
hem@@ 26
multination@@ 26
reichlich 26
gezü@@ 26
Pass 26
materi@@ 26
Toilett@@ 26
anzeigen 26
solltest 26
Bruce 26
assozi@@ 26
angezeigt 26
Turm 26
hindern 26
Ze@@ 26
ausländische 26
homosexu@@ 26
Gewohn@@ 26
rauszu@@ 26
lei 26
Klick 26
val 26
verschwendet 26
fien 26
Karikatur 26
Nanotechnologie 26
eb@@ 26
reichhal@@ 26
zar@@ 26
gedruckt 26
Festival 26
Biolumin@@ 26
sand@@ 26
Dah@@ 26
auszubilden 26
gehalt 26
vertrieben 26
schützer 26
entlichen 26
mails 26
Liberia 26
last 26
detailliert 26
cht-@@ 26
ttest 26
Behauptungen 26
Geschichtenerzähler 26
Osteuropa 26
anter 26
fels 26
Training@@ 26
befragt 26
ue@@ 26
Saat@@ 26
do-@@ 26
Chr@@ 26
utze 26
vernünf@@ 26
Raster 26
ohn@@ 26
Wort@@ 26
up-@@ 26
werker 26
WI@@ 26
Fakultät 26
feldern 26
Durcheinander 26
stam@@ 26
Fließ@@ 26
7,@@ 26
Gene@@ 26
Dreieck 26
Kühlsch@@ 26
verhältnis 26
Demok@@ 26
regung 26
Toronto 26
exter@@ 26
Stoffwechsel@@ 26
aussahen 26
Y-@@ 26
entführt 26
schäden 26
pazi@@ 26
molekul@@ 26
Jahrzehn@@ 26
festgehalten 26
misshand@@ 26
Explos@@ 26
kön@@ 26
luft 26
betrat 26
gefordert 26
allererste 26
kürzer 26
Gleichberechtigung 26
bremsen 26
verschicken 26
ares 26
dos 26
Lizenz 26
Tabelle 26
Pingu@@ 26
atisierung 26
Patri@@ 26
Bündel 26
Bruttoinlandsprodu@@ 26
unterdrückt 26
bracht 26
Pfeifen 26
ckchen 26
thesen 26
Standard-@@ 26
chinesisches 26
minü@@ 26
monati@@ 26
Variablen 26
Mord 26
Mittelschicht 26
Santa 26
Blutgef@@ 26
mittler@@ 26
Konzent@@ 26
strahlt 26
gebnis 26
Sexualität 26
Soli@@ 26
umkehren 26
besonder@@ 26
Futter@@ 26
histor@@ 26
besetzt 26
strationen 26
C-@@ 26
Skal@@ 26
-System 26
herumlaufen 26
oskel@@ 26
Check@@ 26
ungeachtet 26
Fantas@@ 26
Tropen 26
erwähnten 26
Francis 26
Simon 26
Überwachungs@@ 26
Videospiel 26
Verpackung 26
Schwächen 26
ny 26
Flusses 26
hüb@@ 26
bran 26
Prop@@ 26
Versorgungs@@ 26
virus 26
Mäch@@ 26
gefeiert 26
Orgasmus 26
Asthma 26
Stimul@@ 26
gedanke 26
Spaghetti@@ 26
refle@@ 26
Schifffahrt 26
1975 26
geschle@@ 26
hig@@ 26
Anziehungskraft 26
Blüte 26
Innovations@@ 26
rauf 26
erhalte 26
rou@@ 26
abdruck 26
synthetische 26
Autounfall 26
Krankenschwester 26
Zeremonie 26
Impfung 26
Cher@@ 26
übrigen 26
osch@@ 26
steige 26
Abwesenheit 26
dsten 26
Schäden 26
formationen 26
Hurri@@ 26
Impulse 26
verstümm@@ 26
strom@@ 26
Astronauten 26
sex@@ 26
Tierarten 26
elem@@ 26
Van 26
ultimati@@ 26
ckten 26
7.000 26
wußte 26
Hm 26
Naturwissenschaften 26
mentar@@ 26
eile 26
Geräuschen 26
kulti@@ 26
meter 26
Franklin 26
Kampagnen 26
Intel 26
inas 26
genannte 26
Kopien 26
Assistenten 26
Gummi@@ 26
Tech-@@ 26
Mili@@ 26
gescheitert 26
dehnung 26
sicheres 26
teles@@ 26
wohner 26
Image 26
auszugeben 26
zugreifen 26
ello 26
professionellen 26
Ins@@ 26
TEDTalk 26
Fassa@@ 26
wandte 26
bestraft 26
Vereinigung 26
massiv 26
Orang-U@@ 26
barsten 26
Gewissheit 26
cul@@ 26
eBay 26
text 26
ächlich 26
menschlichem 26
Nad@@ 26
brillante 26
zufäl@@ 26
bekämpfung 26
Bearbei@@ 26
veau 26
ethnische 26
schaf@@ 26
chtungs@@ 26
under@@ 26
mot@@ 26
Gehirnare@@ 26
Persönlichkeiten 26
British 26
57 26
zweifeln 26
häufigste 26
Wü@@ 26
Kontakte 26
hartnäck@@ 26
dlichkeit 26
46 26
kogni@@ 26
blog@@ 26
ehemaligen 26
Akzeptanz 26
entfer@@ 26
Amsterdam 26
arg@@ 26
Seen 26
Hitz@@ 26
os-@@ 26
Dallas 26
Integration 26
bellen 26
Schönes 26
Maler 26
wom@@ 26
gewusst 26
Argentinien 26
stream 26
bekommst 26
willkür@@ 26
anerkannt 26
Cam@@ 26
Einerseits 26
Schaff@@ 26
Jamie 26
beiträgt 26
prozenti@@ 26
Original@@ 26
sc@@ 26
aw@@ 26
fin 26
Stringtheorie 26
chtere 26
ani 26
unabhän@@ 26
Auß@@ 26
8.000 26
Drachen 26
gemeinnüt@@ 26
vögel 26
Kunstwerke 26
Verein@@ 26
Rä@@ 26
Not 26
ingo 26
konferenz 26
Asi@@ 26
Hammer 26
Raketen@@ 26
CO2-Emissionen 26
heis@@ 26
Fahrräder 26
Jay 26
Betriebssystem 26
Täu@@ 26
Unend@@ 26
auszutauschen 26
anpassungs@@ 26
erinn@@ 26
Stadtt@@ 26
konzip@@ 26
Klo@@ 26
fahrzeuge 26
lung@@ 26
Lebenslied 26
Geru@@ 26
Einwohnern 26
Obst 26
durchqu@@ 26
Elektron 26
mex@@ 26
gesetzte 26
Laboren 26
schmilzt 26
ó@@ 26
fig 26
hten 26
Aktu@@ 26
Zorn 26
Science-@@ 26
Verlierer 26
Apollo 26
typischerweise 26
unschul@@ 26
Offen@@ 26
Kopf-Zahl-@@ 26
Las@@ 26
hinauf@@ 26
Lüge 26
tzt 26
wissenschaftliches 26
diplom@@ 26
elegant 26
Mix@@ 26
betä@@ 26
Becken 26
-Welt 26
verkünden 26
festgelegt 26
verr@@ 26
Saudi 26
aufzeichnen 26
ffel@@ 26
87 26
Myzel 26
änd@@ 26
ansteigen 26
tilien 26
Kleinen 26
Präsent@@ 26
förmig 26
geheiratet 26
Geschi@@ 26
Stimulation 26
99@@ 26
aggressiv 26
nachdenke 26
bestimmter 26
Fallschirm 26
Ressour@@ 26
rich 26
autos 26
knüpfen 26
Power@@ 26
befrei@@ 26
Kandi@@ 26
Schleim 26
beschaff@@ 26
450 26
prim@@ 26
extrahieren 26
Aktion@@ 26
Überlegen 26
Abent@@ 26
tet@@ 26
Schleimpilz 26
Pittsburgh 26
drehe 26
eisen 26
Spender 26
Bilder@@ 26
benan@@ 26
Freundschaft 26
Higgs-Feld 26
ielt 26
int 26
erschöpft 26
vernicht@@ 26
ioren 26
fliegenden 26
Alltags@@ 26
Wahrschein@@ 26
2013 26
Maske 26
Trü@@ 26
Tan@@ 26
nom@@ 26
Roboters 26
apper 26
Las 26
Prote@@ 26
navi@@ 26
mine 26
impfen 26
schlepp@@ 26
Brennstoffen 26
zufuhr 26
verwirrend 26
kühlt 26
oze@@ 26
Unterhaltungs@@ 26
erweiterte 26
Eich@@ 26
vertreter 26
Amts@@ 26
innov@@ 26
go-@@ 26
verlauf 26
tab@@ 26
iler 26
wärme 26
Mega@@ 26
versuch 26
Zustimmung 26
ickt 26
generation 26
Lastwagen 26
kbar 26
Gefangenen 26
Helfen 26
konsumiert 26
Philip 26
Somalia 26
Insbesondere 26
blick@@ 26
Hingabe 26
mathematisches 26
konstant 26
auto 26
kanad@@ 26
Champ@@ 26
unwohl 26
designt 26
Stir@@ 26
bewunder@@ 26
händler 26
gefressen 26
CO@@ 26
ühr 26
großarti@@ 26
Kreu@@ 26
Goliath 26
erschließen 26
Tsch@@ 26
änner 26
umfangrei@@ 26
ima 26
batter@@ 26
konventionelle 26
Neur@@ 26
Vorzüge 26
anonym 26
hellen 26
harmon@@ 26
dä@@ 26
künstliches 26
ga 26
Raumschi@@ 26
Ausbe@@ 26
Julia 26
Tuberkulose 26
erneuerbaren 26
Spannungen 26
Bonobos 26
Pend@@ 26
Af@@ 26
flossen 26
Käfig 26
fotografierte 26
Altruismus 26
öße 26
Voraussetzung 26
SIe 26
teur 26
dent 26
angeordnet 26
Supralei@@ 26
Zeitungs@@ 26
hi 26
Werkzeug@@ 26
Mythen 26
Schoß 26
räne 26
EE@@ 26
Führungspersön@@ 26
Namibia 26
vorstellungen 26
zweifellos 26
Scheiben 26
Testoster@@ 26
rettete 26
Symph@@ 26
Quali@@ 26
sorgte 26
Thunfisch 26
vergangen 26
delt 26
Industriel@@ 26
Auswahlmöglichkeiten 26
europa 26
günstiger 26
Kreis@@ 26
Einz@@ 26
sugger@@ 26
rahlt 26
Marsch 26
ituation 26
mobile 26
betrieb 26
Brad 26
ampen@@ 25
regenerieren 25
präch@@ 25
ketten 25
Mem 25
angefertigt 25
dach 25
sangen 25
Vorbilder 25
ausgel@@ 25
Qualle 25
Handel@@ 25
journ@@ 25
Highschool 25
ara 25
Erleb@@ 25
Dreck 25
seitige 25
realisiert 25
ohnehin 25
v. 25
stiere 25
nüt@@ 25
Jungfrau 25
ian 25
Hunde@@ 25
Erfin@@ 25
terien 25
arbeitenden 25
höri@@ 25
Gewäs@@ 25
registriert 25
Jazz@@ 25
gespendet 25
rik 25
Darf 25
Charakterist@@ 25
adop@@ 25
Kriegen 25
Abweichung 25
bla 25
Finnland 25
gutem 25
aligen 25
Desaster 25
Arizona 25
ironisch 25
überge@@ 25
aufrechter@@ 25
Dynam@@ 25
Englischen 25
weswegen 25
Fazit 25
aufwachen 25
interne 25
kennengelernt 25
Viz@@ 25
Mythologie 25
FG 25
ellose 25
figuration 25
bergs 25
fisches 25
Input 25
Teils 25
bedingt 25
versus 25
Zwie@@ 25
Feder 25
Bosnien 25
Naturschutz@@ 25
Sänger 25
ungemein 25
interesse 25
Ladungen 25
kündigte 25
Talk 25
Ehrfurcht 25
digitalisieren 25
Schöpfer 25
Geni@@ 25
eid 25
Häufig@@ 25
zahlreichen 25
76 25
Konver@@ 25
tu 25
gewes@@ 25
drehung 25
Säugl@@ 25
Schöpf@@ 25
erfolgt 25
abgebildet 25
Kibera 25
Echtz@@ 25
Dä@@ 25
hoffnungslos 25
Costa 25
Glukose 25
hübsche 25
freude 25
Princeton 25
Ehefrau 25
Arznei@@ 25
geschlechts@@ 25
Scham@@ 25
Unterdrückung 25
otte 25
rich@@ 25
Verwir@@ 25
konsum 25
betrogen 25
Line 25
Beobachter 25
verdäch@@ 25
Abgrund 25
Bucht 25
Parlament@@ 25
Reu@@ 25
verkündete 25
gegenüberstehen 25
Juli@@ 25
operni@@ 25
Kru@@ 25
frühere 25
diente 25
Philanthropie 25
Waldes 25
kosmischen 25
ingung 25
säm@@ 25
Format 25
oparden 25
Fach 25
rund@@ 25
griechischen 25
lauten 25
Blutdruck 25
Umweltverschmutzung 25
Schriften 25
keits-@@ 25
pie@@ 25
dat 25
Verbundenheit 25
soldaten 25
Inhalten 25
Bran@@ 25
Basen@@ 25
opoli@@ 25
ansteckend 25
Vorlesung 25
Vitamin 25
zeugung 25
Wachstum@@ 25
okra@@ 25
Vorträgen 25
beziehungen 25
speichert 25
geschahen 25
figuren 25
blinde 25
paare 25
inner 25
grauen@@ 25
glück 25
Übereinstimmung 25
alistin 25
pigm@@ 25
Falken 25
Betreu@@ 25
gekennzeichnet 25
äußern 25
ampe 25
beginnend 25
Äquator 25
Photosyn@@ 25
horizon@@ 25
wald 25
Debat@@ 25
64 25
beein@@ 25
Cousins 25
Unterneh@@ 25
Wä@@ 25
Ur-@@ 25
Jag@@ 25
anda 25
Fau@@ 25
Verbrecher 25
Enthusiasmus 25
Erwartung 25
Setzen 25
weiß@@ 25
befestigen 25
tums 25
elimin@@ 25
ärz@@ 25
büro 25
äd@@ 25
ding 25
Verlag@@ 25
nigeri@@ 25
Fehlen 25
russ@@ 25
balanc@@ 25
nahele@@ 25
bia 25
deter 25
Würmer 25
fikationen 25
Einkaufszentrum 25
Ente 25
Bulg@@ 25
Alt@@ 25
wunderung 25
stabilisieren 25
reffen 25
bestrafen 25
Savanne 25
intensive 25
fantast@@ 25
blaues 25
map@@ 25
hn@@ 25
weggehen 25
Nordo@@ 25
bring@@ 25
achel@@ 25
furchtbare 25
verlasse 25
ameras 25
Sprichwort 25
Hypothe@@ 25
sprobleme 25
grat 25
Wat@@ 25
Zimbabwe 25
Früher@@ 25
Quadratkilometer 25
reichten 25
forderte 25
stisches 25
Abgeord@@ 25
Gewis@@ 25
ausschlag@@ 25
Marktes 25
Druckerpresse 25
blauer 25
TE@@ 25
verkab@@ 25
Hört 25
nir@@ 25
Älteren 25
Spermien 25
flag@@ 25
Hawking 25
interaktive 25
Beamten 25
Ketten@@ 25
steigende 25
aschen@@ 25
ulti@@ 25
gezahlt 25
Umwandlung 25
Kore@@ 25
Kapitän 25
brauchst 25
Bestimmung 25
erlebten 25
grap@@ 25
Fußabdruck 25
Prognosen 25
ängstlich 25
Antikörper 25
110 25
aufgefordert 25
Knor@@ 25
ürtel 25
genehmig@@ 25
furchtbaren 25
erung@@ 25
Anfangs 25
iron@@ 25
interessi@@ 25
tlichkeit 25
Stillstand 25
hoffte 25
zunimmt 25
MT@@ 25
Sendungen 25
Jen@@ 25
forscht 25
Nicole 25
Anrei@@ 25
neter 25
Farmen 25
hübsch 25
stock@@ 25
seltsames 25
Baumkronen 25
Langlebigkeit 25
entre@@ 25
Invasion 25
kaput@@ 25
winziger 25
zem 25
Schreck@@ 25
sahar@@ 25
angeseh@@ 25
Kugeln 25
ränkte 25
Finanzen 25
spontan@@ 25
vereinfachen 25
Py@@ 25
Anlass 25
Areale 25
beruhen 25
turm 25
Scre@@ 25
offenes 25
Intensivstation 25
BM@@ 25
usses 25
Epo@@ 25
Gelächter 25
modern 25
ters@@ 25
gebend 25
RL 25
DVD 25
Jur@@ 25
berichte 25
wahrhaft 25
Richtlinie 25
ension@@ 25
schreckliches 25
gemischt 25
Sli@@ 25
folg 25
bedeutungs@@ 25
häuft 25
Ron 25
ehrer 25
iedelt 25
Kennen 25
ake 25
verwü@@ 25
istischer 25
vermischen 25
lizit 25
kämpfte 25
Versicherungs@@ 25
Schrau@@ 25
palästinens@@ 25
Psychologe 25
ford 25
Vent@@ 25
getrunken 25
bedürf@@ 25
E. 25
k. 25
Erleuchtung 25
Zusammenhänge 25
geantwortet 25
buddhi@@ 25
Kästchen 25
Soziale 25
erleiden 25
ößen 25
einher@@ 25
verschiedensten 25
gib 25
Lebensjahr 25
erreichbar 25
150.000 25
Bestechung 25
Orleans 25
Paket 25
Kaker@@ 25
Kleid 25
mitte 25
herkommt 25
Sohnes 25
Dean 25
Warn@@ 25
Passi@@ 25
Erachtens 25
Caf@@ 25
Initiativen 25
fossile 25
strömen 25
Fon@@ 25
25.000 25
Medikament@@ 25
fi 25
Neander@@ 25
interagiert 25
undeutlich 25
Ehen 25
nst 25
Rückkoppl@@ 25
cl@@ 25
Pati@@ 25
beschützt 25
Lungenentzündung 25
ockt 25
Trin@@ 25
Mentor 25
eist@@ 25
ausgeschlossen 25
verga@@ 25
tika 25
Nie 25
Model@@ 25
benzielgerät 25
verlock@@ 25
Hop@@ 25
bat@@ 25
telefon@@ 25
1970ern 25
sichtlich 25
ausserhalb 25
korn 25
Offenbarung 25
Enden 25
Improvisation 25
Gase 25
dom 25
hinteren 25
Nike 25
klopfen 25
unvorstellbar 25
Schlaganfall 25
Relation 25
steckten 25
verun@@ 25
Manipulation 25
Ewigkeit 25
Balk@@ 25
Gesprächen 25
ffer@@ 25
aufgezogen 25
DI@@ 25
Sandwich 25
auflösen 25
was@@ 25
wahrer 25
Pfe@@ 25
beauftragt 25
fotograf@@ 25
ähen 25
Finanzkrise 25
Ushahidi 25
warme 25
29@@ 25
vermisst 25
Lebensform 25
risten 25
osaurus 25
konsist@@ 25
ards 25
eim@@ 25
chent@@ 25
Geräusch@@ 25
Männ@@ 25
Landwirtschafts@@ 25
ausgaben 25
Grä@@ 25
orik 25
jüdischen 25
mächtigste 25
komple@@ 25
hierzu 25
aufweist 25
ih@@ 25
bruchs 25
dramatischen 25
Pestizide 25
tragbar 25
ologischer 25
überwiegend 25
Damp@@ 25
orie 25
ähte 25
Entwürfe 25
augenblick@@ 25
ande 25
Ziegen 25
Tierwelt 25
Irrtum 25
verwunder@@ 25
gkeiten 25
empfindet 25
Mitgliedern 25
verschafft 25
soll@@ 25
tuch 25
Il@@ 25
Cholera 25
scheu@@ 25
feste 25
Billion 25
rückgängig 25
disches 25
entes 25
Schwerpunkt 25
Knot@@ 25
Flo@@ 25
materielle 25
Diplomat 25
Verkäufer 25
weitrei@@ 25
Lebenser@@ 25
östlichen 25
sprä@@ 25
fundament@@ 25
abgele@@ 25
eprä@@ 25
veraltet 25
hierhin 25
Werbes@@ 25
Arbeitslosigkeit 25
Gericht@@ 25
ots 25
praktizieren 25
Silber@@ 25
Handgelenk 25
willkürlich 25
Töten 25
Einsichten 25
konzentrierten 25
igten 25
kammer 25
intr@@ 25
offer 25
hirn@@ 25
Analphab@@ 25
esst 25
merkwürdige 25
Porno@@ 25
AT@@ 25
af 25
Spielzeug@@ 25
Lös@@ 25
formte 25
Angst@@ 25
fähigkeiten 25
Anzeigen 25
SA-@@ 25
Elite 25
Nic@@ 25
Versicherung 25
gelei@@ 25
beschäf@@ 25
uf 25
grenzen@@ 25
Lou@@ 25
Hoffnungs@@ 25
Insel@@ 25
Schlamm 25
zusätz@@ 25
Meditation 25
Japaner 25
angehalten 25
ata 25
kehr 25
höchst@@ 25
fut@@ 25
arische 25
Theore@@ 25
gedäch@@ 25
Koli@@ 25
Bewusstseins@@ 25
Grammatik 25
Pur@@ 25
gesundhei@@ 25
verschickt 24
diejenige 24
Zut@@ 24
Klebeband 24
Glaubens 24
verleiht 24
Eigentü@@ 24
erikas 24
lings 24
belebt 24
jährliche 24
zerr@@ 24
è@@ 24
erklärten 24
sames 24
ächter 24
nackt 24
Molekü@@ 24
tw@@ 24
Speicher@@ 24
insel 24
schlech@@ 24
Lit@@ 24
spannende 24
zuverläs@@ 24
vollkommen@@ 24
verändernde 24
logische 24
digitales 24
Sportler 24
PA 24
Rote 24
LKWs 24
PS 24
Besessenheit 24
biologen 24
gelö@@ 24
dete@@ 24
Konto 24
pflegt 24
Auftreten 24
dierten 24
umente 24
Tonne 24
gestört 24
1973 24
gebenheiten 24
grau 24
Dampf@@ 24
durchdringen 24
derzeitige 24
Umweltschutz 24
wirtschaftliches 24
Bauchspeicheldrüsen@@ 24
sproblem 24
Einsen 24
Selbstwert@@ 24
wundern 24
SJ 24
Clu@@ 24
bezirk 24
wärts 24
Jet@@ 24
erfordern 24
schrau@@ 24
Chemie@@ 24
neigt 24
Vermutung 24
Briga@@ 24
innovativen 24
gesundheit 24
Wom@@ 24
Juwel@@ 24
müsse 24
interaktiv 24
stamm 24
Hippocampus 24
Aufgaben@@ 24
0.@@ 24
Handzeichen 24
loszuwerden 24
bers 24
zusammengearbeitet 24
Nano@@ 24
Bürok@@ 24
Mangel@@ 24
zweit@@ 24
Großbritanni@@ 24
Kell@@ 24
einzustellen 24
explos@@ 24
wäsche 24
Stab 24
ränk@@ 24
abgenommen 24
eintausend 24
DV@@ 24
Neu-@@ 24
betritt 24
nehmt 24
Nepal 24
hor@@ 24
Insulin@@ 24
fundamental 24
Nam@@ 24
profit@@ 24
Margaret 24
schied 24
Zeugen 24
Zensur 24
buchst@@ 24
Erfolgsgeschichte 24
imitiert 24
längste 24
nack@@ 24
12-@@ 24
ahme 24
gerte 24
kapaz@@ 24
Insek@@ 24
ario 24
dünnen 24
RO@@ 24
vest@@ 24
beeinträchtigt 24
Kisten 24
ttes 24
verfügbare 24
sätz@@ 24
Diplom@@ 24
gewähren 24
geräu@@ 24
Strecken 24
windet 24
82 24
Gebete 24
einzeln 24
Leidenschaften 24
Erleichterung 24
Zeigen 24
Verschie@@ 24
Anthropologen 24
doppelte 24
Fürsorge 24
then@@ 24
führend 24
Freiheiten 24
verletzlich 24
meisters 24
nerv@@ 24
Opfern 24
sensch@@ 24
misten 24
verzö@@ 24
Rabbi 24
Weiß@@ 24
Tibet 24
füllte 24
vorge@@ 24
Kapazitäten 24
1968 24
kennenlernen 24
66 24
rezep@@ 24
Prozessen 24
entsprach 24
abgestimmt 24
Satellit 24
Assozi@@ 24
Proble@@ 24
enskraft 24
Verfügbarkeit 24
Spenden@@ 24
Computerprogramm 24
mehrmals 24
ris 24
Pool 24
Heben 24
dämp@@ 24
Kari@@ 24
ber-@@ 24
Moschee 24
verschreiben 24
ergänzen 24
Skype 24
ath 24
Ima@@ 24
Bush@@ 24
Insgesamt 24
Einkommens 24
Aminos@@ 24
empfand 24
meister@@ 24
materiellen 24
licke 24
auszuführen 24
MoMA 24
enschutz@@ 24
vo 24
Stru@@ 24
progra@@ 24
Brüdern 24
ischste 24
ellosen 24
gebuch 24
schädlich 24
Honigbienen 24
Sowohl 24
nat@@ 24
E-Ma@@ 24
Titelseite 24
entierung 24
farben@@ 24
qui@@ 24
Räu@@ 24
soeben 24
Nutzern 24
zierung 24
Öffnung 24
ausgelegt 24
J 24
erschreckend 24
Präzision 24
Daumen@@ 24
Katastrophen@@ 24
erschossen 24
bohrt 24
gefährdete 24
kampagne 24
technologischer 24
Dom@@ 24
druckte 24
kompliziertes 24
ancen 24
Resonanz 24
Cyber-@@ 24
Herzleiden 24
mn@@ 24
Great 24
sein@@ 24
Mathe@@ 24
Superhel@@ 24
Süßigkeiten 24
gegensei@@ 24
Museums 24
tzent@@ 24
einflöß@@ 24
Ingenieurs@@ 24
benö@@ 24
ines 24
Feldern 24
geehrt 24
fernen 24
Taste 24
Que@@ 24
alber@@ 24
level 24
Busch 24
kas 24
Dokumentar@@ 24
Herzschlag 24
Fels 24
übersch@@ 24
Eingriffe 24
Öffent@@ 24
Protot@@ 24
Jeopardy 24
Kuns@@ 24
gängen 24
flaschen 24
quis@@ 24
Aspek@@ 24
dentum 24
zuzugeben 24
Dicht@@ 24
manns 24
ills 24
Verschiebung 24
Zwangs@@ 24
Unternehmern 24
Intervention 24
werkzeuge 24
Anschluss 24
Kenntnisse 24
werkzeug 24
blätter 24
SB 24
Nummern 24
zitiere 24
bekanntes 24
Selbsth@@ 24
Law 24
sons 24
jon@@ 24
absoluter 24
äubt 24
durchbrechen 24
Schnei@@ 24
umfassen 24
stil 24
Wäsche 24
nieder 24
getr@@ 24
Relativitäts@@ 24
beunruhigend 24
iPh@@ 24
überschritten 24
Verleger 24
eckte 24
Verschlüssel@@ 24
schri@@ 24
Prognose 24
Miniatur@@ 24
Todesstrafe 24
You@@ 24
Erzieh@@ 24
dom@@ 24
Guatemala 24
Risikokap@@ 24
sign@@ 24
empfeh@@ 24
förmigen 24
Samuel 24
familie 24
stiger 24
Hühner@@ 24
wet@@ 24
ini 24
stritten 24
behandel@@ 24
mien 24
Grundsätze 24
Infrarot@@ 24
sauberer 24
trop@@ 24
anklicken 24
Endlich 24
ament 24
ethisch 24
Ed 24
asiatischen 24
hren@@ 24
bestellen 24
ruhig@@ 24
Keram@@ 24
speisen 24
technolog@@ 24
verschwendung 24
Apothe@@ 24
Pfeil 24
Anordnung 24
hälter 24
kreis@@ 24
emotionales 24
Websites 24
Aufzug 24
Company 24
kodieren 24
Gross@@ 24
beit 24
mens 24
shor@@ 24
untersuche 24
Jog@@ 24
anger 24
Managem@@ 24
Gesam@@ 24
Nachforschungen 24
kippen 24
Klar@@ 24
ungeheure 24
Französisch 24
pathie 24
Letztlich 24
ecker 24
klugen 24
Ari@@ 24
Niederlanden 24
Tep@@ 24
nahe@@ 24
verbundene 24
zene 24
Feuchtigkeit 24
Gele@@ 24
Flügel@@ 24
emin@@ 24
Exp@@ 24
Weltan@@ 24
Proteinen 24
operiert 24
zuversichtlich 24
bittet 24
militärischen 24
zusuchen 24
expor@@ 24
statisch 24
stischer 24
gänger@@ 24
Kids 24
ettel 24
artigkeit 24
untergraben 24
ends 24
College-@@ 24
Schiffs@@ 24
1989 24
rationalen 24
Führungskraft 24
folgender 24
ag 24
fügten 24
lierten 24
thro@@ 24
Elektri@@ 24
erlaubten 24
Zuversicht 24
Fak@@ 24
Transplan@@ 24
too 24
Truppe 24
Manifest@@ 24
problematisch 24
Hürden 24
biologisches 24
entscheidungen 24
Sequenzierung 24
digitaler 24
Südas@@ 24
Lampen 24
Cluster 24
Hör 24
vorüber@@ 24
Spaziergang 24
wachsen@@ 24
ammer 24
rem 24
Higgs-Bos@@ 24
erstreckt 24
unster@@ 24
erlangt 24
HG 24
lens 24
Operations@@ 24
wähle 24
Sterblichkeitsrate 24
beinhal@@ 24
Wandertau@@ 24
Soweit 24
Menschenverstand 24
steins 24
Graph 24
übertragung 24
pfeiler 24
erklär@@ 24
sport 24
anzusprechen 24
unvermeidbar 24
Num@@ 24
aneinander 24
aussagen 24
Intimität 24
Meg@@ 24
Barack 24
Sty@@ 24
erfolgreichsten 24
handlungen 24
sofor@@ 24
vention@@ 24
Grau@@ 24
gespürt 24
Annäher@@ 24
auslö@@ 24
kanten 24
erobern 24
Kriminelle 24
bö@@ 24
männlich 24
Nobelpreisträger 24
Modus 24
Knöpfe 24
ohlen 24
Darwins 24
Europäische 24
militär@@ 24
Detek@@ 24
Live 24
äumt 24
faden 24
Lebensstandard 24
kolonie 24
Won@@ 24
bün@@ 24
Unmengen 24
Millionen-@@ 24
Atheisten 24
schmu@@ 24
basteln 24
cor@@ 24
wart 24
unfair 24
schirm 24
passende 24
freundlicher 24
Reputation 24
liessen 24
Hamburger 24
Natasha 24
bewusst@@ 24
Einf@@ 24
Fair@@ 24
flachen 24
ooh 24
Sammeln 24
Bilanz 24
entschul@@ 24
Bundesstaaten 24
festzuhalten 24
Edi@@ 24
Technologie@@ 24
Angesichts 24
wertschätzen 24
zerti@@ 24
83 24
befördert 24
gheit 24
führern 24
ktierte 24
repar@@ 24
stärkere 24
maß 24
Archä@@ 24
überstehen 24
einhundert 24
übertrieben 24
vorgehen 24
präz@@ 24
Linksh@@ 24
Fing@@ 24
Alber@@ 24
Himalaya 24
allerlei 24
sko@@ 24
Seiten@@ 24
musikalis@@ 24
125 24
8.@@ 24
Akust@@ 24
ästhe@@ 24
ansehe 24
Digital@@ 24
Tech@@ 24
geord@@ 24
lustige 24
wiederver@@ 24
Europäer 24
studio 24
eingebracht 24
größerer 24
Lady 24
Häuser@@ 24
verschl@@ 24
rott 24
ünden 24
gleichheit 24
Jack@@ 24
Infra@@ 24
Leitung 24
RI@@ 24
Rollen@@ 24
BMW 24
entwirft 24
Haush@@ 24
gratis 24
Koch 24
Susan 24
teilchen 24
forderten 23
gmente 23
benutz@@ 23
1985 23
klarer 23
mobilisieren 23
durchläs@@ 23
gner 23
sofern 23
hyper@@ 23
Phänom@@ 23
stäben 23
hinterlässt 23
mas 23
geschei@@ 23
jeglicher 23
scheiden 23
wood 23
vollsten 23
Beweg@@ 23
CE@@ 23
fremd 23
zerbrechlich 23
zurückblicken 23
Vereinig@@ 23
fühls@@ 23
offizielle 23
verflo@@ 23
bler 23
hydro@@ 23
ermitteln 23
Wag@@ 23
Ig@@ 23
splan@@ 23
verband 23
Schlagzei@@ 23
schwul 23
osion 23
weißer 23
Legi@@ 23
Sit@@ 23
knoten 23
oplan@@ 23
pfl@@ 23
1986 23
8-@@ 23
Day 23
ßchen 23
gg@@ 23
winziges 23
autom@@ 23
vater 23
wechs@@ 23
chni@@ 23
iche 23
abor@@ 23
blem 23
hältst 23
fair@@ 23
kalte 23
feier 23
errei@@ 23
ool 23
ona 23
damerikan@@ 23
willinge 23
ktiv@@ 23
sand 23
lob@@ 23
neusten 23
sperren 23
stürzt 23
grab@@ 23
musikalischen 23
Tamiflu 23
ulu 23
jetzigen 23
eingeben 23
ternde 23
Komment@@ 23
fliegende 23
eh 23
gründet 23
vent 23
chsten 23
geseh@@ 23
Blogger 23
ndes 23
dener 23
schlechtesten 23
TS 23
Bast@@ 23
Schin@@ 23
linear 23
schlie@@ 23
kab@@ 23
tanzten 23
getar@@ 23
sequenzieren 23
Trick@@ 23
Ruh@@ 23
unbequ@@ 23
itor 23
Master@@ 23
Ga@@ 23
herrschaft 23
einsetzt 23
7-@@ 23
ell-@@ 23
Zul@@ 23
mädchen 23
rebel@@ 23
jährlichen 23
ix@@ 23
strategische 23
Kelly 23
seitig 23
Migration 23
geboten 23
markt@@ 23
korrup@@ 23
ässig 23
entscheiden@@ 23
kratzen 23
aust 23
einfangen 23
fabel@@ 23
transform@@ 23
lig@@ 23
Komplex@@ 23
uralte 23
keineswegs 23
Medical 23
elang 23
Giussani 23
ektar 23
zweitgrößte 23
prof@@ 23
Londoner 23
gespart 23
langle@@ 23
24-@@ 23
quote 23
verblüfft 23
post 23
inne@@ 23
verursachten 23
Protest 23
Michelangelo 23
strau@@ 23
reagierte 23
ungsa@@ 23
kranke 23
mechanismen 23
fortsetzen 23
Ind@@ 23
Protokoll 23
Yo@@ 23
höheres 23
ror@@ 23
soviele 23
schlü@@ 23
Budd@@ 23
unts 23
200@@ 23
repräsenti@@ 23
Vers@@ 23
anfall 23
sinnig 23
halbiert 23
drei- 23
Europ@@ 23
zwang 23
aa@@ 23
verbor@@ 23
zess@@ 23
tropischen 23
Abwei@@ 23
Fort 23
tun@@ 23
Transplantation 23
genial 23
Insulin 23
wimm@@ 23
ox@@ 23
daraufhin 23
weiterentwickeln 23
improvisieren 23
Master 23
zügen 23
verdanken 23
ometer 23
geraden 23
liebenen 23
Mitt@@ 23
isolieren 23
gnis@@ 23
Lam@@ 23
Bits 23
dimensionale 23
Utop@@ 23
K-@@ 23
Terrain 23
eingreifen 23
technologi@@ 23
primitive 23
einzul@@ 23
Avenue 23
wirtschaften 23
getation 23
mond 23
hervorgebracht 23
zehnmal 23
siven 23
widersprüch@@ 23
erstaunlicher 23
verhäl@@ 23
virale 23
poly@@ 23
erwähne 23
Nen@@ 23
regener@@ 23
Ot@@ 23
ekse 23
ory 23
nützliche 23
äuse 23
gewach@@ 23
Agnes 23
Brie@@ 23
Venezuela 23
Intelli@@ 23
sene 23
erkenne 23
ein- 23
prozentige 23
steig 23
cre@@ 23
weitem 23
Überprü@@ 23
fertiggestellt 23
enkel 23
Bere@@ 23
etablieren 23
nonverb@@ 23
wünscht 23
entsprechenden 23
emissionen 23
Anweis@@ 23
uralten 23
gehörten 23
mpfe 23
informierte 23
ängstigt 23
muslim@@ 23
lake 23
hiert 23
startet 23
zuviel 23
Supercomputer 23
Hell@@ 23
cksack 23
ideale 23
unzurei@@ 23
stritt@@ 23
Tut@@ 23
imstande 23
Bem@@ 23
jemandes 23
dros@@ 23
Planet@@ 23
flora 23
Jerry 23
produzierte 23
verskl@@ 23
Alphab@@ 23
erläutern 23
che@@ 23
Vie@@ 23
locke 23
projekte 23
derungen 23
70@@ 23
nee@@ 23
garantieren 23
Veronica 23
endung 23
gewalt 23
dox 23
tain@@ 23
garten 23
steh 23
krankungen 23
unab@@ 23
Doug 23
Cu@@ 23
ruiniert 23
objektive 23
zurückgelassen 23
ftet 23
vergewal@@ 23
fett 23
yrinth 23
stören 23
Beschäf@@ 23
öhn@@ 23
verknü@@ 23
intervie@@ 23
inen@@ 23
Vergewal@@ 23
wirtschafts@@ 23
ordnete 23
winkel 23
profitiert 23
Verpflich@@ 23
Idiot 23
rechner 23
Schokol@@ 23
Rehabilitation 23
giges 23
Intelligen@@ 23
reagi@@ 23
zerbrech@@ 23
ondere 23
Mexico 23
play 23
fik 23
tschaften 23
sähen 23
mittelt 23
Society 23
gewählte 23
fliege 23
viermal 23
itze 23
manifest@@ 23
wälder 23
cooler 23
sichtig 23
standardis@@ 23
kton@@ 23
internen 23
kast@@ 23
heißer 23
schlief 23
bestä@@ 23
Main@@ 23
genutz@@ 23
Inten@@ 23
Babbage 23
Termin@@ 23
größter 23
Östro@@ 23
sexper@@ 23
Ram@@ 23
verschlei@@ 23
trägen 23
spersonen 23
stapeln 23
unmittelbare 23
traumati@@ 23
loslassen 23
mah@@ 23
Schlüs@@ 23
hochauf@@ 23
signifikant 23
Hen@@ 23
verdeutlicht 23
Flüs@@ 23
wendig 23
hinterließ 23
Ant@@ 23
schwieriges 23
verwirr@@ 23
ässt 23
schic@@ 23
oran@@ 23
zeit-@@ 23
grünes 23
extrem@@ 23
plant 23
TV-@@ 23
iens 23
Banjo 23
Sou@@ 23
verwund@@ 23
zug@@ 23
dok@@ 23
kennenzulernen 23
wich 23
pps 23
dezentr@@ 23
überraschende 23
risiko 23
servieren 23
druckt 23
langsamen 23
ehem@@ 23
osis 23
spirituelle 23
‚ 23
Van@@ 23
wiederholte 23
weib@@ 23
pro-@@ 22
NR@@ 22
ald 22
A. 22
agent@@ 22
Talks 22
älle 22
BL 22
line@@ 22
Gewin@@ 22
äuser 22
Bhutan 22
Portland 22
Hudson 22
tests 22
ort@@ 22
drate 22
Vortra@@ 22
back@@ 22
ail@@ 22
Mob@@ 22
LA 22
gends 22
We 22
omet@@ 22
gemis@@ 22
Fried@@ 22
riet 22
gewand@@ 22
begr@@ 22
Khan 22
va@@ 22
denz 22
Fischer@@ 22
‒ 22
unehmen 22
than 22
Food 22
Gär@@ 22
LED 22
tans 22
White 22
sweise 22
Eben@@ 22
sun@@ 22
Inte@@ 22
sive 22
strategi@@ 22
ermög@@ 22
einzigarti@@ 22
Whi@@ 22
computer 22
angst 22
Ble@@ 22
dimension@@ 22
Vinci 22
Everglades 22
ft-@@ 22
getro@@ 22
nation@@ 22
iPad 22
Morgen@@ 22
Maga@@ 22
bry@@ 22
wahn@@ 22
Murray 22
tat@@ 22
Ther@@ 22
terror@@ 22
Ökon@@ 22
RNA 22
Norman 22
Kämp@@ 22
expan@@ 22
IM 22
Imperi@@ 22
wid@@ 22
not@@ 22
ister 22
ph 22
Pentagon 22
Gravit@@ 22
Yog@@ 22
pot 22
WHO 22
ump 22
ortex 22
vorstellbar 22
Robo@@ 22
Weltrau@@ 22
Taiwan 22
anten@@ 22
Rob 22
Ground 22
architekton@@ 22
atischen 22
49 22
provo@@ 22
Beteili@@ 22
Biop@@ 22
Nie@@ 22
mer-@@ 22
Med@@ 22
Contain@@ 22
Jersey 22
hige 22
okus@@ 22
Sw@@ 22
lep@@ 22
Feh@@ 22
absolutes 22
Leg@@ 22
ocortex 22
1976 22
traits 22
Sebastian 22
XL 22
aj@@ 22
Liz@@ 22
Hill 22
Bevölk@@ 22
Titanic 22
ires 22
fac@@ 22
Gü@@ 22
beantwor@@ 22
video 22
bereitung 22
time 22
Link@@ 22
PE@@ 22
Überwach@@ 22
iles 22
männ@@ 22
chtest 22
Häl@@ 22
rhyth@@ 22
sonen 22
moment@@ 22
transpar@@ 22
ilfe 22
Kühl@@ 22
twit@@ 22
mente 22
Cro@@ 22
Moses 22
LEDs 22
Voraus@@ 22
femin@@ 22
glamour@@ 22
Has@@ 22
privi@@ 22
rationale 22
Camp 22
schlimm@@ 22
deprim@@ 22
geregt 22
bik 22
diver@@ 22
Sydney 22
Tam@@ 22
genes 22
spruch 22
matisch 22
ati 22
Experiments 22
lock@@ 22
ring 22
Ivan 22
hänge 22
gesto@@ 22
Versicher@@ 22
Behör@@ 22
Gedi@@ 22
She@@ 22
Yale 22
relative 22
tigkeits@@ 22
Holl@@ 22
utt 22
sorgfäl@@ 22
topus 22
themati@@ 22
Lord 22
zuneh@@ 22
CP 22
Bou@@ 22
well@@ 22
Gehir@@ 22
Million@@ 22
DJ 22
aster 22
lik@@ 22
18-@@ 22
CNN 22
utes 22
ti 22
Web-@@ 21
träch@@ 21
velas 21
Yves 21
Os 21
Abu 21
blau@@ 21
TR 21
Rex 21
Metho@@ 21
urteilen 21
regu@@ 21
unsch 21
Guardian 21
biolumin@@ 21
off 21
zhei@@ 21
Ric@@ 21
Paras@@ 21
seg@@ 21
block@@ 21
hoh@@ 21
gegenwär@@ 21
73 21
forder@@ 21
llig 21
Dylan 21
Sony 21
Telesk@@ 21
JL 21
you 21
umin@@ 21
iko 21
pei@@ 21
robust 21
TEDster 21
beängsti@@ 21
yeah 21
CDs 21
cr@@ 21
Sich@@ 21
Zuhör@@ 21
mär@@ 21
ines@@ 21
lock 21
ae 21
Hunger@@ 21
Unterdrück@@ 21
Hi@@ 21
Ses@@ 21
Kyoto 21
ession 21
41 21
verkör@@ 21
änger 21
Wilson 21
Nevada 21
Publik@@ 21
ADH@@ 21
Visu@@ 21
rung 21
Minder@@ 21
Origin@@ 21
tum@@ 21
4.@@ 21
hes 21
Gil@@ 21
Forum 21
zweifel@@ 21
60-@@ 21
nä@@ 21
arin 21
Bali 21
atter 21
ury 21
Schön@@ 21
sober@@ 21
RISD 21
zentri@@ 21
Teszler 21
Zur@@ 21
etzten 21
Fili@@ 21
Glüh@@ 21
Ik@@ 21
path@@ 21
mark 21
Emer@@ 21
Inse@@ 21
system@@ 21
Nullsummen@@ 21
Pav@@ 21
ush@@ 21
Belie@@ 21
moment 21
Williams 21
äle 21
verbran@@ 21
enzt 21
Lakota 21
horn 21
77 21
verwir@@ 21
giene 21
etab@@ 21
fä@@ 21
ling@@ 21
67 21
Hipp@@ 21
note 21
Vene@@ 21
boo@@ 21
Arduino 21
Schlau@@ 21
Getrei@@ 21
Fire@@ 21
Anhän@@ 21
1982 21
sa 21
Pepsi 21
Dave 21
Abhän@@ 21
Versa@@ 21
1500 21
Moment@@ 21
cal 21
aven 21
Trade 21
over 21
Gere@@ 21
chnologie 21
poe@@ 21
91 21
ita 21
obs 21
Simul@@ 21
Pflan@@ 21
Isl@@ 21
ni 21
gik 21
-2 21
or-@@ 21
Thun@@ 21
gefol@@ 21
utter 21
hun@@ 21
beeinträch@@ 21
Knö@@ 21
videos 21
Ungleich@@ 21
Super-@@ 21
16-@@ 21
quer@@ 21
Dou@@ 21
dafrika 21
Unabhän@@ 21
wiegend 21
flation 21
transpor@@ 21
Epis@@ 21
Null@@ 21
wirtschaf@@ 21
Love 21
Bertie 21
G. 21
posit@@ 21
Provin@@ 21
Isaac 21
presse 21
House 21
92 21
oms 21
sky 21
berich@@ 21
Beam@@ 21
gefertigt 21
Fle@@ 21
genom@@ 21
job 21
versu@@ 21
Toyota 21
empor@@ 21
eks 21
port@@ 21
sheit 21
erseits 21
Log@@ 21
Red 21
internation@@ 21
Joel 21
Rät@@ 21
manu@@ 21
sequen@@ 21
respon@@ 21
Oscar 21
Noti@@ 21
Tig@@ 21
DG 21
ity 21
Lup@@ 21
EC@@ 21
prägt 21
5,@@ 21
con@@ 21
Tweets 21
Ep@@ 21
part@@ 21
ück 21
Lawrence 21
Ganz@@ 21
rob@@ 21
analysi@@ 21
ones 21
bchen 20
Zeh@@ 20
erschwing@@ 20
MO 20
sensor 20
run@@ 20
ätten 20
hierarch@@ 20
mms 20
Wet@@ 20
Serge@@ 20
m. 20
Happy 20
Völk@@ 20
natür@@ 20
Schlimm@@ 20
om-@@ 20
CH@@ 20
Euro@@ 20
Dubai 20
Klin@@ 20
würfe 20
instin@@ 20
sichten 20
Andy 20
extre@@ 20
esp@@ 20
Nep@@ 20
Passwör@@ 20
genü@@ 20
Entscheid@@ 20
90@@ 20
Phil@@ 20
RNG 20
Darfur 20
bo-@@ 20
forman@@ 20
Ha 20
trieben 20
alog 20
Moun@@ 20
PowerPoint 20
p-@@ 20
AIMS 20
ota 20
Mah@@ 20
Noah 20
stir@@ 20
field 20
illeg@@ 20
Path@@ 20
halts@@ 20
einges@@ 20
Pom@@ 20
Schlie@@ 20
Smo@@ 20
res 20
leger 20
Trink@@ 20
oxid 20
öffent@@ 20
eme 20
sort 20
Gebur@@ 20
ology 20
ährungs@@ 20
anal@@ 20
suspen@@ 20
Georgia 20
Diag@@ 20
Sc@@ 20
mph@@ 20
rüstung 20
wn@@ 20
Nathan 20
YouTu@@ 20
pupp@@ 20
ppm 20
names 20
Irr@@ 20
Julian 20
Sun 20
eti@@ 20
Führungsper@@ 20
Titus 20
Audio 20
pure 20
via 20
Yu@@ 20
sor 20
Din@@ 20
Neil 20
pren@@ 20
SR 20
stitution 20
rap@@ 20
Evan 20
Nancy 20
Meth@@ 20
as-@@ 20
wind@@ 20
stums 20
Mani@@ 20
mental 20
dad 20
RN@@ 20
.com. 20
Orange 20
RG 20
Bec@@ 20
Hospital 20
ug 20
Resist@@ 20
gun@@ 20
stem 20
arran@@ 20
perman@@ 20
) 20
5.@@ 20
Bono 20
stat@@ 20
heterosexu@@ 20
But@@ 20
Ven@@ 20
Israel@@ 20
Antibio@@ 20
Tennessee 20
häl@@ 20
versen 20
53 20
Joy@@ 20
Wün@@ 20
Ple@@ 20
Paulo 20
Fox 20
Untersu@@ 20
energi@@ 20
Phoeni@@ 20
rug 20
insp@@ 20
Verwal@@ 20
enab@@ 20
nel@@ 20
vorherseh@@ 20
Schwier@@ 20
rieben 20
undenen 20
shi@@ 20
Cooper 20
leblo@@ 20
Emma 20
Tap@@ 20
ernen 20
zep@@ 20
betro@@ 20
ali 20
Colorado 20
Einkaufs@@ 20
sog@@ 20
iden 20
Sri 20
Sir@@ 20
inter 20
Colle@@ 20
rank@@ 20
Lor@@ 20
gment 20
metaphor@@ 20
Agen@@ 20
nommen 20
dramati@@ 20
anstec@@ 20
Est@@ 20
Cla@@ 20
Orchest@@ 20
windig@@ 20
Flickr 20
bos@@ 20
ätzt 20
chester 20
bit 20
Laur@@ 20
94 20
Sen 20
cam 20
orange 20
interagi@@ 20
befest@@ 20
Oxy@@ 20
ish@@ 20
brem@@ 20
erectus 20
Aufmerk@@ 20
hörigkeit 20
CAPTCHA 20
Fast@@ 20
marks 20
urt 20
esti@@ 20
Gau@@ 20
siv@@ 20
übri@@ 20
Armstrong 20
Queen 20
Konfer@@ 20
Windows 20
Journ@@ 20
sert 20
quanti@@ 20
Entwicklung@@ 19
erstoff@@ 19
SARS 19
Einkommen@@ 19
brill@@ 19
Gordon 19
ial 19
Chin@@ 19
Betre@@ 19
Pho@@ 19
aggres@@ 19
ki 19
89 19
geheim@@ 19
Reagan 19
AV 19
ola 19
alin 19
Erfahr@@ 19
get 19
Cohen 19
2.0 19
ella 19
Tragö@@ 19
Busin@@ 19
alifor@@ 19
ader 19
ild 19
tap@@ 19
Ale@@ 19
CC 19
mmer@@ 19
Play@@ 19
rip@@ 19
68 19
Tox@@ 19
Brand 19
Direc@@ 19
Inner@@ 19
steam 19
Ök@@ 19
Zap@@ 19
Recy@@ 19
ways 19
locker 19
standards 19
aliforni@@ 19
name 19
heirat@@ 19
eicht 19
invol@@ 19
Hub@@ 19
spra@@ 19
[...]
