, 248784
. 205576
the 161205
to 101168
of 94288
a 86110
and 85852
that 72851
I 67053
in 60798
is 52613
you 52058
it 48966
&apos;s 46474
we 44320
And 36137
this 33865
&quot; 28414
was 24538
for 23015
are 22773
have 22227
they 21458
on 21433
-- 20660
with 19847
can 18910
? 18383
So 18125
&apos;t 18083
what 17831
about 17264
be 16452
as 15397
at 15275
all 14657
not 14654
do 14347
there 13868
&apos;re 13868
It 13314
one 13053
people 12935
like 12918
my 12843
from 12448
so 12330
an 12178
but 11388
or 11235
: 11164
just 10867
our 10734
We 10537
But 10260
very 10200
these 10178
The 10177
if 10113
out 9994
me 9861
them 9460
know 9460
going 9425
by 9415
up 9314
when 8825
because 8796
more 8694
had 8562
think 8393
he 8382
see 8276
which 8214
were 8038
who 8031
your 8001
their 7967
really 7934
would 7830
how 7791
get 7736
&apos;ve 7635
us 7419
You 7185
here 7136
&apos;m 7117
time 7084
This 7013
then 6900
world 6783
has 6772
way 6586
into 6584
some 6560
actually 6477
don 6430
things 6197
years 6167
will 6138
now 6023
where 5998
Now 5949
go 5882
other 5879
want 5852
They 5727
could 5687
been 5590
make 5503
said 5255
something 5047
than 4828
much 4815
right 4790
those 4740
no 4677
two 4648
first 4631
thing 4598
little 4586
also 4550
got 4533
That 4413
look 4401
back 4389
say 4357
over 4197
work 4139
only 4134
What 4020
most 3987
life 3987
need 3962
his 3951
♫ 3927
In 3902
kind 3857
take 3814
lot 3808
she 3802
even 3795
many 3768
There 3651
did 3618
around 3609
new 3553
good 3541
different 3530
&apos;ll 3497
down 3451
through 3297
use 3275
; 3231
same 3218
Well 3215
every 3158
her 3149
come 3120
doing 3067
If 3056
being 3048
He 3039
put 2969
able 2961
day 2899
called 2777
percent 2750
any 2743
&apos;d 2736
three 2709
made 2706
well 2593
find 2542
tell 2539
why 2535
year 2500
fact 2492
human 2488
its 2457
change 2419
today 2399
didn 2389
talk 2376
idea 2376
great 2368
own 2344
started 2321
let 2314
after 2257
last 2246
should 2243
went 2236
course 2231
thought 2224
important 2213
before 2204
give 2188
big 2184
off 2178
might 2177
better 2176
another 2158
Thank 2142
ed 2124
never 2103
problem 2099
re@@ 2086
part 2060
still 2055
ago 2042
story 2036
start 2021
system 2013
bit 2010
brain 2006
together 1998
show 1995
him 1993
next 1983
place 1981
came 1976
water 1965
does 1964
ing 1962
used 1955
few 1933
again 1931
un@@ 1885
A 1874
between 1869
each 1866
When 1862
mean 1860
technology 1859
end 1840
looking 1831
es 1825
&apos; 1809
in@@ 1779
too 1778
example 1772
found 1772
Because 1770
point 1767
done 1764
question 1755
long 1755
doesn 1721
love 1721
women 1720
data 1712
sort 1692
-@@ 1683
wanted 1683
How 1675
understand 1667
live 1627
whole 1627
away 1621
call 1620
ever 1619
trying 1616
working 1603
real 1603
try 1587
million 1584
always 1578
children 1566
person 1565
believe 1560
school 1557
less 1550
four 1539
may 1531
man 1521
using 1520
feel 1519
10 1519
! 1504
help 1492
s 1486
country 1479
thinking 1450
means 1446
create 1443
old 1438
power 1435
took 1434
kids 1432
information 1418
maybe 1415
space 1401
everything 1399
design 1394
number 1391
money 1390
become 1385
One 1381
am 1364
five 1361
light 1360
getting 1355
enough 1347
comes 1346
y 1341
small 1341
quite 1340
These 1323
making 1322
sense 1320
second 1313
My 1308
probably 1296
home 1296
best 1295
times 1288
building 1287
energy 1287
happened 1286
food 1283
left 1282
future 1276
Here 1273
interesting 1266
body 1261
talking 1257
social 1255
play 1240
coming 1229
stuff 1228
told 1226
ask 1220
c@@ 1213
without 1211
side 1210
Let 1209
She 1205
pretty 1201
countries 1194
dollars 1191
lives 1188
anything 1182
men 1180
such 1177
ways 1171
room 1167
hard 1164
moment 1164
ated 1163
Why 1162
ate 1160
across 1155
happen 1150
No 1148
says 1140
S@@ 1140
Africa 1137
saw 1128
living 1126
build 1125
else 1116
seen 1116
makes 1114
goes 1114
science 1113
asked 1108
experience 1100
simple 1097
o 1097
later 1092
For 1088
happens 1087
bad 1086
city 1084
having 1084
20 1082
move 1074
half 1074
set 1073
care 1071
days 1067
case 1065
ation 1063
al 1058
reason 1056
picture 1055
dis@@ 1049
family 1048
age 1047
s@@ 1044
problems 1044
computer 1035
high 1034
learn 1034
As 1030
car 1025
hand 1023
book 1023
process 1020
All 1019
health 1012
C@@ 1010
basically 1006
business 999
inside 998
almost 996
possible 996
saying 992
far 990
single 986
yet 986
while 985
guy 982
planet 981
ers 980
ating 979
once 978
p@@ 978
whether 976
top 969
looked 967
young 967
d@@ 964
already 963
both 957
project 956
nothing 955
ideas 954
someone 950
Earth 947
within 946
cells 943
answer 943
New 942
mind 941
history 938
looks 937
heard 933
wrong 933
hope 930
matter 930
myself 928
billion 927
keep 926
line 926
community 924
sure 924
true 923
often 920
public 920
global 919
&#93; 918
&#91; 918
form 916
six 914
bring 913
con@@ 913
remember 909
words 908
built 907
child 903
imagine 901
di@@ 894
open 894
y@@ 890
’ 890
United 887
face 885
months 880
read 878
order 877
couple 877
piece 874
beautiful 873
works 870
places 869
music 866
control 864
amazing 863
en@@ 861
language 857
cancer 855
turn 855
er 850
i 850
species 848
government 846
group 845
b@@ 844
under 842
ted 840
word 838
isn 837
until 835
per 835
OK 835
ting 834
everybody 834
job 833
e@@ 832
wasn 831
friends 830
Internet 823
video 823
taking 823
de@@ 822
level 822
completely 820
decided 819
education 819
universe 814
run 814
nature 807
t 806
study 806
gets 805
A@@ 803
stories 803
States 802
exactly 802
t@@ 802
became 800
model 800
though 799
30 796
happening 793
students 792
research 792
animals 792
kinds 786
woman 786
knew 786
itself 785
stop 785
... 784
India 783
ts 780
somebody 779
heart 779
night 778
learned 778
ch@@ 777
must 777
ones 776
ourselves 775
head 774
ability 773
since 773
hear 773
50 771
large 771
name 770
society 770
minutes 766
America 764
company 763
share 760
questions 760
100 760
hours 758
o@@ 757
themselves 756
P@@ 754
created 753
God 753
turns 752
huge 751
state 751
against 751
a@@ 748
rather 747
worked 744
environment 742
Then 741
game 740
front 740
Okay 739
ic 738
war 738
won 730
ly 729
couldn 729
guys 726
least 725
art 722
B@@ 721
sometimes 719
figure 717
particular 717
Oh 717
ous 716
along 714
co@@ 713
China 713
American 712
early 711
others 711
h@@ 711
thousands 709
based 708
happy 707
i@@ 707
gave 706
house 703
past 703
disease 701
lots 699
sound 696
systems 695
land 695
mother 695
ri@@ 695
natural 694
instead 693
everyone 693
red 692
changed 685
taken 685
news 684
difference 678
entire 678
ti@@ 677
outside 675
g@@ 671
century 668
M@@ 668
learning 667
cell 666
machine 665
TED 664
moving 664
air 660
fish 660
close 659
area 655
free 652
cities 651
♪ 650
third 650
Or 648
ro@@ 648
market 647
oil 646
yourself 646
H@@ 644
ar@@ 644
easy 643
given 643
view 642
perhaps 640
turned 636
leave 636
culture 635
li@@ 634
f@@ 632
u@@ 630
population 630
takes 628
terms 628
parts 627
e 626
eyes 626
difficult 624
ant 624
R@@ 624
needs 623
seven 622
al@@ 622
seeing 621
scale 621
during 621
pro@@ 620
beginning 620
T@@ 619
ve 619
— 617
wonderful 615
finally 615
an@@ 614
ally 614
st@@ 614
behind 612
began 609
size 609
economic 607
cannot 606
certain 606
15 604
F@@ 602
w@@ 602
U.S. 601
walk 600
test 600
v@@ 599
Do 599
th@@ 598
amount 598
ac@@ 597
companies 597
powerful 595
L@@ 595
common 594
simply 594
black 594
image 593
York 593
middle 593
paper 592
realized 591
deal 591
People 591
im@@ 590
at@@ 590
needed 590
local 588
hands 587
whatever 585
on@@ 584
longer 583
field 581
behavior 578
Some 577
rest 577
parents 576
media 576
interested 576
ding 576
ocean 575
grow 573
tried 573
k@@ 571
week 571
reality 570
k 568
m@@ 568
full 568
felt 568
growth 567
cost 566
gone 566
At 564
Is 562
ates 562
self-@@ 560
quickly 559
father 558
value 557
p 555
E@@ 553
ations 552
death 552
friend 552
known 551
eight 551
spend 551
born 550
ded 549
am@@ 549
spent 549
ds 548
DNA 548
team 548
humans 547
or@@ 547
ent 545
poor 545
e-@@ 545
shows 544
feet 544
sitting 544
G@@ 544
Just 543
weeks 543
phone 542
als 541
ine 540
animal 538
surface 538
political 535
ar 535
lost 535
opportunity 534
le@@ 534
pay 533
either 533
write 533
complex 531
To 530
economy 530
buy 529
led 529
Yeah 529
inter@@ 528
n@@ 524
changes 524
areas 523
step 522
tions 522
incredible 520
green 518
program 518
met 517
over@@ 517
be@@ 516
patients 515
structure 515
l@@ 514
attention 514
pre@@ 513
king 513
N@@ 512
morning 512
wouldn 512
force 510
growing 510
average 510
blue 509
eat 509
die 508
O@@ 508
challenge 507
40 506
numbers 505
Yes 505
books 504
realize 504
fly 503
le 501
developed 501
speak 499
Our 498
brought 498
feeling 497
key 497
giving 497
Not 496
ground 496
son 494
Right 494
r@@ 493
forward 492
physical 492
low 488
stage 485
wrote 484
sp@@ 483
for@@ 483
running 483
seems 482
cut 481
On 480
bottom 479
technologies 479
literally 479
understanding 478
theory 477
map 477
alone 477
ings 477
knowledge 476
ice 476
sh@@ 473
individual 473
nice 472
per@@ 472
cars 471
climate 471
es@@ 471
scientists 470
er@@ 470
miles 470
watch 469
white 469
hundreds 469
Can 469
starting 468
result 467
ans 467
CA 467
access 467
personal 467
anyone 466
playing 466
changing 465
sea 464
clear 464
de 463
gives 462
English 462
images 461
audience 461
creating 460
telling 460
act 460
box 460
millions 460
tools 459
th 459
girl 455
fun 454
car@@ 454
normal 454
rate 453
issue 453
discovered 452
material 450
World 449
short 447
Europe 447
kid 447
ons 447
relationship 444
dark 444
seem 443
j@@ 442
stand 442
blood 442
showed 442
hold 441
center 441
movement 441
focus 440
designed 440
ad@@ 439
absolutely 439
developing 438
ra@@ 437
ab@@ 436
support 435
ist 434
recently 434
asking 433
em@@ 433
bo@@ 431
product 431
cool 431
h 430
fear 430
allow 429
tion 429
patient 429
talked 429
ap@@ 429
under@@ 429
industry 428
online 428
generation 428
solve 427
type 427
incredibly 427
chance 427
risk 427
issues 426
begin 426
D@@ 426
resources 426
thank 425
deep 425
available 424
reasons 424
ma@@ 423
produce 423
innovation 422
table 422
op@@ 422
writing 421
voice 420
yes 420
ness 420
law 420
film 419
knows 419
development 419
ty 419
solution 418
hour 418
lived 417
12 417
fast 417
involved 416
soon 416
haven 416
vi@@ 415
save 415
shape 415
K@@ 415
Chinese 414
situation 414
major 413
tiny 413
bed 411
computers 411
pictures 410
choice 410
died 410
color 409
network 409
robot 408
especially 408
it@@ 408
meet 408
becomes 407
ity 407
se@@ 407
c 407
perfect 407
evidence 407
ically 407
message 406
experiment 406
impact 405
sc@@ 404
bigger 404
m 403
W@@ 403
baby 403
worth 402
aren 401
putting 400
groups 399
Of 399
similar 398
tive 397
girls 397
special 396
guess 395
explain 395
street 393
likely 393
mo@@ 392
South 392
wall 392
mon@@ 392
effect 391
class 391
beyond 391
By 390
ic@@ 389
out@@ 389
modern 388
as@@ 388
te 388
z@@ 388
software 388
os@@ 387
rules 387
ance 387
towards 387
quality 387
action 387
medical 386
d 386
lab 386
der 385
truth 385
hundred 385
Maybe 384
device 384
Where 382
send 382
First 382
dead 382
drive 380
ch 380
teach 380
present 380
several 380
Look 380
drugs 380
particularly 378
fall 378
ves 377
board 377
carbon 377
anybody 376
approach 376
walking 375
eye 374
ks 374
ended 373
tic 373
onto 372
moved 372
Google 372
sounds 372
office 371
evolution 371
is@@ 371
est 371
month 370
Every 370
scientific 369
hit 368
minute 367
sit 367
basic 367
games 367
security 367
25 367
largest 367
break 367
schools 367
I@@ 367
vision 365
potential 365
obviously 364
showing 364
nine 364
fl@@ 364
among 364
stay 364
examples 364
drug 363
om@@ 363
violence 363
certainly 363
activity 363
et 363
materials 362
solar 361
cause 361
mass 360
y-@@ 360
et@@ 360
forms 360
totally 358
mine 357
J@@ 357
wants 357
starts 357
n 356
projects 356
develop 356
teachers 356
biggest 355
lead 355
object 355
nobody 355
strong 355
After 354
sent 354
extremely 354
b 353
happiness 353
bi@@ 353
exciting 353
journey 352
reach 352
digital 352
lo@@ 351
everywhere 351
uses 350
measure 350
so@@ 350
okay 350
memory 350
non-@@ 349
results 349
sex 349
pe@@ 349
named 349
plants 348
el@@ 348
success 348
su@@ 347
ni@@ 347
par@@ 347
um 347
bu@@ 346
pattern 346
60 346
meaning 346
further 346
compassion 346
camera 346
ment 345
student 345
rich 345
period 344
connected 344
ator 344
notice 344
safe 344
mis@@ 344
continue 343
response 342
standing 342
cor@@ 342
des 342
se 341
ready 341
add 341
fire 340
jobs 339
leaders 339
models 339
poverty 338
higher 338
democracy 338
wind 337
favorite 337
follow 337
tra@@ 337
pick 337
door 337
list 336
eventually 336
Don 336
ics 336
up@@ 336
national 336
trees 336
Who 336
code 335
watching 335
individuals 335
source 335
positive 334
ving 333
lines 333
faster 332
general 332
sub@@ 332
boy 332
late 332
road 332
ies 331
expect 331
essentially 331
Even 330
11 330
crazy 330
com@@ 330
lose 330
ze 329
listen 329
tells 329
ators 329
fully 329
grew 328
hi@@ 328
mental 328
role 328
conditions 328
Most 327
wish 327
creative 327
teacher 327
village 326
thousand 326
sun 326
skin 325
qu@@ 325
worse 325
finding 325
suddenly 325
communities 325
song 324
screen 324
revolution 324
bunch 324
shown 324
ex@@ 323
meant 323
nuclear 323
mar@@ 323
ec@@ 323
ol@@ 322
objects 322
cl@@ 322
buildings 322
site 322
brains 322
speed 322
po@@ 321
supposed 321
products 321
movie 321
plan 321
indeed 320
choose 320
sorts 320
killed 320
to@@ 320
200 320
older 319
l 319
impossible 319
spread 319
ru@@ 319
goal 318
page 318
pa@@ 318
somewhere 318
taught 317
North 317
points 317
extraordinary 317
dream 316
medicine 316
ary 315
ants 315
shot 315
war@@ 314
Those 314
fundamental 314
healthy 314
context 314
West 314
ur@@ 314
ality 313
larger 313
smart 313
moral 313
wife 313
ble 313
version 312
allowed 312
cases 312
el 312
super@@ 311
Chris 311
allows 310
training 310
usually 310
seconds 310
including 310
Are 309
pieces 308
ck 308
traditional 308
sa@@ 308
ge@@ 308
gas 308
ne@@ 307
complicated 307
exist 307
ship 307
truly 306
80 306
increase 306
interest 306
wait 305
organization 305
alive 305
studies 305
fight 304
With 304
written 304
te@@ 304
successful 304
specific 303
reading 303
record 303
above 303
beings 303
families 303
Today 302
protect 302
position 302
critical 302
tu@@ 302
excited 302
series 302
g 302
kill 302
visual 301
sleep 301
/ 301
Con@@ 300
biology 300
ci@@ 300
2 299
hospital 299
ha@@ 299
Americans 299
tool 299
man@@ 298
HIV 298
ry 298
tree 298
doctor 298
electricity 298
crisis 298
international 298
ling 297
effective 297
upon 297
trust 297
bacteria 297
price 296
expensive 296
region 296
ence 296
perspective 296
main 296
stars 295
Which 295
ce 295
conversation 295
somehow 295
physics 295
patterns 294
provide 294
serious 294
rights 293
active 293
ins 293
East 293
kept 292
si@@ 292
res@@ 292
famous 292
sts 292
service 291
bodies 291
smaller 291
African 291
anywhere 290
In@@ 290
treatment 290
college 290
foot 290
robots 289
hot 289
recognize 289
sing 288
himself 287
d-@@ 287
.@@ 287
neurons 287
wi@@ 286
Y@@ 286
waste 286
do@@ 286
TV 286
doctors 285
architecture 285
zed 285
anymore 285
x 285
please 284
ets 284
machines 284
tend 284
military 283
rise 283
store 283
ism 283
actual 282
content 282
Like 282
tri@@ 281
500 281
plant 281
ging 281
les 280
loved 280
connect 280
touch 280
ter@@ 280
familiar 280
sky 280
concept 279
1 279
18 278
becoming 278
decisions 278
ul@@ 278
ag@@ 278
greater 278
earlier 278
ter 278
weight 278
Another 278
driving 277
aware 277
peace 277
legs 277
wonder 277
police 277
range 277
skills 276
os 276
fine 276
re 276
yeah 276
production 276
da@@ 276
pain 276
performance 276
clearly 275
w 275
listening 275
du@@ 275
weren 274
engineering 274
throughout 274
bl@@ 274
current 273
waiting 273
private 273
practice 272
progress 272
train 272
genes 272
consider 272
ors 272
ders 271
costs 271
arm 271
ge 271
V@@ 271
City 271
flow 271
therefore 271
oc@@ 271
income 271
dog 271
solutions 270
Imagine 270
lower 270
levels 269
freedom 268
cur@@ 268
gra@@ 268
website 268
tr@@ 268
direction 268
town 268
except 268
fantastic 267
intelligence 267
18@@ 267
ess 267
forth 267
travel 267
search 266
D 266
connection 266
policy 266
slow 266
function 266
ot@@ 266
ad 266
math 265
pull 265
ged 265
ists 265
dangerous 265
greatest 264
ical 264
la@@ 264
beauty 264
forest 263
ia 263
Re@@ 263
u 263
subject 262
walked 262
ology 262
institutions 261
related 261
ian 260
draw 260
invented 260
decade 260
win 260
sell 260
University 260
press 259
minds 259
ps 259
immediately 259
one-@@ 258
values 258
2@@ 258
floor 258
ie 258
ches 258
meeting 257
massive 257
teaching 257
understood 257
square 256
treat 256
cold 256
ahead 256
ized 256
laws 255
obvious 255
high-@@ 255
ir@@ 254
feed 254
ties 254
various 254
War 253
genetic 253
humanity 253
ments 253
final 253
services 253
decades 253
governments 252
remarkable 252
strange 252
London 252
dollar 252
paid 252
possibly 251
career 251
types 250
following 250
ke 250
near 250
decision 250
decide 250
instance 249
ful 249
babies 249
although 249
ass@@ 249
flying 249
U@@ 248
willing 248
ably 248
ver@@ 248
meters 248
ning 248
dance 248
hand@@ 247
virus 247
terrible 247
cultural 247
effects 246
ard 246
choices 246
sat 246
raise 246
Your 246
pl@@ 246
90 246
star@@ 246
Al@@ 245
enormous 245
da 245
path 245
ent@@ 245
fuel 244
ou@@ 244
self 244
capacity 244
ved 243
played 243
politics 243
lights 243
useful 243
event 243
slide 243
pressure 243
ters 243
markets 242
us@@ 242
term 242
challenges 242
anyway 242
E 242
environmental 242
From 242
urban 242
bri@@ 242
race 241
cover 241
societies 241
fit 241
gu@@ 241
oh 241
den@@ 240
Two 240
Mar@@ 240
speaking 239
slightly 239
helped 239
forces 239
me@@ 239
web 239
diseases 239
ran 239
magic 238
fied 238
dy 238
mer@@ 238
published 238
phones 238
Ch@@ 238
ely 237
fy 237
aid 237
ars 237
bar@@ 237
plastic 237
ses 237
financial 237
original 237
gl@@ 236
unique 236
B 236
citizens 236
3@@ 235
colleagues 235
workers 235
directly 235
chemical 235
grade 235
track 235
television 235
temperature 235
stick 235
worst 235
mostly 234
survive 234
-year-old 234
complete 234
ying 234
mom 234
California 233
cre@@ 233
below 233
ked 233
artist 233
shared 233
mobile 233
produced 233
zero 233
whose 232
summer 232
eating 232
3 232
re-@@ 232
relationships 232
states 232
biological 232
hole 232
programs 232
boys 232
Western 231
ative 231
popular 231
female 231
John 231
religion 231
dying 231
conflict 230
cra@@ 230
sign 230
mission 230
Many 230
ck@@ 230
creativity 230
ball 229
comp@@ 229
National 229
del@@ 229
infrastructure 229
recent 229
bs 229
causes 229
address 228
differences 228
evolved 228
clean 228
noticed 228
ph@@ 228
sustainable 228
organizations 228
Great 228
answers 227
Afghanistan 227
explore 227
t-@@ 227
improve 227
tics 227
Dr. 227
significant 227
C 226
apart 226
drop 226
daughter 225
supply 225
glass 225
closer 225
discover 224
wing 224
300 224
atmosphere 224
push 224
funny 224
Com@@ 224
Man 224
dad 224
x@@ 224
heat 223
forget 223
surgery 223
dra@@ 223
stopped 223
afraid 223
rule 223
networks 223
legal 223
task 222
bought 222
twice 222
ines 222
ces 222
quick 222
tional 221
worry 221
Mars 221
star 221
gotten 221
communicate 221
zing 221
purpose 221
capital 221
nation 220
ined 220
pass 220
au@@ 220
Indian 220
sion 220
text 220
Think 220
birds 220
streets 219
micro@@ 219
Hey 219
responsibility 219
straight 219
end@@ 219
che@@ 219
held 219
easily 218
1,000 218
Instead 218
feels 218
4 217
emotional 217
ten@@ 217
photograph 217
missing 217
carry 217
bringing 217
bees 217
experiments 217
core 217
16 217
sk@@ 217
achieve 217
seemed 217
character 216
ously 216
boat 216
standard 216
molecules 216
birth 215
z 215
engage 215
70 214
differently 214
trouble 214
party 214
knowing 214
degrees 214
planets 214
male 214
creates 214
can@@ 214
basis 214
broken 214
oxygen 214
en 213
helping 213
total 213
experiences 213
trans@@ 213
designers 212
mu@@ 212
br@@ 212
diversity 212
$ 212
reduce 212
sharing 212
shift 212
ion 212
focused 211
attack 211
10,000 211
central 211
Actually 210
9 210
speech 210
um@@ 210
complexity 210
David 210
Ma@@ 210
efficient 210
mountain 209
communication 209
no@@ 209
highly 209
ure 208
nearly 208
His 208
spending 208
scientist 208
secret 208
corner 207
Again 207
consciousness 207
none 207
14 207
genome 206
dly 206
gi@@ 206
bits 206
structures 206
conference 206
est@@ 206
ob@@ 206
passed 205
fix 205
etc 205
studying 205
hair 205
extra 205
balance 205
An@@ 205
Th@@ 205
fi@@ 205
trial 204
check 204
devices 204
ced 204
charge 204
rock 204
ched 204
opportunities 203
two-@@ 203
stri@@ 203
condition 203
hearing 203
tremendous 203
join 202
fairly 202
prison 202
Z@@ 202
ta@@ 202
ak@@ 202
landscape 202
Take 202
lucky 202
Facebook 202
ges 202
ho@@ 201
inspired 201
possibility 201
email 201
window 201
il 201
respond 200
tor 200
radio 199
AIDS 199
members 199
blind 199
to-@@ 199
st 198
necessary 198
passion 198
ching 198
identity 198
imagination 198
catch 198
def@@ 198
Middle 198
des@@ 198
ig@@ 198
ancient 198
ys 198
ats 197
figured 197
min@@ 197
agree 197
cy@@ 197
Le@@ 197
ver 197
lies 197
ently 197
forever 197
cu@@ 197
bone 197
cr@@ 197
tur@@ 197
definition 197
ingly 196
phenomenon 196
raised 196
Good 196
spaces 196
religious 196
gen@@ 196
distance 195
creatures 195
opposite 195
year-old 195
turning 195
finished 194
bird 194
artists 194
afford 194
apply 194
pi@@ 194
trade 194
despite 194
ati@@ 193
ents 193
responsible 193
ste@@ 193
industrial 193
Car@@ 193
describe 193
degree 193
farmers 193
ending 193
5 193
earth 193
necessarily 193
Thanks 193
dreams 193
failure 192
particles 192
sold 192
events 192
Iraq 192
ages 192
ms 192
24 192
easier 192
ring 192
park 192
Japan 191
saving 191
moments 191
ish 191
Second 191
European 191
notion 191
painting 191
ens 191
loss 191
quote 190
San 190
throw 190
importantly 190
ber 190
ws 189
argument 189
report 189
benefits 189
bor@@ 189
sorry 189
leading 189
effort 189
giant 189
her@@ 189
suffering 189
entirely 189
ing@@ 189
we@@ 188
respect 188
4@@ 188
interact 188
wa@@ 187
three-@@ 187
go@@ 187
stem 187
19@@ 187
fu@@ 187
enter 187
graph 187
coffee 187
stress 187
However 187
brings 186
calls 186
Have 186
elements 186
net 186
il@@ 186
gene 186
Asia 185
opened 185
row 185
har@@ 185
cycle 185
holding 185
Sometimes 185
card 185
bridge 185
cap@@ 185
ton 185
negative 185
Very 185
billions 185
helps 185
sick 185
note 184
studied 184
back@@ 184
ends 184
aging 184
sand 184
trained 184
ash 184
competition 184
visit 184
moves 184
Mr. 184
yellow 184
ction 184
background 183
wood 183
date 183
capable 183
leadership 183
return 183
Mon@@ 183
roll 183
engine 183
5,000 183
organisms 182
Once 182
fill 182
pounds 182
photo 182
a-@@ 182
edge 182
Over 182
wild 181
oceans 181
bio@@ 181
enjoy 181
discovery 181
dr@@ 180
ths 180
Be@@ 180
mouse 180
8 180
pen@@ 180
colors 180
sector 180
sting 179
leads 179
tissue 179
believed 179
ultimately 179
shouldn 179
stuck 179
bra@@ 179
matters 179
Did 179
lets 179
French 179
la 179
base 178
wave 178
predict 178
failed 178
Web 178
adults 178
factory 178
unfortunately 178
ker 177
swe@@ 177
concerned 177
ah 177
caught 177
the@@ 177
era 177
mothers 177
typical 177
Life 177
due 177
enti@@ 177
equal 177
husband 177
R 177
limited 176
17 176
vast 176
investment 176
wealth 176
ali@@ 176
weird 176
tens 176
heads 176
majority 176
rel@@ 176
operating 176
weapons 176
noise 175
insects 175
treated 175
creation 175
imp@@ 175
benefit 174
lack 174
down@@ 174
rec@@ 174
university 174
block 174
belief 174
Sh@@ 174
offer 174
sudden 174
civil 174
beat 174
leaving 174
count 173
sal@@ 173
virtual 173
influence 173
More 173
See 173
cy 173
gr@@ 173
slowly 173
sequence 173
ber@@ 173
traffic 172
advantage 172
fighting 172
der@@ 172
childhood 172
hate 172
brother 172
lesson 172
sl@@ 172
gre@@ 172
ev@@ 172
deeply 172
random 172
consumption 172
labor 171
constantly 171
river 171
signal 171
ma 171
walls 171
sli@@ 171
400 171
campaign 171
stream 171
sed 171
flight 171
names 171
compared 171
protein 170
ster 170
paying 170
forced 170
argue 170
Di@@ 170
13 170
faces 170
squ@@ 170
managed 170
letter 170
vers 170
described 169
pri@@ 169
emotions 169
organic 169
depression 169
Big 169
begins 169
foreign 169
strategy 169
cul@@ 169
tre@@ 168
Audience 168
neighborhood 168
fascinating 168
An 168
tors 168
surprise 168
collective 168
interaction 168
British 168
otherwise 167
testing 167
engineers 167
talks 167
wide 167
soil 167
alized 167
arms 167
married 166
ran@@ 166
sexual 166
perfectly 166
mathematics 166
transform 166
fashion 166
closed 166
invisible 166
separate 166
bus 166
justice 166
Everybody 166
commercial 166
demand 166
account 166
cli@@ 165
flies 165
ey 165
stra@@ 165
wear 165
deliver 165
gain 165
hell 165
sted 165
museum 165
profound 165
affect 165
aff@@ 165
breast 165
U.K. 165
coral 165
currently 165
driven 165
brilliant 165
principles 164
dge 164
electric 164
quantum 164
bank 164
professional 164
honest 164
followed 164
sister 164
and@@ 164
pat@@ 164
whom 163
cheap 163
cks 163
wearing 163
Mexico 163
proud 163
mentioned 163
leader 163
bur@@ 163
hasn 163
galaxies 163
En@@ 163
represent 162
ads 162
tor@@ 162
mouth 162
ut@@ 162
Go 162
nu@@ 162
surprised 162
copy 162
covered 162
met@@ 162
Would 162
ed@@ 162
steps 162
Each 161
fold 161
7 161
invited 161
unless 161
2,000 161
equivalent 161
Australia 161
worried 161
cing 161
everyday 160
harder 160
circle 160
bread 160
designing 160
jump 160
Washington 160
T 160
ned 160
homes 160
rid 160
St@@ 160
planning 160
businesses 160
extreme 160
vehicle 159
brand 159
galaxy 159
ory 159
puts 159
ser@@ 159
received 159
England 159
desire 159
invest 159
Three 159
languages 159
mor@@ 159
moon 159
distribution 159
link 158
6 158
wisdom 158
Brazil 158
mat@@ 158
alternative 158
7@@ 158
grown 158
alize 158
organized 158
meat 158
he@@ 158
classroom 157
watched 157
lu@@ 157
Everything 157
spot 157
magazine 157
designer 157
drawing 157
Richard 157
sur@@ 156
collect 156
in-@@ 156
survival 156
warming 156
soldiers 156
low-@@ 156
users 156
launched 156
fell 156
og@@ 156
amp 156
&apos;@@ 156
molecule 156
sho@@ 155
threat 155
tough 155
equipment 155
exists 155
construction 155
s-@@ 155
manage 155
associated 155
existence 155
avoid 155
agriculture 155
clinical 155
match 154
alism 154
stone 154
print 154
cat@@ 154
contact 154
feedback 154
medi@@ 154
intelligent 154
filled 154
identify 154
rain 154
pages 154
versus 154
vote 154
debate 154
bul@@ 154
normally 154
seriously 154
dynamic 154
waves 154
civilization 154
thinks 154
fourth 154
dic@@ 154
hopefully 153
Germany 153
cards 153
plane 153
motion 153
sentence 153
bling 153
fields 153
dinner 153
gri@@ 153
mi@@ 153
tons 153
toward 153
tively 153
ordinary 153
photos 152
chemistry 152
prevent 152
gender 152
flu 152
cognitive 152
paint 152
detail 152
kilometers 152
seat 152
economics 152
crime 152
rates 152
engineer 152
adult 152
Twitter 152
shapes 152
leg 152
increasingly 151
ley 151
Ar@@ 151
faith 151
Iran 151
bar 151
ger 151
ering 151
compare 151
Gu@@ 151
connections 151
bing 151
players 151
technical 151
player 151
article 151
dies 151
air@@ 150
chain 150
leaves 150
statistics 150
expression 150
liked 150
surprising 150
rural 150
target 150
processes 150
signals 150
Mo@@ 150
nervous 150
100,000 150
yesterday 150
comfortable 149
experienced 149
saved 149
joy 149
CO2 149
multiple 149
opening 149
scene 149
hum@@ 149
ours 149
sites 149
stood 149
property 149
caused 149
hidden 149
appear 149
safety 149
analysis 148
fin@@ 148
folks 148
mortality 148
theater 148
chair 148
weather 148
ologists 148
struggle 148
credit 148
20th 148
lunch 148
ited 148
Sun 148
soci@@ 148
generations 148
accident 148
airplane 148
pu@@ 148
importance 148
char@@ 147
dimensions 147
chemicals 147
dealing 147
awful 147
regular 147
losing 147
island 147
universal 147
producing 147
lie 147
daily 147
fication 147
Kenya 146
spoke 146
researchers 146
Britain 146
ture 146
driver 146
conscious 146
wh@@ 146
ther@@ 146
head@@ 146
spirit 146
frame 146
ils 146
principle 146
layer 146
ive 145
facts 145
station 145
management 145
calling 145
Einstein 145
highest 145
shoes 145
hadn 145
pped 145
picked 145
consequences 145
electrical 145
35 145
wondering 144
killing 144
tro@@ 144
ill@@ 144
ris@@ 144
convinced 144
holes 144
movies 144
damage 144
arrived 144
hy@@ 144
continent 144
6@@ 144
signs 144
drink 144
sad 143
Come 143
grandmother 143
switch 143
houses 143
reaction 143
Pro@@ 143
poetry 143
lic@@ 143
inner 143
artificial 143
considered 143
Times 143
viruses 142
1,@@ 142
exact 142
dots 142
ears 142
professor 142
dri@@ 142
microbes 142
MIT 142
ort 142
satellite 142
gap 142
smell 142
ologist 142
Their 141
Please 141
- 141
muscle 141
possibilities 141
coal 141
und@@ 141
sources 141
facing 141
mile 141
variety 141
av@@ 141
deeper 141
acting 141
partner 141
f 141
heavy 141
ese 141
formed 140
ler 140
increasing 140
supp@@ 140
cal 140
essential 140
desert 140
empty 140
cloud 140
click 140
ise 140
ination 140
metaphor 140
prove 140
ot 140
according 140
serve 140
letters 140
ots 140
finger 140
suggest 140
feelings 140
warm 140
corruption 139
healthcare 139
trials 139
Israel 139
expected 139
spec@@ 139
whenever 139
flag 139
sun@@ 139
gold 139
remote 139
keeping 139
Bill 139
pre-@@ 139
tomorrow 139
exercise 139
For@@ 139
well-@@ 139
selling 139
Japanese 139
ear@@ 138
messages 138
trip 138
independent 138
curious 138
rooms 138
cking 138
col@@ 138
farm 138
fair 138
strength 138
controlled 138
advanced 137
evil 137
fail 137
fe@@ 137
hu@@ 137
underneath 137
fishing 137
lying 137
dry 137
videos 137
bright 137
long-term 137
experts 137
president 137
o-@@ 137
platform 137
marriage 137
collection 137
dinosaurs 137
President 137
fre@@ 137
tested 137
broke 136
George 136
sharks 136
tically 136
absolute 136
Does 136
Harvard 136
budget 136
sides 136
method 136
terrorism 136
plus 136
requires 136
que 136
accept 136
exc@@ 135
addition 135
characters 135
direct 135
tail 135
bear 135
intellectual 135
tical 135
interface 135
relatively 135
por@@ 135
stupid 135
hom@@ 134
anti-@@ 134
anti@@ 134
acts 134
ban@@ 134
capture 134
carefully 134
setting 134
resource 134
generate 134
emotion 134
cultures 134
Last 134
teeth 134
sm@@ 134
voices 134
actions 134
ny 134
valuable 134
ride 134
zes 134
ther 134
thoughts 134
roughly 134
sen@@ 134
bro@@ 134
dar@@ 134
fewer 133
represents 133
Center 133
rapidly 133
finish 133
epidemic 133
defined 133
status 133
former 133
School 133
emerging 133
graduate 133
carrying 133
member 133
ay 133
location 133
added 133
gift 133
Canada 133
pres@@ 133
battery 133
breath 132
Anyway 132
fellow 132
3,000 132
round 132
G 132
nations 132
bre@@ 132
aged 132
convince 132
vulnerable 132
transformation 132
molecular 132
Could 132
behaviors 132
exchange 132
victims 132
specifically 132
ought 131
hide 131
release 131
iled 131
lifetime 131
situations 131
GDP 131
ak 131
definitely 131
M 131
3D 131
Bu@@ 131
ize 131
require 131
prepared 131
sensitive 131
ten 131
effectively 131
ff@@ 131
master 131
details 131
rare 131
ures 131
cameras 131
movements 131
properties 131
define 130
grand@@ 130
engaged 130
ming 130
depends 130
gay 130
trick 130
coast 130
primary 130
sec@@ 130
plate 130
bottle 130
af@@ 130
ca@@ 130
Nigeria 130
Chicago 129
pping 129
fossil 129
cure 129
promise 129
cas@@ 129
lay 129
arts 129
emissions 129
sets 129
poem 129
lady 129
Francisco 129
interests 129
mal@@ 129
Institute 129
unit 129
wake 129
fat 129
cru@@ 129
atoms 129
ect 129
north 129
Ad@@ 128
ished 128
ecosystem 128
south 128
protected 128
mathematical 128
Street 128
James 128
appropriate 128
150 128
id 128
oo@@ 128
ft 128
steel 128
cutting 127
previous 127
Anderson 127
sending 127
ered 127
therapy 127
released 127
fer@@ 127
ner 127
ga@@ 127
politicians 127
generally 127
correct 127
ale 127
maps 127
affected 127
discussion 126
however 126
reward 126
99 126
cat 126
pr@@ 126
double 126
ven@@ 126
makers 126
ites 126
confidence 126
remain 126
risks 126
Su@@ 126
ble@@ 126
sample 126
components 126
hurt 126
introduced 126
illness 126
express 126
suit 126
evolutionary 125
visible 125
buying 125
regions 125
Wow 125
performing 125
speci@@ 125
roof 125
tim@@ 125
solved 125
organs 125
notes 125
sive 125
Since 125
bubble 125
restaurant 125
techniques 125
introduce 125
Los 125
ions 124
recorded 124
sw@@ 124
Par@@ 124
awareness 124
mention 124
ite 124
flu@@ 124
factors 124
roads 124
pleasure 124
replace 124
tic@@ 124
&amp; 124
spectrum 124
val@@ 124
ep@@ 124
II 124
aries 124
shark 124
hydrogen 124
radiation 124
blocks 124
gravity 124
user 124
goals 124
P 124
our@@ 123
worlds 123
malaria 123
employees 123
YouTube 123
ace 123
al-@@ 123
motor 123
ects 123
shop 123
mirror 123
izing 123
sol@@ 123
combination 123
mate 123
perform 123
ren@@ 123
sugar 123
mistake 123
democratic 123
processing 123
disaster 122
environments 122
tests 122
tradition 122
load 122
invention 122
tumor 122
trillion 122
cked 122
mark 122
instrument 122
5@@ 122
Charles 122
gs 122
Muslim 122
transition 121
NASA 121
gar@@ 121
21st 121
ast@@ 121
bomb 121
fresh 121
lessons 121
runs 121
thanks 121
diet 121
2000 121
app@@ 121
newspaper 121
dogs 121
relevant 121
band 121
reached 121
perception 121
centers 121
Se@@ 120
pollution 120
metal 120
typically 120
alization 120
inf@@ 120
Steve 120
honor 120
fli@@ 120
gh@@ 120
battle 120
ra 120
scared 120
factor 120
apping 120
goods 120
marine 119
land@@ 119
pulled 119
hero 119
Perhaps 119
45 119
shor@@ 119
staff 119
neighbors 119
cortex 119
required 119
destruction 119
Russia 119
ass 119
include 119
mountains 119
kitchen 119
Paul 119
laugh 119
ier 119
nan@@ 119
Yet 119
chan@@ 119
ward 119
De@@ 119
Arab 119
cal@@ 119
traveling 119
option 119
efficiency 118
collaboration 118
winter 118
forests 118
ain 118
keeps 118
bag 118
str@@ 118
rational 118
dropped 118
worldwide 118
ately 118
singing 118
literature 118
ke@@ 118
consumer 118
interview 118
on-@@ 118
psychology 118
ack 118
ash@@ 118
2008 118
personally 118
sports 118
ari@@ 118
600 117
chicken 117
ultimate 117
hoping 117
fil@@ 117
corporate 117
Day 117
protection 117
style 117
features 117
meaningful 117
rein@@ 117
camp 117
exp@@ 117
vehicles 117
ff 117
existing 117
9@@ 117
crash 117
S 117
ulation 117
practical 117
ill 117
participate 117
lands 117
applied 117
attacks 117
sophisticated 117
axis 116
ancestors 116
amounts 116
occur 116
combined 116
wire 116
fundamentally 116
senses 116
afternoon 116
2010 116
occurred 116
functions 116
U.N. 116
van@@ 116
technological 116
illegal 116
Only 116
solving 116
He@@ 116
encourage 116
grid 116
unusual 116
wed 116
naturally 116
hits 116
tracking 115
75 115
Women 115
algorithms 115
foundation 115
infected 115
cer@@ 115
physically 115
section 115
fac@@ 115
activities 115
Also 115
topic 115
stronger 115
tape 115
joke 115
launch 115
sees 115
eggs 115
opinion 115
miss 115
els 115
productive 115
relate 115
transport 115
computing 115
operate 115
privacy 115
Do@@ 115
Pacific 115
score 115
mechanism 115
flat 115
relative 115
five-@@ 115
manufacturing 115
increased 115
Mor@@ 115
logic 115
Boston 114
clip 114
Mc@@ 114
records 114
comfort 114
Nobody 114
While 114
election 114
parent 114
transportation 114
underwater 114
O 114
burning 114
mistakes 114
France 114
ular 114
monkey 114
theme 114
hospitals 114
radical 114
memories 114
Sp@@ 113
Darwin 113
studio 113
lat@@ 113
walks 113
empathy 113
equally 113
cross 113
smile 113
ky 113
institution 113
soul 113
element 113
Something 113
cooking 113
sem@@ 113
bee 113
med 113
fis@@ 113
detect 113
meter 113
Michael 113
false 113
Ro@@ 113
ric 113
sunlight 113
wine 113
drives 112
quiet 112
breaking 112
button 112
suppose 112
falls 112
organ 112
shoot 112
constant 112
accurate 112
largely 112
explained 112
sight 112
ju@@ 112
somewhat 112
falling 112
doubt 112
collected 111
pack 111
conver@@ 111
silence 111
length 111
fying 111
musical 111
advice 111
ners 111
figures 111
marketing 111
potentially 111
Five 111
cow 111
ba@@ 111
proteins 111
dramatic 111
bas@@ 111
skill 111
nar@@ 111
peak 111
psychological 111
cord 111
men@@ 111
swimming 111
Li@@ 111
ection 111
wise 111
Pakistan 111
Congress 111
Bo@@ 111
extra@@ 111
ve@@ 110
statement 110
1@@ 110
Her 110
cop@@ 110
wars 110
remind 110
photographs 110
volume 110
laptop 110
medium 110
presence 110
vis@@ 110
Unfortunately 110
generated 110
flowers 110
weak 110
anger 110
conclusion 110
bal@@ 110
multi@@ 110
work@@ 110
Al 110
operation 110
narrative 110
sha@@ 110
nor 109
novel 109
violent 109
electronic 109
ins@@ 109
piano 109
burn 109
string 109
cents 109
aspect 109
toy 109
Mal@@ 109
subjects 109
liber@@ 109
percentage 109
eg@@ 109
creature 109
combine 109
dd@@ 109
concrete 109
innovative 109
Un@@ 109
thin 109
rap@@ 109
feeding 109
pic@@ 108
chose 108
partners 108
conversations 108
bones 108
cri@@ 108
ta 108
boring 108
birthday 108
milk 108
boxes 108
crowd 108
tly 108
gener@@ 108
ances 108
enable 108
and-@@ 108
explanation 108
toxic 108
Valley 108
horse 108
tonight 108
ep 107
exploration 107
surrounded 107
stayed 107
ir 107
breathe 107
neuro@@ 107
pop 107
iPhone 107
gun 107
poll@@ 107
fake 107
remains 107
insight 107
spring 107
shame 107
swim 107
framework 107
circumstances 107
liquid 107
providing 107
sustainability 107
films 107
L 107
outcome 107
eu@@ 107
organism 107
joined 106
nowhere 106
mix 106
profit 106
ships 106
garden 106
assume 106
Number 106
flew 106
presentation 106
writer 106
zone 106
closely 106
rocket 106
church 106
songs 106
alist 106
10@@ 106
int 106
Bank 106
fa@@ 106
solid 106
2007 106
fiction 106
faced 106
flo@@ 106
abstract 106
measured 106
overall 106
linked 106
authority 106
conservation 105
well-being 105
King 105
functional 105
error 105
passionate 105
limits 105
X 105
inspiration 105
pair 105
Before 105
non@@ 105
dy@@ 105
jo@@ 105
shaped 105
sensors 105
entrepreneurs 105
fed 105
expand 105
appreciate 105
State 105
my@@ 105
zz@@ 105
grain 105
Science 105
options 105
applications 105
decline 105
replic@@ 105
claim 104
Union 104
whales 104
atten@@ 104
collapse 104
Angeles 104
taste 104
tin@@ 104
nose 104
challenging 104
K 104
housing 104
papers 104
tall 104
Bi@@ 104
horrible 104
deaths 104
display 104
Christmas 104
Project 104
X@@ 104
ns 104
water@@ 104
provided 104
symptoms 104
atory 104
evening 104
Basically 104
Islam 104
Paris 104
prime 104
economists 104
obsessed 103
German 103
aw@@ 103
clothes 103
tain 103
allowing 103
About 103
Amazon 103
capitalism 103
gentlemen 103
remove 103
Ah 103
hor@@ 103
bly 103
continued 103
Adam 103
silk 103
pal@@ 103
21 103
Egypt 103
acy 103
17@@ 103
danger 103
fingers 103
architect 103
samples 103
resolution 103
curve 103
powers 103
BG 103
ries 102
laboratory 102
na@@ 102
co-@@ 102
wo@@ 102
wherever 102
yed 102
dancing 102
ight 102
three-dimensional 102
oms 102
September 102
villages 102
Bar@@ 102
conventional 102
attempt 102
sy 102
autism 102
ological 102
tures 102
inn@@ 102
chip 102
19th 102
unknown 102
em 102
internal 102
globe 102
ulate 102
pan@@ 102
ational 102
hotel 102
funding 102
Wikipedia 102
transformed 102
split 101
infinite 101
contrast 101
extent 101
multi-@@ 101
wel@@ 101
chart 101
desk 101
Muslims 101
laughter 101
uni@@ 101
wheel 101
ore 101
angry 101
gro@@ 101
determine 101
poli@@ 101
sters 101
instruments 101
causing 101
Museum 101
mechanical 101
dozen 101
director 101
arch@@ 101
wards 101
season 101
identical 101
reference 101
cave 101
height 101
wers 100
reverse 100
represented 100
prize 100
new@@ 100
Har@@ 100
mess 100
centuries 100
policies 100
border 100
Nothing 100
ase 100
agreed 100
om 100
grand 100
finance 100
standards 100
bike 100
embrace 100
behavioral 100
odd 100
beach 100
suggests 100
vol@@ 100
struck 100
rocks 100
paradigm 100
tac@@ 100
root 100
technique 100
placed 100
ori@@ 100
GPS 100
blog 100
ist@@ 100
shall 100
pollen 100
dense 100
ide@@ 99
severe 99
Remember 99
humor 99
connecting 99
er-@@ 99
grass 99
application 99
admit 99
Everyone 99
puzzle 99
Gulf 99
bet 99
ah@@ 99
atives 99
worker 99
suffer 99
raising 99
pay@@ 99
post@@ 99
clouds 99
handle 99
army 99
pushing 99
Health 99
Go@@ 99
trend 99
ctions 99
poorest 99
unlike 99
app 98
wondered 98
Finally 98
architects 98
busy 98
survey 98
breathing 98
ell@@ 98
measuring 98
stic 98
distributed 98
plans 98
June 98
proof 98
fri@@ 98
floating 98
climb 98
edi@@ 98
tries 98
spinal 98
Ac@@ 98
fixed 98
disappear 98
Co@@ 98
dan@@ 98
So@@ 98
50,000 98
implications 98
viol@@ 98
ial 97
oning 97
ek 97
telephone 97
increases 97
shake 97
whale 97
clock 97
heroes 97
disorders 97
frankly 97
corals 97
courage 97
greenhouse 97
zoom 97
younger 97
populations 97
fund 97
succeed 97
Ju@@ 97
Other 97
educational 97
inv@@ 97
Thomas 97
treating 97
na 97
library 97
tation 97
1.@@ 97
Really 97
Nor@@ 97
Higgs 97
stands 97
15@@ 97
Robert 97
classes 97
mammals 97
existed 97
selection 97
fo@@ 97
angle 97
equation 97
ick@@ 97
form@@ 97
density 96
recognition 96
carried 96
estimate 96
80s 96
0,000 96
2005 96
ography 96
reaching 96
offered 96
directions 96
symbol 96
upper 96
vaccine 96
Qu@@ 96
,000 96
arguments 96
Sa@@ 96
top@@ 96
tube 96
scar@@ 96
post 96
automatically 96
via 96
2009 96
Sweden 96
engaging 96
ose 96
parking 96
economies 96
clever 96
drinking 96
resistance 95
monkeys 95
blin@@ 95
sy@@ 95
locked 95
lung 95
fle@@ 95
Hi 95
ration 95
vely 95
May 95
dramatically 95
Park 95
careful 95
F 95
expert 95
ei@@ 95
sphere 95
ecting 95
pointed 95
apped 95
vo@@ 95
bes 95
grows 95
Po@@ 95
interactions 95
mystery 95
depend 95
consumers 95
invent 95
surgeon 95
celebrate 94
phrase 94
Latin 94
savings 94
ger@@ 94
dre@@ 94
ast 94
ade 94
outcomes 94
properly 94
flower 94
Me@@ 94
windows 94
lifestyle 94
mainly 94
fire@@ 94
ideal 94
Obama 94
dot 94
missed 94
Korea 94
teams 94
obesity 94
16@@ 94
controlling 94
truck 94
January 94
spreading 94
all@@ 94
zation 94
feature 94
fra@@ 93
touched 93
immune 93
tea 93
Will 93
harm 93
overcome 93
divided 93
attached 93
eh@@ 93
neither 93
sle@@ 93
pur@@ 93
20,000 93
va 93
soft 93
shoulder 93
component 93
title 93
mice 93
rising 93
pure 93
enemy 93
loop 93
robotic 93
hal@@ 93
gang 93
oli@@ 93
post-@@ 93
printing 93
penguins 93
Mu@@ 93
organize 93
particle 93
70s 93
wor@@ 93
grab 92
prototype 92
scary 92
pers 92
not@@ 92
Apple 92
entered 92
pun@@ 92
painful 92
wireless 92
rescue 92
mag@@ 92
practices 92
secure 92
ump@@ 92
hat@@ 92
philosophy 92
phase 92
hardware 92
receive 92
males 92
quarter 92
prices 92
-like 92
elephant 92
fuels 92
permanent 92
borders 92
sions 92
abuse 92
14@@ 92
sweet 92
alizing 92
Ne@@ 92
tip 92
poly@@ 91
Sha@@ 91
gray 91
appears 91
recording 91
presented 91
Foundation 91
plenty 91
usual 91
20@@ 91
ut 91
forming 91
appeared 91
brothers 91
units 91
toilet 91
counter@@ 91
lock 91
antibiotics 91
cooperation 91
extinct 91
House 91
inequality 91
traveled 91
ath 91
designs 91
destroyed 91
tasks 91
nest 91
Four 91
precisely 91
maintain 91
input 91
surely 91
acc@@ 90
entertainment 90
signed 90
vessels 90
Congo 90
concepts 90
commun@@ 90
Lo@@ 90
tax 90
moder@@ 90
ach 90
clinic 90
circuit 90
balls 90
Central 90
Cor@@ 90
four-@@ 90
bility 90
bles 90
intense 90
aps 90
Any 90
half-@@ 90
constructed 90
ur 90
academic 90
lovely 90
sculpture 90
reported 90
raw 90
prefer 90
expectations 90
cro@@ 90
license 90
Nobel 90
off@@ 90
interactive 90
ians 90
surveillance 90
shut 90
Or@@ 89
scan 89
le-@@ 89
ken 89
ences 89
ization 89
latest 89
elled 89
psych@@ 89
thrown 89
depending 89
behave 89
grandfather 89
fascinated 89
spiritual 89
imagined 89
wired 89
far@@ 89
dynamics 89
ethical 89
friendly 89
classic 89
laughing 89
illusion 89
cartoon 89
engagement 89
interacting 89
likes 89
dem@@ 89
gers 89
dependent 89
rating 89
asp@@ 89
mid-@@ 89
cement 89
bia 89
personality 89
exhibition 89
unclear 89
60s 89
Give 89
emergency 89
translate 89
department 89
whereas 89
commitment 89
Art 88
smoke 88
22 88
cute 88
yer 88
bon@@ 88
exploring 88
stock 88
session 88
gli@@ 88
committed 88
mod@@ 88
polio 88
tag 88
so-called 88
sta@@ 88
firm 88
diverse 88
habitat 88
65 88
recovery 88
year-olds 88
jail 88
channel 88
dioxide 88
dignity 88
hang 88
cell@@ 88
Get 88
ow 88
ner@@ 88
bers 88
emp@@ 88
hearts 88
lan@@ 88
pul@@ 88
concern 88
amed 88
recognized 88
radi@@ 88
colony 88
Islamic 87
tion@@ 87
awesome 87
powered 87
parallel 87
wn 87
muscles 87
hear@@ 87
customers 87
paintings 87
maker 87
m-@@ 87
ugly 87
elling 87
uns@@ 87
Ghana 87
doors 87
magnetic 87
furniture 87
Revolution 87
hur@@ 87
Ra@@ 87
12@@ 87
drawn 87
animation 87
Haiti 87
lift 87
stu@@ 87
eless 87
plays 87
slides 87
involves 87
tru@@ 87
accessible 87
ery 87
cheaper 87
produces 87
pocket 87
ceiling 87
liver 87
Microsoft 87
unexpected 87
ant@@ 87
ing-@@ 87
productivity 87
indic@@ 86
document 86
Her@@ 86
tem@@ 86
diabetes 86
prot@@ 86
aspects 86
abilities 86
ton@@ 86
probability 86
foot@@ 86
pile 86
orbit 86
hunger 86
ess@@ 86
lin@@ 86
tan@@ 86
disorder 86
H 86
shooting 86
ca 86
sticks 86
mit@@ 86
mal 86
lighting 86
vel@@ 86
iting 86
iz@@ 86
ink 86
90s 86
kers 86
tech 86
wanting 86
achieved 86
19 86
ron@@ 86
Per@@ 86
corn 86
seed 86
blow 86
conf@@ 86
ici@@ 86
till 86
divide 86
chocolate 86
incentives 86
Africans 86
opposed 86
funded 86
Narrator 86
tun@@ 86
virtually 86
utes 86
tied 85
ha 85
No@@ 85
escape 85
bicycle 85
disappeared 85
open-source 85
analy@@ 85
relations 85
Manhattan 85
gy@@ 85
accepted 85
ne 85
hip 85
ignore 85
owned 85
tered 85
Tell 85
privilege 85
v 85
agenda 85
west 85
ases 85
stly 85
aside 85
conflicts 85
cook 85
insurance 85
DH 85
repair 85
International 85
rat 85
Stanford 85
ues 85
colleague 85
monitor 85
ro 85
seek 85
MRI 84
repeat 84
removed 84
hall 84
Texas 84
frozen 84
ick 84
volunteers 84
mer 84
spider 84
att@@ 84
apartment 84
backwards 84
ear 84
embedded 84
Pe@@ 84
rely 84
Hu@@ 84
historical 84
gence 84
neighborhoods 84
ual 84
mas@@ 84
ush 84
Island 84
lob@@ 84
Atlantic 84
sil@@ 84
mur@@ 84
hardly 84
gut 84
Ex@@ 84
Indeed 84
27 84
the-@@ 84
all-@@ 83
symmetry 83
distant 83
Fe@@ 83
advertising 83
plan@@ 83
hydro@@ 83
destroy 83
ladies 83
educated 83
captured 83
Bang 83
dolphins 83
loc@@ 83
an-@@ 83
telescope 83
shine 83
meetings 83
White 83
dedicated 83
Nations 83
consistent 83
washing 83
Woman 83
actors 83
adding 83
duc@@ 83
comm@@ 83
ret@@ 83
soli@@ 83
dominant 83
judge 83
bias 83
electronics 83
Talk 83
continues 83
scales 83
strategies 83
views 83
-and-@@ 83
legacy 83
governance 83
stations 83
exposed 83
earn 83
sheep 83
collecting 83
bars 83
charity 83
domin@@ 83
equality 82
positions 82
by@@ 82
universities 82
script 82
darkness 82
chosen 82
drove 82
contribute 82
theories 82
pet 82
northern 82
ue 82
unding 82
13@@ 82
curiosity 82
mechanics 82
ute 82
snow 82
simplicity 82
biologists 82
son@@ 82
verse 82
rice 82
95 82
pool 82
inspiring 82
tired 82
Global 82
stable 82
invite 82
dated 82
chest 82
arity 82
drill 82
electro@@ 82
by-@@ 82
crying 82
shell 82
apple 82
anthrop@@ 82
aking 82
optimistic 82
SS 82
cash 82
motivation 82
official 82
tap 82
qui@@ 82
minister 82
smoking 82
spoken 82
searching 82
silent 82
oned 82
ire 82
hungry 82
route 81
sti@@ 81
essence 81
Dan 81
microscope 81
neuroscience 81
talent 81
amongst 81
ented 81
efforts 81
journalist 81
Y 81
stores 81
eting 81
oldest 81
syn@@ 81
bit@@ 81
links 81
speaker 81
globally 81
balloon 81
provides 81
headed 81
8@@ 81
ame 81
dish 81
itable 81
storm 81
sum 81
alists 81
long-@@ 81
cent 81
mig@@ 81
dust 81
Ha@@ 81
filter 81
Bush 81
grateful 81
wer 81
laid 81
neuron 81
dive 81
earthquake 81
finds 81
visited 81
stages 81
letting 81
evolve 81
capita 81
ining 81
advis@@ 80
tears 80
affordable 80
mail 80
gather 80
seeds 80
boundaries 80
Next 80
apparently 80
underground 80
brief 80
usion 80
2004 80
Red 80
ach@@ 80
barely 80
cry 80
layers 80
hire 80
ment@@ 80
pound 80
ingredients 80
bill 80
colon@@ 80
shock 80
sheet 80
communications 80
passing 80
Uganda 80
herself 80
facial 80
served 80
anxiety 80
cats 80
arian 80
shirt 80
tile 80
controls 80
suicide 80
domestic 80
footprint 80
amp@@ 80
ums 80
ough 80
elsewhere 80
founded 80
pregnant 79
advance 79
innovations 79
flip 79
defense 79
Be 79
eling 79
26 79
stops 79
Ru@@ 79
tragedy 79
reflect 79
unds 79
limit 79
beer 79
r 79
thin@@ 79
linear 79
fur@@ 79
ple@@ 79
transi@@ 79
actor 79
loud 79
ement 79
heaven 79
football 79
graphic 79
ids 79
reefs 79
with@@ 79
Voice 79
23 79
orange 79
agency 79
adapt 79
mel@@ 79
frequency 79
picking 79
contains 79
fruit 79
scre@@ 79
aircraft 79
identified 78
Jewish 78
seats 78
itation 78
bo 78
afterwards 78
berg 78
General 78
extract 78
rats 78
informed 78
mented 78
predic@@ 78
spots 78
pilot 78
react 78
super-@@ 78
granted 78
determined 78
4,000 78
Hello 78
romantic 78
sel@@ 78
surfaces 78
symbols 78
distra@@ 78
blo@@ 78
fla@@ 78
realm 78
dirty 78
methods 78
holds 78
0@@ 78
polar 78
announced 78
beliefs 78
high@@ 78
speakers 78
cted 78
mechanisms 78
Bur@@ 78
east 78
nets 78
vir@@ 78
database 77
transparent 77
integrated 77
tie 77
fer 77
crops 77
mining 77
Italy 77
mation 77
physicist 77
Am@@ 77
isolated 77
consume 77
dating 77
test@@ 77
brown 77
person@@ 77
genius 77
crucial 77
im 77
algorithm 77
lied 77
Children 77
figuring 77
allo@@ 77
trends 77
cies 77
Hollywood 77
hab@@ 77
Ten 77
ency 77
toys 77
calculate 77
neural 77
Space 77
inspire 77
cup 77
diagram 77
tab@@ 77
passwords 77
contract 77
delivered 77
fifth 77
lon@@ 77
viral 77
terrorists 77
ina 77
vertical 77
rank 77
transparency 77
32 77
ll 77
ce@@ 77
essed 77
yours 77
initial 77
To@@ 77
eness 77
yers 77
explo@@ 77
aring 77
essing 77
musicians 77
Time 76
mid@@ 76
ams 76
hol@@ 76
Bible 76
strangers 76
th-@@ 76
demonstrate 76
boards 76
vit@@ 76
vable 76
worthy 76
injury 76
capability 76
chimpanzees 76
chairs 76
ell 76
tiles 76
Whether 76
de-@@ 76
sely 76
circles 76
ung@@ 76
kin@@ 76
pon@@ 76
lungs 76
thers 76
dness 76
improvement 76
motiv@@ 76
pe 76
suggesting 76
richer 76
depressed 76
cs 76
mut@@ 76
Mom 76
farmer 76
pulling 76
ey@@ 76
writers 75
mad 75
Te@@ 75
aming 75
stimul@@ 75
category 75
participants 75
Sea 75
Oxford 75
grandchildren 75
dence 75
painted 75
tour 75
pen 75
phot@@ 75
lens 75
fluid 75
Rio 75
lecture 75
treatments 75
accidents 75
shrimp 75
ll@@ 75
diagnosed 75
fan 75
banks 75
san@@ 75
tuna 75
happier 75
breaks 75
sport 75
pace 75
edges 75
Martin 75
author 75
BF 75
uncomfortable 75
reform 75
laser 75
mand@@ 75
sales 75
answered 75
ik@@ 75
patent 75
pig 75
proper 75
El@@ 75
Ros@@ 75
elections 75
Soviet 74
inch 74
Frank 74
hyper@@ 74
meal 74
golf 74
tricks 74
tom@@ 74
iness 74
gam@@ 74
includes 74
alities 74
dom@@ 74
separated 74
predictions 74
dec@@ 74
variation 74
reduction 74
Nature 74
Video 74
photographer 74
photography 74
conclude 74
utter 74
welcome 74
but@@ 74
ridiculous 74
fiber 74
emerge 74
neg@@ 74
reputation 74
capit@@ 74
ium 74
co 74
thick 74
ored 74
ern@@ 74
reduced 74
characteristics 74
protecting 74
cont@@ 74
parties 74
pink 74
origami 74
mode 74
autonomous 74
frac@@ 74
restri@@ 74
PM 74
eye@@ 74
chapter 74
wil@@ 74
dozens 74
pla@@ 74
ignorance 74
neighbor 74
tank 74
Rwanda 74
plot 74
reports 74
quit 74
glo@@ 74
Ocean 73
impacts 73
consequence 73
Florida 73
static 73
weak@@ 73
cher 73
shed 73
criminal 73
ene 73
returned 73
respec@@ 73
encounter 73
Obviously 73
voc@@ 73
Back 73
aches 73
teenagers 73
bound 73
Tom 73
life-@@ 73
micro-@@ 73
Pole 73
Never 73
Ab@@ 73
smallpox 73
dist@@ 73
synthetic 73
bags 73
quar@@ 73
wash 73
ang@@ 73
precise 73
blame 73
Human 73
hanging 73
ecosystems 73
briefly 73
Boy 73
pitch 73
agricultural 73
revenue 73
Things 73
dictionary 73
debt 73
owner 73
Ethiopia 73
unlikely 73
handed 73
Arabic 73
2006 73
acks 73
cellular 73
Me 73
glasses 73
collec@@ 73
poet 73
agencies 73
ster@@ 72
ills 72
shots 72
gue 72
drivers 72
tured 72
rolling 72
cast 72
apes 72
bin@@ 72
kil@@ 72
Isn 72
flexible 72
power@@ 72
attract 72
don@@ 72
throwing 72
myth 72
depth 72
Mil@@ 72
reminded 72
ail@@ 72
Bra@@ 72
resistant 72
matic 72
Eastern 72
expanding 72
Dis@@ 72
limb 72
trucks 72
glad 72
was@@ 72
globalization 72
diving 72
human@@ 72
landed 72
reef 72
wal@@ 72
Sur@@ 72
crossing 72
rot@@ 72
Department 72
aling 72
acted 72
federal 72
Tor@@ 72
2001 72
opens 72
eted 72
naked 72
elected 72
vital 72
Cre@@ 72
pros@@ 72
originally 72
iron 72
ful@@ 72
istic 72
winning 72
sin@@ 72
facility 71
250 71
dress 71
clients 71
daughters 71
Make 71
nurses 71
programming 71
sand@@ 71
Pal@@ 71
tribes 71
pin@@ 71
Ti@@ 71
threw 71
underlying 71
We@@ 71
bom@@ 71
predicted 71
October 71
discoveries 71
len@@ 71
lessly 71
Green 71
inches 71
Act 71
armed 71
pushed 71
confident 71
measures 71
rarely 71
caring 71
cla@@ 71
scores 71
eping 71
rent 71
chaos 71
assumptions 71
Alzheimer 71
Cal@@ 71
dig 71
sor@@ 71
primarily 71
origin 71
sentences 71
pointing 71
dinosaur 70
ol 70
belong 70
Gi@@ 70
fought 70
33 70
yp@@ 70
intervention 70
begun 70
Lu@@ 70
experimental 70
bubbles 70
serving 70
mem@@ 70
Was 70
tes 70
articles 70
85 70
ased 70
cyber@@ 70
assi@@ 70
reveal 70
sub-@@ 70
roots 70
chem@@ 70
genocide 70
announ@@ 70
super 70
ok@@ 70
800 70
translated 70
Br@@ 70
Ber@@ 70
shopping 70
oxytocin 70
gate 70
extended 70
ops 70
clos@@ 70
knee 70
targets 70
skull 70
artistic 70
tension 70
aked 70
spon@@ 70
attractive 70
inevitable 70
external 69
primitive 69
dest 69
focusing 69
alien 69
val 69
stat@@ 69
ax@@ 69
bow 69
rays 69
promote 69
attitude 69
cus 69
1990s 69
wings 69
partly 69
analyze 69
spectacular 69
observation 69
elderly 69
stairs 69
review 69
gases 69
sensory 69
objective 69
perf@@ 69
poster 69
supported 69
Gra@@ 69
cent@@ 69
Vi@@ 69
emerged 69
pil@@ 69
-up 69
2003 69
sits 69
win@@ 69
ind 69
Peter 69
panels 69
forgotten 69
entering 69
narrow 69
output 69
consciously 69
Da@@ 69
30,000 69
expansion 69
gonna 69
shelter 69
farming 69
helpful 68
pursue 68
shadow 68
Law 68
satellites 68
robust 68
pairs 68
River 68
participation 68
tt@@ 68
guide 68
cane 68
documents 68
dimension 68
700 68
weapon 68
court 68
permission 68
atively 68
tribe 68
pit@@ 68
lake 68
inten@@ 68
sleeping 68
proposed 68
whis@@ 68
harvest 68
0.@@ 68
atic 68
ney 68
difficulty 68
thy 68
regime 68
soap 68
covering 68
silly 68
brave 68
constitu@@ 68
killer 68
pyramid 68
ensure 68
leverage 68
operations 68
smarter 68
sisters 68
bli@@ 68
oes 68
fortune 68
dents 68
mic 68
Somebody 68
buried 68
imagery 68
Sorry 68
sn@@ 68
resilience 68
luck 68
Col@@ 68
eline 68
Wor@@ 68
rain@@ 68
magical 68
suggested 68
A-@@ 68
marks 68
1970s 68
stored 68
copyright 68
shops 68
hitting 68
Jesus 67
Prize 67
domain 67
youth 67
elite 67
competitive 67
collabor@@ 67
club 67
elephants 67
dest@@ 67
perceive 67
ap 67
wet@@ 67
merely 67
sei@@ 67
sharp 67
colonies 67
ole 67
southern 67
additional 67
representation 67
immediate 67
op 67
flows 67
adopted 67
ka 67
subtle 67
ress 67
watts 67
CEO 67
rapid 67
Rob@@ 67
che 67
Should 67
whatsoever 67
fabric 67
radically 67
gram 67
expectancy 67
Bas@@ 67
dialogue 67
gathering 67
biodiversity 67
keyboard 67
spr@@ 67
cen@@ 67
ous@@ 67
.com 67
failing 67
Within 67
ater 67
explaining 67
struggling 67
frog 67
openness 67
1980s 67
refer@@ 67
photographed 67
shocked 67
mist@@ 67
soldier 67
audi@@ 67
Wall 66
hill 66
Jim 66
ensi@@ 66
slavery 66
cho@@ 66
Pra@@ 66
quest 66
Third 66
Derek 66
Child 66
February 66
Long 66
Cambridge 66
shifting 66
ories 66
favor 66
ben@@ 66
baseball 66
Saturn 66
bears 66
profits 66
bucks 66
pump 66
instructions 66
demonstration 66
completed 66
Man@@ 66
Russian 66
clear@@ 66
nom@@ 66
Ph@@ 66
successfully 66
contain 66
Tur@@ 66
interestingly 66
fabulous 66
climbing 66
refer 66
stroke 66
tune 66
aver@@ 66
ref@@ 66
chief 66
ls 66
3.@@ 66
translation 66
ected 66
ddy 66
buil@@ 66
Bob 66
industries 66
unbelievable 66
Mer@@ 66
arrive 66
extend 66
refugees 66
iest 66
ements 66
exponential 66
venti@@ 66
methane 65
28 65
infection 65
plug 65
wis@@ 65
mixed 65
ape 65
ban 65
dolphin 65
cou@@ 65
Without 65
pra@@ 65
pretend 65
je@@ 65
ust 65
estimated 65
120 65
confused 65
citizen 65
vacuum 65
sacred 65
imaging 65
None 65
discuss 65
invested 65
ath@@ 65
bot@@ 65
custom@@ 65
ulated 65
ya 65
mus@@ 65
Norway 65
sandwich 65
fathers 65
hackers 65
skeleton 65
adap@@ 65
ishing 65
architectural 65
bis@@ 65
upset 65
closing 65
backs 65
mines 65
reliable 65
brain@@ 65
6,000 65
Tri@@ 65
printed 65
lawyer 65
shelf 65
terrorist 65
tig@@ 65
terror 65
ony 65
xi@@ 65
array 65
asses 65
suffered 65
brush 65
fortunate 65
profile 65
yo@@ 65
surprisingly 65
rebuild 65
Greek 65
refugee 65
wheelchair 65
au 65
description 65
audio 65
collaborative 64
compelling 64
run@@ 64
Mark 64
mol@@ 64
seeking 64
bizarre 64
strongly 64
stor@@ 64
simulation 64
threats 64
Mary 64
uncertainty 64
professionals 64
counting 64
vari@@ 64
rhythm 64
raped 64
located 64
lea@@ 64
Professor 64
tends 64
modi@@ 64
tumors 64
infl@@ 64
fancy 64
fragile 64
capabilities 64
intuitive 64
download 64
lawyers 64
comment 64
charges 64
cable 64
prepare 64
stranger 64
gin 64
dur@@ 64
nurse 64
Turkey 64
nor@@ 64
ards 64
ai 64
ani@@ 64
discipline 64
remembered 64
ation@@ 64
host 64
fits 64
kick 64
blogs 64
exten@@ 64
suspect 64
hey 64
Arctic 64
parti@@ 64
La 64
pp@@ 64
kno@@ 64
wider 64
miracle 64
ens@@ 64
Joe 64
cartoons 64
replicate 64
choosing 64
bin 64
microbial 64
broad 63
publish 63
organizing 63
akes 63
intuition 63
fraction 63
mates 63
affects 63
icon 63
Islands 63
experiencing 63
morality 63
Jo@@ 63
Kar@@ 63
consul@@ 63
29 63
agent 63
cer 63
transfer 63
woke 63
Smith 63
pled 63
lec@@ 63
Mol@@ 63
enabled 63
pole 63
pleasant 63
Put 63
needle 63
Blue 63
realizing 63
tracks 63
ental 63
cake 63
vers@@ 63
convert 63
garage 63
ost 63
genetics 63
tackle 63
priv@@ 63
golden 63
urge 63
Beijing 63
physician 63
transplant 63
expecting 63
milli@@ 63
gradually 63
December 63
ba 63
ading 63
iling 63
ana 63
engineered 63
mysterious 63
restore 63
threshold 63
crack 63
Ear@@ 63
magnitude 63
ential 63
boom 63
nat@@ 63
dear 63
sheets 63
classi@@ 63
cycles 63
ands 63
ump 63
den 63
main@@ 63
n-@@ 63
paralyzed 63
commit@@ 63
authorities 63
demon@@ 63
qualities 62
ints 62
trajectory 62
instant 62
mentally 62
improved 62
smooth 62
optim@@ 62
unable 62
equ@@ 62
od@@ 62
six-@@ 62
doc@@ 62
Dad 62
glamorous 62
reactions 62
boss 62
asks 62
cau@@ 62
ov@@ 62
warning 62
tap@@ 62
mold 62
remaining 62
physicists 62
temporary 62
é 62
Ta@@ 62
vulnerability 62
Minister 62
Christian 62
ven 62
besides 62
occurs 62
profoundly 62
rul@@ 62
shipping 62
traditions 62
promised 62
included 62
tone 62
log@@ 62
widely 62
foods 62
beneath 62
diver@@ 62
ay@@ 62
senior 62
demands 62
waters 62
sam@@ 62
bled 62
staying 62
iring 62
rivers 62
let@@ 62
Can@@ 62
enables 62
ert 62
victim 62
conservative 62
extinction 62
ownership 62
pride 62
deserve 62
chips 62
ells 62
sky@@ 62
structural 62
N 62
initially 62
chances 62
arily 62
tent 62
cel@@ 62
smo@@ 62
ros@@ 62
hunting 62
currency 62
osis 62
tower 62
sized 62
moun@@ 61
flowing 61
plain 61
pot@@ 61
preserve 61
KB 61
cross-@@ 61
fires 61
decl@@ 61
antly 61
Am 61
rever@@ 61
jumped 61
approaches 61
stones 61
rubber 61
hypothesis 61
scenario 61
sons 61
trash 61
Sal@@ 61
facilities 61
tendency 61
substance 61
Eric 61
thesis 61
detailed 61
wat@@ 61
odds 61
&apos;clock 61
logical 61
utili@@ 61
Ph.D. 61
winds 61
Girl 61
adventure 61
peoples 61
incentive 61
sty 61
errors 61
regret 61
established 61
printer 61
investing 61
observe 61
portion 61
musician 61
compassionate 61
Gore 61
homework 61
Mother 61
human-@@ 61
Six 61
diff@@ 61
gor@@ 61
soup 61
shit 61
footage 61
drone 61
conducted 61
Du@@ 61
secrets 61
assumption 61
kes 61
enhan@@ 61
planes 61
rit@@ 61
gaps 61
nerve 61
pack@@ 61
Homo 61
comments 61
gods 61
survived 61
book@@ 61
nights 61
influenced 61
peer 61
Gates 61
optimism 60
historic 60
simultaneously 60
steal 60
sensor 60
engines 60
diplom@@ 60
Ben 60
spin 60
mindset 60
aggressive 60
nutrients 60
interpretation 60
ope 60
comparison 60
strategic 60
thri@@ 60
rough 60
Taliban 60
visu@@ 60
instantly 60
classical 60
dor@@ 60
witness 60
queen 60
burned 60
ham 60
50s 60
ken@@ 60
sum@@ 60
rush 60
Tom@@ 60
pris@@ 60
colored 60
detection 60
clo@@ 60
Bronx 60
curriculum 60
é@@ 60
folding 60
clothing 60
insect 60
Den@@ 60
bombs 60
pigs 60
exception 60
bug 60
channels 60
arri@@ 60
genetically 60
frustrated 60
insights 60
Northern 60
mood 60
Bel@@ 60
improving 60
loads 60
Tra@@ 60
pandemic 60
wildlife 60
grandparents 60
Ri@@ 60
gathered 60
neat 60
worms 60
acked 60
vel 60
ong 60
dal 60
Whatever 60
lions 60
accum@@ 60
factories 60
atomic 60
wealthy 60
entrepreneur 60
anonymous 60
purposes 60
sto@@ 60
significantly 60
Sir 60
ook 60
reducing 60
Dan@@ 60
judgment 59
vor@@ 59
Alexander 59
wea@@ 59
bble 59
acking 59
categories 59
god 59
accounts 59
panel 59
keys 59
graphics 59
outer 59
oring 59
proto@@ 59
threatened 59
liberal 59
command 59
versions 59
civic 59
branch 59
courses 59
law@@ 59
un 59
La@@ 59
spar@@ 59
performed 59
expertise 59
flash@@ 59
nuts 59
195@@ 59
connects 59
2,@@ 59
restaurants 59
ign@@ 59
obstacles 59
subway 59
inate 59
socially 59
bus@@ 59
supporting 59
healthier 59
gol@@ 59
journalists 59
ye 59
egg 59
Char@@ 59
gotta 59
hood 59
compos@@ 59
lit 59
Howard 59
Research 59
remained 59
investig@@ 59
kills 59
contemporary 59
subsi@@ 59
unprecedented 59
cheese 59
ander 59
dimensional 59
simpli@@ 59
damn 59
rape 59
gentleman 59
innocent 59
twi@@ 59
Cur@@ 59
explains 59
analogy 59
di 59
sacrifice 59
extension 59
ulating 59
administ@@ 59
sou@@ 59
agreement 59
1960 59
escent 59
medication 59
hat 59
bottles 59
Bro@@ 58
prescri@@ 58
ome 58
tage 58
Cl@@ 58
inal 58
cosmic 58
formation 58
cle@@ 58
Vietnam 58
fastest 58
dressed 58
eaten 58
demographic 58
rab@@ 58
Cap@@ 58
legitimate 58
tionally 58
Square 58
2011 58
hot@@ 58
reminds 58
a.m. 58
discovering 58
impression 58
motor@@ 58
deck 58
airplanes 58
ty-@@ 58
Saudi 58
uncle 58
salt 58
gained 58
Southern 58
females 58
virtu@@ 58
nonprofit 58
fol@@ 58
delivery 58
reasonable 58
nation@@ 58
March 58
gest@@ 58
Although 58
Je@@ 58
eter 58
drawings 58
ty@@ 58
eff@@ 58
Council 58
coat 58
compete 58
intensive 58
unk@@ 58
someday 58
trains 58
assemble 58
Both 58
ly@@ 58
Sch@@ 58
Spain 58
osphere 58
adapted 58
astro@@ 58
Cu@@ 58
plum@@ 58
pling 58
drones 58
simul@@ 58
span 58
classrooms 58
whol@@ 58
eled 58
Mike 57
sculp@@ 57
islands 57
poems 57
occasionally 57
tex@@ 57
1950s 57
-to-@@ 57
popul@@ 57
Whereas 57
My@@ 57
loaded 57
van 57
catching 57
continuing 57
passenger 57
circuits 57
matrix 57
bulb 57
sing@@ 57
decor@@ 57
concert 57
200,000 57
vag@@ 57
enter@@ 57
airport 57
outs 57
loves 57
distinct 57
homeless 57
entropy 57
district 57
osp@@ 57
fears 57
tioned 57
ord 57
guns 57
closest 57
generous 57
excellent 57
anded 57
passive 57
officer 57
tubes 57
excitement 57
drop@@ 57
bend 57
alcohol 57
garbage 57
believes 57
habit 57
rituals 57
broad@@ 57
astonishing 57
agents 57
hop 57
explosion 57
Indians 57
suck 57
camps 57
vation 57
canopy 57
clay 57
ane 57
Secondly 57
file 57
eral 57
Peace 57
unity 57
pause 57
scanner 57
NGOs 57
corporations 57
dose 57
Spanish 57
tually 57
dung 57
lows 57
grat@@ 56
Same 56
quad@@ 56
Moore 56
realistic 56
leap 56
comple@@ 56
han@@ 56
phenomena 56
approaching 56
lamp 56
visions 56
robotics 56
vegetables 56
investors 56
applying 56
monitoring 56
usive 56
prediction 56
seas 56
vessel 56
tragic 56
collapsed 56
eful 56
X-ray 56
neck 56
encouraged 56
thr@@ 56
recover 56
household 56
Watch 56
full-@@ 56
strike 56
cour@@ 56
arrested 56
computation 56
ool 56
farms 56
oth 56
ou 56
posi@@ 56
incre@@ 56
yield 56
arti@@ 56
signature 56
sty@@ 56
manipul@@ 56
or-@@ 56
thumb 56
boats 56
Technology 56
aching 56
nearby 56
impressive 56
fortunately 56
2012 56
2.@@ 56
luxury 56
thro@@ 56
Dutch 56
bat@@ 56
ition 56
terribly 56
achievement 56
comedy 56
Love 56
cuts 56
continents 56
xes 56
tongue 56
potent 56
Ge@@ 56
gear 56
appearance 56
portrait 56
ongoing 56
Antarctica 56
ecological 56
bathroom 56
graduated 56
items 56
earliest 56
tissues 56
loving 56
ticket 56
Min@@ 56
wires 56
peaceful 56
ili@@ 56
pit 56
vagina 56
alle@@ 56
burden 56
sively 56
voting 56
mentation 56
lam@@ 56
deter@@ 56
honey 56
ush@@ 56
rei@@ 56
package 56
cious 56
Delhi 56
stability 56
mot@@ 56
ails 56
ening 56
replaced 55
crop 55
generating 55
landscapes 55
cotton 55
forgot 55
unded 55
uted 55
prop@@ 55
traits 55
philosopher 55
separ@@ 55
prisoners 55
Being 55
emails 55
phantom 55
addiction 55
rop@@ 55
perceived 55
plates 55
combat 55
navigate 55
managers 55
arm@@ 55
proven 55
alternatives 55
construct 55
jellyfish 55
New@@ 55
Queen 55
religions 55
divi@@ 55
Italian 55
teenager 55
shar@@ 55
ologically 55
ping 55
Shanghai 55
eal 55
branches 55
beating 55
perpet@@ 55
badly 55
Sunday 55
diagnosis 55
Fif@@ 55
tsunami 55
mapping 55
biom@@ 55
opera 55
ogram 55
tis 55
speaks 55
interviewed 55
fal@@ 55
2050 55
precious 55
Tre@@ 55
sauce 55
Ste@@ 55
RB 55
synchron@@ 55
freely 55
Sel@@ 55
affecting 55
ght@@ 55
crew 55
devil 55
ethnic 55
toes 55
ough@@ 55
W 55
seemingly 55
rated 55
ette 55
Gro@@ 55
zo@@ 55
Age 55
sch@@ 55
sink 55
dial 55
estimates 55
Up 55
Design 55
cis@@ 55
idi@@ 55
ference 55
Fa@@ 55
wheels 55
propose 55
fallen 54
previously 54
bored 54
ules 54
eyed 54
endangered 54
aim@@ 54
destiny 54
nutri@@ 54
chimpanzee 54
specialized 54
annual 54
highway 54
campus 54
customer 54
ace@@ 54
imm@@ 54
obese 54
ratio 54
communic@@ 54
relation 54
Por@@ 54
insi@@ 54
collectively 54
FBI 54
helicopter 54
Leonardo 54
Until 54
10-@@ 54
trace 54
orders 54
mobility 54
activate 54
Jack 54
Na@@ 54
ousness 54
compla@@ 54
ine@@ 54
rings 54
parks 54
2002 54
US 54
administration 54
time-@@ 54
fusion 54
Nelson 54
pockets 54
pig@@ 54
assistance 54
dependence 54
bat 54
spra@@ 54
arians 54
Tru@@ 54
flags 54
hiding 54
habits 54
challenged 54
proportion 54
ari 54
distances 54
Grand 54
ily 54
fibers 54
brow@@ 54
elegant 54
ease 54
marry 54
sym@@ 54
posted 54
sever@@ 54
During 54
Som@@ 54
straightforward 54
empowered 54
Cri@@ 54
As@@ 54
Ray 54
offering 54
suits 54
responses 54
rics 54
password 54
disability 54
rupt 54
30-@@ 54
biologist 54
workforce 54
approved 54
procedure 54
ish@@ 54
selfish 54
pt 54
k-@@ 54
posed 54
Little 54
resolve 54
tz 54
decrease 54
Johnson 54
assignment 54
blowing 54
yourselves 54
correc@@ 54
ab 54
offices 54
knife 54
first-@@ 54
smallest 54
safer 54
transforming 54
teenage 53
breeding 53
thermal 53
Pri@@ 53
succeeded 53
lion 53
wheat 53
sensation 53
hemisphere 53
researcher 53
explored 53
Lincoln 53
schizophrenia 53
intended 53
mathematicians 53
hired 53
open-@@ 53
builds 53
critici@@ 53
July 53
despair 53
thwest 53
autom@@ 53
Henry 53
mayor 53
defining 53
Koran 53
ambi@@ 53
stepped 53
guarantee 53
scratch 53
Au@@ 53
tful 53
ignored 53
unk 53
deb@@ 53
cooperate 53
jet 53
free@@ 53
caves 53
estate 53
column 53
Except 53
dict@@ 53
mind@@ 53
pants 53
stopping 53
troops 53
retirement 53
blown 53
eng@@ 53
memes 53
holi@@ 53
predictable 53
play@@ 53
pper 53
bats 53
hardest 53
ile 53
hon@@ 53
hormone 53
Brian 53
Air@@ 53
neutral 53
desperately 53
claims 53
ecology 53
exam@@ 53
scanning 53
dopamine 53
typ@@ 53
20-@@ 53
audiences 53
read@@ 53
Santa 53
packed 53
high-tech 53
panic 53
yard 53
ubiquitous 53
client 53
fan@@ 53
breakfast 53
loan 53
storage 53
slums 53
Ford 53
ols 53
dat@@ 53
dominated 53
sul@@ 53
miserable 53
gging 53
ond 53
sciences 53
Ser@@ 53
native 53
jazz 52
silver 52
observed 52
ggers 52
Yorker 52
rail@@ 52
gan@@ 52
horizon 52
tives 52
terrain 52
recru@@ 52
taining 52
arguing 52
Inter@@ 52
manipulate 52
Sure 52
mes 52
unhappy 52
plac@@ 52
donor 52
etic 52
hook 52
drops 52
ograp@@ 52
evalu@@ 52
pursuit 52
Bre@@ 52
locally 52
convenient 52
interpre@@ 52
thor@@ 52
profession 52
clue 52
wedding 52
slime 52
spee@@ 52
St. 52
cocaine 52
anten@@ 52
Q@@ 52
connectivity 52
hard@@ 52
poin@@ 52
labs 52
clinics 52
scenes 52
residents 52
ampli@@ 52
quot@@ 52
tized 52
inging 52
rose 52
vin@@ 52
locations 52
purch@@ 52
regard 52
din@@ 52
absence 52
constraints 52
motivated 52
Friday 52
kingdom 52
Sil@@ 52
overnight 52
wind@@ 52
ature 52
Its 52
ville 52
transmission 52
terrifying 52
actively 52
equations 52
Anyone 52
concerns 52
asteroid 52
immer@@ 52
asing 52
en-@@ 52
electron 52
gated 52
pupp@@ 52
40,000 52
continuous 52
immig@@ 52
ooh 52
gged 52
territory 52
attacked 52
encouraging 52
dered 52
L.A. 52
rainforest 52
safely 52
describes 52
puzzles 52
Suddenly 52
off-@@ 52
gy 52
correctly 52
interior 52
concentrated 52
gent 52
dent 52
Anybody 52
ffs 52
contrary 52
drew 52
ema@@ 52
stretch 51
calculations 51
batt@@ 51
V 51
newspapers 51
reflection 51
preparing 51
contributed 51
psychologist 51
surrounding 51
August 51
pet@@ 51
prevention 51
label 51
altitude 51
College 51
reproduce 51
stays 51
imagin@@ 51
extraordinarily 51
division 51
20s 51
Carolina 51
formula 51
exposure 51
inst@@ 51
tivity 51
rant 51
prosperity 51
experim@@ 51
infections 51
inevitably 51
Silicon 51
cared 51
ama 51
compli@@ 51
Church 51
digi@@ 51
Wait 51
tee 51
-S@@ 51
doubled 51
marketplace 51
headlines 51
fate 51
honestly 51
sible 51
rest@@ 51
beaten 51
absor@@ 51
Mandela 51
ral 51
assets 51
asts 51
bedroom 51
Bay 51
consumed 51
listened 51
Stage 51
dumb 51
Don@@ 51
no-@@ 51
geometry 51
Stop 51
deci@@ 51
kable 51
pose 51
mainstream 51
heart@@ 51
advances 51
spill 51
spor@@ 51
proce@@ 51
rope 51
1998 51
lowest 51
proved 51
esc@@ 51
blank 51
swi@@ 51
limitations 51
gui@@ 51
reli@@ 51
motors 51
Industrial 51
failures 51
western 51
offers 51
gens 51
sustain 51
ray 51
bulbs 51
viewer 51
pois@@ 51
dropping 51
recycling 51
1960s 51
barrier 51
Stu@@ 51
valley 51
relief 51
bands 51
palm 51
mill 51
Lab 51
orchestra 51
kin 51
economist 51
mon 51
teen 51
wound 51
At@@ 51
electrodes 51
contamin@@ 51
volunteer 51
25@@ 50
approached 50
therapies 50
tropical 50
strings 50
disabled 50
supermarket 50
48 50
guilty 50
halfway 50
lanes 50
selected 50
cum@@ 50
.C. 50
Feynman 50
Probably 50
ef@@ 50
esses 50
ambitious 50
ired 50
uring 50
bills 50
initiative 50
tel@@ 50
ama@@ 50
hometown 50
cliff 50
phosphorus 50
Res@@ 50
ent-@@ 50
ich 50
activist 50
inhab@@ 50
demonstrated 50
1990 50
dump@@ 50
missions 50
workplace 50
resi@@ 50
kindness 50
trivial 50
progres@@ 50
grades 50
humanitarian 50
concentration 50
ashed 50
perc@@ 50
alistic 50
sections 50
Indonesia 50
cosm@@ 50
avi@@ 50
coin 50
tele@@ 50
beautifully 50
storytelling 50
decre@@ 50
I. 50
MT 50
communicating 50
terrified 50
ull 50
fit@@ 50
manager 50
eds 50
Star 50
controversial 50
prey 50
kn@@ 50
hes 50
criminals 50
ja@@ 50
Brooklyn 50
physicians 50
nodes 50
leather 50
toilets 50
installed 50
convey 50
installation 50
weigh 50
cris@@ 50
follows 50
cricket 50
Almost 50
Out 50
reactor 50
rolled 50
amazingly 50
lin 50
lab@@ 50
believing 50
Sen@@ 50
confront 50
ured 50
crimes 50
Far@@ 50
athletes 50
amazed 50
eig@@ 50
foundations 50
Air 50
heading 50
educate 49
gency 49
character@@ 49
Em@@ 49
mature 49
illumin@@ 49
veter@@ 49
System 49
great-@@ 49
boo@@ 49
rowing 49
concei@@ 49
tast@@ 49
cows 49
pills 49
Zealand 49
fluorescent 49
glamour 49
striking 49
black@@ 49
cancers 49
sexy 49
distri@@ 49
worm 49
Lake 49
Security 49
narratives 49
memor@@ 49
proposition 49
taxes 49
cker 49
institutional 49
lifted 49
tiveness 49
temp@@ 49
onal 49
Hong 49
gesture 49
Someone 49
storms 49
funds 49
elementary 49
covers 49
Asian 49
receiving 49
civilizations 49
deepest 49
manner 49
mushroom 49
commit 49
tables 49
concer@@ 49
trou@@ 49
Gen@@ 49
st-@@ 49
politically 49
smar@@ 49
Pu@@ 49
Ver@@ 49
Fin@@ 49
aks 49
telescopes 49
dity 49
tunnel 49
sir 49
tant 49
bacterial 49
likelihood 49
origins 49
illustrate 49
punishment 49
purple 49
ushing 49
enjoying 49
Coke 49
conc@@ 49
folded 49
calories 49
prof@@ 49
officials 49
prints 49
personalized 49
lists 49
behalf 49
adjust 49
supplies 49
tual 49
competing 49
bite 49
path@@ 49
grasp 49
interviews 49
coun@@ 49
syndrome 49
enemies 49
hoo@@ 49
blindness 49
expedition 49
magnificent 49
psychologists 49
eight-@@ 49
sixth 49
nerves 49
psychiat@@ 49
194@@ 49
Qaeda 49
William 49
renewable 49
Mad@@ 49
onic 48
fies 48
cap 48
expressions 48
vacc@@ 48
ct 48
ration@@ 48
High 48
verbal 48
poss@@ 48
sake 48
wore 48
defend 48
Social 48
Media 48
stand@@ 48
carb@@ 48
Bor@@ 48
opinions 48
tled 48
algae 48
epi@@ 48
gg@@ 48
Academy 48
trigger 48
Lord 48
burg 48
ives 48
shr@@ 48
tering 48
laptops 48
overhead 48
Monterey 48
Still 48
leaf 48
picks 48
reser@@ 48
dian 48
cryst@@ 48
glucose 48
Kevin 48
variations 48
ities 48
Fi@@ 48
JH 48
November 48
prostate 48
pharmaceutical 48
aded 48
healing 48
proph@@ 48
psychop@@ 48
request 48
mim@@ 48
blan@@ 48
technically 48
minimum 48
activists 48
spinning 48
Berlin 48
ceremony 48
historically 48
dot@@ 48
grave 48
indigenous 48
recipe 48
tax@@ 48
Hall 48
lonely 48
37 48
staring 48
double-@@ 48
digit 48
worrying 48
x-@@ 48
pizza 48
charged 48
yl@@ 48
lined 48
gig@@ 48
binary 48
sage 48
sperm 48
curves 48
side@@ 48
wage 48
expressed 48
Ka@@ 48
sm 48
mp@@ 48
hierarchy 48
dates 48
prin@@ 48
devastating 48
credi@@ 48
acknowledge 48
sanitation 48
glue 48
entry 48
partnership 48
six@@ 48
tou@@ 48
colli@@ 48
regardless 48
regul@@ 48
eding 48
frequently 48
pad 48
fron@@ 48
disper@@ 48
pill 48
eri@@ 48
buses 48
deals 48
Moon 48
mobili@@ 48
SW 48
fun@@ 48
190@@ 48
banking 48
plastics 47
SP 47
legislation 47
mic@@ 47
wan@@ 47
Rather 47
peac@@ 47
fisheries 47
47 47
intensity 47
nes@@ 47
Cam@@ 47
Swiss 47
brate 47
orial 47
acid 47
sufficient 47
conductor 47
grap@@ 47
Chile 47
bol@@ 47
day@@ 47
Listen 47
comic 47
after@@ 47
belly 47
Coast 47
sni@@ 47
ter-@@ 47
mos@@ 47
reserves 47
lay@@ 47
une 47
Dec@@ 47
zones 47
Tanzania 47
lers 47
jec@@ 47
55 47
tedly 47
journal 47
revealed 47
Ki@@ 47
Hon@@ 47
barriers 47
peers 47
dru@@ 47
websites 47
cher@@ 47
Israeli 47
nasty 47
tolerance 47
readers 47
corners 47
unt@@ 47
tar@@ 47
Mat@@ 47
enjoyed 47
retro@@ 47
responded 47
sale 47
planetary 47
stack 47
documented 47
meals 47
navi@@ 47
Force 47
hes@@ 47
coordin@@ 47
emplo@@ 47
ung 47
dough 47
calcul@@ 47
elev@@ 47
suspended 47
oun@@ 47
messy 47
nitrogen 47
0-@@ 47
mark@@ 47
Stephen 47
mosquito 47
vering 47
independence 47
electrons 47
genomes 47
cate 47
downtown 47
reck@@ 47
item 47
evolving 47
fundament@@ 47
rep@@ 47
batteries 47
sizes 47
whi@@ 47
occurring 47
Through 47
topics 47
upside 47
simpler 47
randomly 47
involve 47
intellec@@ 47
asleep 47
pipe 47
inj@@ 47
Court 47
folds 47
masses 47
belongs 47
advoc@@ 47
eman 47
oming 47
publishing 47
Half 47
desc@@ 47
large-scale 47
dro@@ 47
tate 47
ests 47
ups 46
gras 46
clu@@ 46
self-interest 46
ena 46
cally 46
regularly 46
abandoned 46
attitudes 46
namely 46
West@@ 46
camp@@ 46
eing 46
aqu@@ 46
hel@@ 46
rical 46
construc@@ 46
wer@@ 46
Spec@@ 46
denti@@ 46
burst 46
wishes 46
Geographic 46
craf@@ 46
simplest 46
extr@@ 46
vac@@ 46
acci@@ 46
Bruno 46
skeletal 46
schol@@ 46
port 46
decision-making 46
right-hand 46
rap 46
Switzerland 46
privileged 46
destroying 46
za 46
remarkably 46
Harry 46
whist@@ 46
nur@@ 46
explos@@ 46
sen 46
nee@@ 46
predators 46
yle 46
drag 46
bru@@ 46
Black 46
planted 46
compromise 46
calculated 46
yards 46
temperatures 46
blu@@ 46
uts 46
calm 46
wrap 46
awkward 46
hopes 46
bamboo 46
ession 46
eer 46
measurements 46
Amy 46
smiling 46
minus 46
April 46
Clinton 46
strands 46
connec@@ 46
roles 46
Sar@@ 46
ve-@@ 46
diameter 46
prior 46
immense 46
mak@@ 46
disagree 46
Ireland 46
irony 46
automobile 46
heal 46
thus 46
iry 46
denial 46
glacier 46
T. 46
fresh@@ 46
world-@@ 46
restor@@ 46
anticipate 46
Shakespeare 46
happily 46
wooden 46
Pl@@ 46
Rec@@ 46
vaccines 46
compar@@ 46
labeled 46
Si@@ 46
hr@@ 46
winner 46
dilemma 46
ye@@ 46
Brown 46
oses 46
Watson 46
IBM 46
dden 46
000-@@ 46
blah 46
transl@@ 46
Bangladesh 46
mes@@ 45
Benjamin 45
fired 45
Zero 45
contribution 45
observations 45
hand-@@ 45
recommend 45
melt 45
mud 45
AB 45
SETI 45
trapped 45
jihad 45
susp@@ 45
nowadays 45
ritual 45
harmony 45
injuries 45
medicines 45
priority 45
spot@@ 45
embarrassing 45
realization 45
single-@@ 45
36 45
favorites 45
Bri@@ 45
kiss 45
copies 45
accuracy 45
evol@@ 45
mimic 45
alli@@ 45
instruc@@ 45
unch 45
LG 45
excuse 45
ager 45
compounds 45
lau@@ 45
coverage 45
Organization 45
aim 45
az@@ 45
sends 45
Afghan 45
Brazilian 45
pouring 45
transmit 45
dle 45
insane 45
clubs 45
norms 45
tear 45
aesthetic 45
horri@@ 45
itting 45
ero@@ 45
Bell 45
abundance 45
inci@@ 45
hus@@ 45
recep@@ 45
agers 45
counter 45
pie 45
manual 45
scal@@ 45
pour 45
introduction 45
Gar@@ 45
ang 45
rethink 45
regar@@ 45
submer@@ 45
Arthur 45
mutations 45
ge-@@ 45
hormones 45
1999 45
tains 45
tory 45
iv@@ 45
Thir@@ 45
delicious 45
crossed 45
ght 45
clusters 45
AM 45
gation 45
tize 45
f-@@ 45
bad@@ 45
hacking 45
ly-@@ 45
deployed 45
inhi@@ 45
Open 45
initi@@ 45
bla@@ 45
Aristotle 45
bab@@ 45
landing 45
maximum 45
sheer 45
Pen@@ 45
EM 45
depos@@ 45
cin@@ 45
inger 45
visualization 45
significance 45
sub-Saharan 45
matched 45
ham@@ 45
machinery 45
insulin 45
imagining 45
home@@ 45
cart 45
ital 44
phenomenal 44
cream 44
anim@@ 44
venture 44
glimpse 44
mankind 44
poison 44
textbooks 44
Kids 44
News 44
crow@@ 44
conserv@@ 44
professors 44
eck 44
couples 44
ica 44
guard 44
freezing 44
2030 44
passes 44
demo@@ 44
barrel 44
Pa@@ 44
essions 44
computational 44
wrest@@ 44
72 44
tism 44
cope 44
Mos@@ 44
42 44
Detroit 44
bell 44
comics 44
g-@@ 44
coastal 44
lower@@ 44
pray 44
riding 44
fran@@ 44
fications 44
sequ@@ 44
intention 44
drif@@ 44
voted 44
Singapore 44
touching 44
Abraham 44
steam 44
pencil 44
resist 44
school@@ 44
texture 44
expor@@ 44
continuously 44
intact 44
nearest 44
wa 44
atter 44
Ed@@ 44
Turns 44
realities 44
useless 44
igh@@ 44
strip 44
objec@@ 44
Ladies 44
graphs 44
ridge 44
40@@ 44
wrapped 44
frightening 44
over-@@ 44
conduct 44
Syria 44
planned 44
sectors 44
bridges 44
breakthrough 44
visualize 44
seri@@ 44
deaf 44
trauma 44
crap 44
vice 44
cluster 44
dispar@@ 44
mechan@@ 44
juice 44
expanded 44
bel@@ 44
relatives 44
Tony 44
activated 44
responding 44
mamm@@ 44
Nin@@ 44
democra@@ 44
authentic 44
ity-@@ 44
accomplished 44
momentum 44
fro@@ 44
outs@@ 44
trac@@ 44
suggestion 44
ere 44
hated 44
interpret 44
endi@@ 44
teaches 44
ac 44
candidate 44
Ku@@ 44
shy 44
add@@ 44
understands 44
Olympic 44
recur@@ 44
reflected 44
shore 44
consuming 44
Spe@@ 44
advan@@ 44
cattle 44
attracted 44
findings 44
obe@@ 44
resses 44
overwhelming 44
flash 44
od 44
recycled 44
Greece 43
evapor@@ 43
fear@@ 43
spacecraft 43
ar-@@ 43
materi@@ 43
break@@ 43
stolen 43
Lego 43
96 43
cruel 43
uri@@ 43
1980 43
imit@@ 43
Jews 43
Pretty 43
processor 43
patents 43
stomach 43
rot 43
reaches 43
Dra@@ 43
chimps 43
coding 43
boots 43
distinction 43
cage 43
contained 43
incident 43
transformative 43
icians 43
techni@@ 43
rin@@ 43
programmers 43
proposal 43
stre@@ 43
ires 43
cle 43
Jones 43
ake 43
determines 43
regi@@ 43
horses 43
scrip@@ 43
Star@@ 43
net@@ 43
discussions 43
separation 43
C. 43
penguin 43
literacy 43
trips 43
horror 43
Titan 43
cians 43
coll@@ 43
kidding 43
stressed 43
spo@@ 43
Seven 43
prototypes 43
8,000 43
inated 43
represent@@ 43
cles 43
describing 43
mentor 43
Steven 43
hers 43
filling 43
nit@@ 43
recall 43
disasters 43
0s 43
th-century 43
transit 43
deception 43
Str@@ 43
ult 43
U 43
files 43
indicate 43
trading 43
heavily 43
Wal@@ 43
tale 43
sequences 43
gains 43
nis@@ 43
eth@@ 43
integrate 43
switched 43
BC 43
Ah@@ 43
theoretical 43
streams 43
chamber 43
ields 43
bert 43
Nigerian 43
oth@@ 43
Gandhi 43
laughed 43
boun@@ 43
adol@@ 43
Gre@@ 43
dood@@ 43
expres@@ 43
tuned 43
thrilled 43
analyzed 43
concent@@ 43
tations 43
comparing 43
Kong 43
ually 43
cooling 43
livestock 43
kit@@ 43
aters 43
illa 43
2020 43
publicly 43
climbed 43
provin@@ 43
exceptions 43
rup@@ 43
broader 43
answering 43
backyard 43
pot 43
Army 43
acquired 43
31 43
mutation 43
150,000 43
quarters 43
joint 43
activ@@ 43
County 43
Men 43
Berkeley 43
racing 43
Pla@@ 43
TK 43
bother 43
predator 43
rewards 43
composition 43
authors 43
lingu@@ 43
owners 43
attach 43
assembly 43
D.C. 42
Ba@@ 42
aug@@ 42
Nick 42
vary 42
veness 42
bold 42
Netherlands 42
frontal 42
25,000 42
graduates 42
mask 42
iconic 42
belie@@ 42
McDonald 42
oy@@ 42
nam@@ 42
condi@@ 42
oh@@ 42
bic 42
fence 42
screaming 42
provi@@ 42
Mac@@ 42
murder 42
biomass 42
boundary 42
are@@ 42
bath@@ 42
According 42
set@@ 42
lethal 42
carries 42
rewar@@ 42
craft 42
ski 42
det@@ 42
Wil@@ 42
surgeries 42
ester 42
publish@@ 42
Way 42
bed@@ 42
Andrew 42
slower 42
pulls 42
texts 42
Jerusalem 42
contrac@@ 42
sequencing 42
vent 42
stake 42
cut@@ 42
Gr@@ 42
shocking 42
belon@@ 42
wives 42
assure 42
establi@@ 42
aker 42
viewing 42
integration 42
fs 42
mathematician 42
tle 42
low@@ 42
counted 42
dom 42
zer@@ 42
tz@@ 42
frames 42
gel 42
intimate 42
membrane 42
unt 42
short@@ 42
serves 42
hostile 42
psycho@@ 42
alarm 42
tum@@ 42
handful 42
shower 42
spell 42
criteria 42
surgeons 42
cylinder 42
sculptures 42
suff@@ 42
logging 42
heating 42
shoe 42
endless 42
Wa@@ 42
fon@@ 42
sex@@ 42
discussing 42
red-@@ 42
exploit 42
argued 42
exhibit 42
Virginia 42
cheat 42
ce-@@ 42
enterprise 42
shifts 42
twe@@ 42
modeling 42
old-@@ 42
neocortex 42
persist@@ 42
Cha@@ 42
shoulders 42
Society 42
omy 42
credible 42
Ko@@ 42
maneu@@ 42
Vol@@ 42
ple 42
universes 42
gorgeous 42
accelerating 42
loses 42
suc@@ 42
light-@@ 42
spreads 42
emphas@@ 42
drum 42
harbor 42
revel@@ 42
resul@@ 42
informal 42
damaged 42
helium 42
implic@@ 42
democracies 42
stun@@ 42
Sk@@ 41
spiders 41
critically 41
repeated 41
four@@ 41
strations 41
achieving 41
lic 41
wins 41
acres 41
ming@@ 41
atom 41
DP 41
risky 41
recognizing 41
degra@@ 41
market@@ 41
oppres@@ 41
Arabia 41
dawn 41
nutrition 41
welfare 41
mixing 41
ee@@ 41
sooner 41
bang 41
Wh@@ 41
Parkinson 41
Trade 41
dare 41
practically 41
sau@@ 41
canvas 41
rotate 41
fic 41
ekeepers 41
ego 41
concentrate 41
crude 41
exagger@@ 41
coach 41
march 41
350 41
tioning 41
History 41
univers@@ 41
pathways 41
economically 41
injured 41
heritage 41
blew 41
bush 41
LED 41
millimeter 41
selves 41
Che@@ 41
towns 41
orph@@ 41
raises 41
empower 41
microphone 41
tail@@ 41
RM 41
pity 41
visually 41
usi@@ 41
X-@@ 41
govern@@ 41
Mag@@ 41
seal 41
60,000 41
collaborate 41
unconscious 41
Ter@@ 41
chronic 41
graphy 41
bloo@@ 41
ED 41
occup@@ 41
acre 41
lar@@ 41
sett@@ 41
hea@@ 41
representative 41
usage 41
Newton 41
finan@@ 41
girlfriend 41
oper@@ 41
chess 41
uns 41
instruction 41
biop@@ 41
yal 41
fair@@ 41
systematically 41
Scott 41
scaling 41
hopeful 41
summ@@ 41
pion@@ 41
horizontal 41
patho@@ 41
overwhelmed 41
intent 41
recei@@ 41
shelves 41
highlight 41
terrific 41
fabri@@ 41
minority 41
spi@@ 41
artwork 41
tra 41
breath@@ 41
equity 41
interventions 41
Charlie 41
Christians 41
format 41
gene@@ 41
hin@@ 41
ames 41
Rome 41
1950 41
fantasy 41
naive 41
dice 41
ed-@@ 41
Olympics 41
tooth@@ 41
accelerate 41
kicked 41
mind-@@ 41
counts 41
ulture 41
asteroids 41
Ke@@ 41
sticking 41
grocery 41
sexually 41
direc@@ 41
tool@@ 40
firing 40
Sol@@ 40
bullet 40
Bir@@ 40
hil@@ 40
1,500 40
vacation 40
kidney 40
pos@@ 40
mall 40
gallery 40
1984 40
year@@ 40
tan 40
index 40
Seattle 40
dum@@ 40
ross 40
lottery 40
regulation 40
accountability 40
periods 40
formal 40
pulse 40
destination 40
50-@@ 40
infectious 40
Tim 40
marked 40
tar 40
ideology 40
tin 40
apps 40
blood@@ 40
ett 40
cook@@ 40
visiting 40
LT 40
holy 40
Mozart 40
amm@@ 40
Chap@@ 40
witnessed 40
unfortunate 40
rains 40
mere 40
punch 40
98 40
Greenland 40
satisfaction 40
verb 40
inventor 40
escap@@ 40
seals 40
aled 40
enses 40
carpet 40
reporting 40
dged 40
un-@@ 40
cian 40
wr@@ 40
editor 40
creator 40
deforestation 40
pes 40
spare 40
Cyrus 40
shaking 40
guards 40
transplan@@ 40
Jane 40
emotionally 40
7,000 40
locomotion 40
JA 40
fi 40
documentary 40
Shi@@ 40
sensing 40
physi@@ 40
duck 40
12,000 40
disgust 40
approximately 40
kilometer 40
establish 40
MA@@ 40
CA@@ 40
acquire 40
iPod 40
youngest 40
rator 40
ports 40
exam 40
interconnected 40
tour@@ 40
donors 40
alongside 40
commerci@@ 40
probe 40
infant 40
oriented 40
smells 40
whoever 40
recession 40
adopt 40
float 40
offs 40
eastern 40
associate 40
omed 40
open@@ 40
conduc@@ 40
Pi@@ 40
tight 40
preparation 40
rus 40
two-thirds 40
petition 40
Canadian 40
lifespan 40
candy 40
synthes@@ 40
dding 40
Shar@@ 40
philanthropy 40
rists 40
principal 40
occasion 40
programmed 40
fatal 40
slo@@ 40
efully 40
select 40
summit 40
RNA 40
combin@@ 40
elaborate 40
vision@@ 40
masters 40
Cho@@ 40
red@@ 40
woods 40
dispos@@ 40
30s 40
promising 40
clin@@ 40
telec@@ 40
life@@ 40
Fur@@ 40
fur 40
offspring 40
lun@@ 40
protest 40
FDA 40
green@@ 40
waste@@ 40
cardiac 40
gradu@@ 40
Green@@ 40
yn 40
iny 40
utterly 40
attered 40
destructive 40
Egyptian 40
eliminate 40
depic@@ 40
cism 40
sh 40
tus 40
representing 40
petro@@ 39
zi@@ 39
checked 39
biased 39
themes 39
camel 39
Iranian 39
generic 39
convicted 39
Eve 39
pron@@ 39
Mumbai 39
Ho@@ 39
Uni@@ 39
elec@@ 39
fel@@ 39
pin 39
smartphone 39
basketball 39
wir@@ 39
emergence 39
implement 39
mesh 39
enforcement 39
mapped 39
prosthetic 39
gur@@ 39
ples 39
Is@@ 39
rescued 39
fier@@ 39
reserve 39
timately 39
cables 39
cleaning 39
edly 39
eval 39
Bal@@ 39
weighs 39
mosquitos 39
Wright 39
variable 39
philosophical 39
belt 39
ingredient 39
oid 39
monit@@ 39
album 39
astronomy 39
wow 39
Jeff 39
TED@@ 39
MS 39
networking 39
alt 39
kindergarten 39
paradox 39
Atlanta 39
trusted 39
leg@@ 39
alty 39
melting 39
fif@@ 39
tal 39
platforms 39
scaff@@ 39
it-@@ 39
wasted 39
q@@ 39
coded 39
low-cost 39
snow@@ 39
optical 39
mating 39
cess 39
encountered 39
omin@@ 39
ordered 39
chains 39
onate 39
talented 39
functioning 39
traff@@ 39
night@@ 39
investigate 39
jumping 39
Cape 39
longevity 39
histor@@ 39
adds 39
Sam 39
log 39
multiply 39
Ol@@ 39
congestion 39
ball@@ 39
logo 39
assumed 39
Abed 39
itor 39
vegetable 39
adoption 39
Indus 39
ishes 39
Pan@@ 39
Lebanon 39
Business 39
candidates 39
concep@@ 39
deserves 39
Cancer 39
exotic 39
prescription 39
elimin@@ 39
acids 39
paste 39
commodity 39
door@@ 39
slice 39
type@@ 39
loans 39
Medical 39
gasoline 39
scans 39
reasoning 39
intersection 39
Gl@@ 39
toler@@ 39
sne@@ 39
prisoner 39
bureaucra@@ 39
El 39
Together 39
magnet 39
pleased 39
poses 39
meets 39
Palestinian 39
appeal 39
nap@@ 39
implemented 39
1930s 39
vement 39
shment 39
relates 39
well@@ 39
metric 39
fea@@ 39
tting 39
con 39
gover@@ 39
casting 39
tici@@ 39
USA 39
rejected 39
coordination 39
rises 39
butter@@ 39
Absolutely 39
tery 39
goo@@ 39
ail 39
shorter 39
Econom@@ 39
Hy@@ 39
chi@@ 39
ally-@@ 39
luckily 39
cups 39
flavor 38
rat@@ 38
renewables 38
reforms 38
cool@@ 38
Mus@@ 38
ister 38
digging 38
compute 38
Pre@@ 38
peculiar 38
Suppose 38
returns 38
rators 38
anniversary 38
considering 38
Alice 38
PR 38
Daniel 38
Hor@@ 38
Z 38
crows 38
default 38
shining 38
fers 38
jud@@ 38
systematic 38
dow@@ 38
aliens 38
seawater 38
preventing 38
diarrhea 38
130 38
collision 38
feeds 38
consider@@ 38
oce@@ 38
entation 38
compound 38
investments 38
Tr@@ 38
decent 38
meme 38
Whenever 38
households 38
favor@@ 38
JF 38
embodied 38
genom@@ 38
master@@ 38
ead 38
3,@@ 38
Keep 38
Try 38
Fl@@ 38
implant 38
borrow 38
translator 38
wet 38
richest 38
converted 38
Office 38
treat@@ 38
MA 38
farther 38
irs 38
sometime 38
geography 38
Therefore 38
cheating 38
escal@@ 38
migration 38
Spring 38
Dar@@ 38
Republic 38
Norden 38
lap 38
Catholic 38
cooperative 38
oblig@@ 38
hoped 38
crum@@ 38
Copenhagen 38
drunk 38
polari@@ 38
habitats 38
gestures 38
Kingdom 38
Hawaii 38
portraits 38
essive 38
pays 38
dishes 38
negotiate 38
Fre@@ 38
generates 38
tags 38
Ben@@ 38
Phoenix 38
loose 38
practicing 38
fest@@ 38
lo 38
bowl 38
Sarah 38
pleas@@ 38
adul@@ 38
autistic 38
Rick 38
She@@ 38
non-zero-sum 38
producers 38
Fri@@ 38
consensus 38
complic@@ 38
Sin@@ 38
pel@@ 38
detected 38
revenues 38
she@@ 38
sal 38
managing 38
kl@@ 38
50@@ 38
Redwood 38
polic@@ 38
onia 38
hunt 38
onstage 38
bian 38
Tokyo 38
pump@@ 38
cloth 38
illu@@ 38
simulate 38
web@@ 38
grains 38
targeted 38
Korean 38
speeds 38
Telescope 38
though@@ 38
Around 38
cir@@ 38
lasting 38
rants 38
priorities 38
hard-@@ 38
intri@@ 38
delivering 38
ste 38
dental 38
17th 38
gaining 38
fulness 38
mani@@ 38
cataly@@ 38
Colom@@ 38
mortal 38
aster 38
roofs 38
stimulation 38
collap@@ 38
disciplines 38
strict 38
desperate 38
winners 38
Mexican 38
checks 37
dirt 37
34 37
philosophers 37
itu@@ 37
stered 37
hypothes@@ 37
heres 37
multip@@ 37
Joseph 37
predicting 37
temple 37
chromosome 37
deadly 37
cares 37
Cy@@ 37
left-hand 37
TEDTalks 37
Des@@ 37
Tuesday 37
titles 37
instinct 37
earned 37
deciding 37
jun@@ 37
washed 37
submit 37
Rock@@ 37
thermo@@ 37
port@@ 37
Everest 37
headquarters 37
refriger@@ 37
ective 37
routine 37
bacterium 37
rolls 37
angles 37
chasing 37
dys@@ 37
planting 37
revol@@ 37
fai@@ 37
checking 37
surfing 37
equals 37
Saturday 37
understand@@ 37
promises 37
tagged 37
anium 37
Iceland 37
beg@@ 37
legis@@ 37
cube 37
maintenance 37
Albert 37
wee@@ 37
nick@@ 37
refuse 37
24@@ 37
Having 37
gardens 37
skilled 37
detector 37
employment 37
The@@ 37
Met@@ 37
guerrill@@ 37
confronted 37
glow 37
ans@@ 37
hugely 37
ultraviolet 37
margin@@ 37
invol@@ 37
Gene 37
enormously 37
penis 37
supernov@@ 37
laugh@@ 37
Poli@@ 37
refused 37
operated 37
inherently 37
thinkers 37
distur@@ 37
cosmos 37
parachute 37
chemotherapy 37
parenting 37
Development 37
dictionaries 37
izes 37
Mount 37
Consider 37
pix@@ 37
cha@@ 37
powder 37
lobby 37
advent@@ 37
condoms 37
alike 37
otic 37
ashing 37
foster 37
involving 37
copied 37
inc@@ 37
Bol@@ 37
million-@@ 37
enn@@ 37
geni@@ 37
moment@@ 37
196@@ 37
rows 37
Sam@@ 37
rhyth@@ 37
promoting 37
anec@@ 37
pas@@ 37
caf@@ 37
ened 37
salmon 37
transported 37
regulations 37
mammal 37
profitable 37
decides 37
paths 37
ga 37
ja 37
ared 37
travels 37
big@@ 37
contributing 37
entities 37
intui@@ 37
millennia 37
vali@@ 37
O.@@ 37
occupy 37
hi 37
addressing 37
grant 37
AG 37
progression 37
massively 37
pipes 37
allies 37
humility 37
aspi@@ 37
united 37
parasite 37
Lin@@ 37
hills 37
olog@@ 37
rowed 37
Ted 37
fut@@ 37
codes 37
feminist 37
investigation 37
innovate 37
atmosp@@ 37
improvements 36
Cold 36
far-@@ 36
matches 36
gun@@ 36
blog@@ 36
Ooh 36
interfaces 36
59 36
stom@@ 36
stimulate 36
than@@ 36
airline 36
metals 36
Yemen 36
tw@@ 36
celebration 36
diplomacy 36
cracks 36
acqu@@ 36
deficit 36
morph@@ 36
pho@@ 36
fans 36
symmetries 36
devast@@ 36
DVD 36
limbs 36
embracing 36
Meanwhile 36
ella 36
honored 36
spatial 36
squares 36
desktop 36
intentions 36
peri@@ 36
les@@ 36
spray 36
install 36
empowering 36
spite 36
I.@@ 36
peripher@@ 36
grass@@ 36
iter@@ 36
kles 36
hydr@@ 36
bugs 36
serv@@ 36
calculus 36
regional 36
catastrophic 36
knees 36
physiology 36
ch-@@ 36
accoun@@ 36
beside 36
cos@@ 36
filters 36
dentally 36
columns 36
weekend 36
recla@@ 36
geable 36
achie@@ 36
addic@@ 36
Kno@@ 36
exit 36
quanti@@ 36
attempts 36
fault 36
losses 36
beds 36
Notice 36
ckets 36
Show 36
Sylvia 36
left-@@ 36
rock@@ 36
filmed 36
compatible 36
pair@@ 36
internet 36
kit 36
pigeon 36
Rand@@ 36
Egyptians 36
basement 36
viewed 36
abroad 36
unseen 36
ped 36
magazines 36
zy 36
therapist 36
recommen@@ 36
beneficial 36
revolutions 36
tide 36
ctu@@ 36
cts 36
frogs 36
foie 36
Ul@@ 36
oma 36
symmetrical 36
turing 36
render 36
know@@ 36
scheme 36
strikes 36
Super@@ 36
aston@@ 36
ambition 36
disturbing 36
Islam@@ 36
squid 36
Jupiter 36
liberty 36
humankind 36
cholera 36
Mi@@ 36
exual 36
Larry 36
respected 36
warmer 36
bill@@ 36
accomplish 36
abstra@@ 36
sey 36
Joshua 36
gment 36
rub@@ 36
icking 36
substantial 36
consists 36
Library 36
influ@@ 36
tox@@ 36
Fran@@ 36
ow@@ 36
embarrassed 36
stated 36
survivors 36
ion@@ 36
noisy 36
event@@ 36
bos@@ 36
gross 36
projection 36
explor@@ 36
hed 36
ressing 36
kill@@ 36
metabolism 36
Pic@@ 36
angiogenesis 36
cost-@@ 36
locks 36
Sierra 36
unks 36
astron@@ 36
tangible 36
thered 36
erup@@ 36
unfair 36
adi@@ 36
seduc@@ 36
grabbed 36
fest 36
thir@@ 36
screening 36
Eventually 36
precision 36
piles 36
middle-@@ 36
brands 36
gran@@ 36
manus@@ 36
Hans 36
surveys 36
vocabulary 36
shifted 36
demo 36
San@@ 36
semi-@@ 36
bir@@ 36
Similarly 36
Fortunately 36
bread@@ 36
loo@@ 36
Pur@@ 36
AT 36
í@@ 36
rob@@ 36
stro@@ 36
1900 36
thylac@@ 36
valu@@ 36
illi@@ 36
vul@@ 36
Hospital 36
hallucinations 36
edit 36
Iran@@ 35
full-time 35
remotely 35
enlighten@@ 35
sweat 35
listed 35
Heart 35
,@@ 35
caregi@@ 35
abundant 35
uniquely 35
Such 35
etary 35
revers@@ 35
struggled 35
Hum@@ 35
yog@@ 35
Stewart 35
participating 35
greatly 35
lips 35
irrational 35
pain@@ 35
foreh@@ 35
anding 35
gal@@ 35
Pat@@ 35
Cas@@ 35
segment 35
Kin@@ 35
beef 35
Columbia 35
Civil 35
sist 35
lighter 35
eternal 35
goodness 35
metabolic 35
corrupt 35
judgments 35
uniform 35
upward 35
chers 35
fet@@ 35
jo 35
regulate 35
empowerment 35
orientation 35
satisfied 35
Republicans 35
browser 35
talents 35
ft@@ 35
reconci@@ 35
alphabet 35
frequencies 35
stein 35
DR 35
ddle 35
skep@@ 35
balanced 35
bay 35
puzz@@ 35
formers 35
deliber@@ 35
mit 35
blessed 35
floors 35
Eig@@ 35
mycelium 35
ont@@ 35
transfer@@ 35
gic 35
nonetheless 35
commer@@ 35
procedures 35
trick@@ 35
genuine 35
Thailand 35
mushrooms 35
magician 35
energi@@ 35
nicely 35
jumps 35
processed 35
common@@ 35
ein 35
complain 35
tability 35
Kennedy 35
praying 35
fishermen 35
pricing 35
plu@@ 35
sin 35
ex 35
contra@@ 35
nesses 35
Ice 35
ironic 35
chickens 35
desires 35
Sun@@ 35
clarity 35
swing 35
orchest@@ 35
disap@@ 35
and-a-half 35
bottom-up 35
pathetic 35
Ash@@ 35
apples 35
quali@@ 35
res 35
yment 35
mixture 35
replacing 35
surround 35
1.5 35
Monday 35
baseline 35
embar@@ 35
careers 35
frustration 35
Alaska 35
veil 35
dimin@@ 35
surviving 35
awe 35
pressures 35
ehouse 35
access@@ 35
ora 35
wl 35
4.@@ 35
helpless 35
reflective 35
artifacts 35
AK 35
beam 35
ura 35
corresponds 35
Sc@@ 35
defini@@ 35
intimacy 35
draws 35
broadcast 35
elevator 35
Hel@@ 35
microscopic 35
absorb 35
Goals 35
integrity 35
ridic@@ 35
Country 35
modest 35
bel 35
ys@@ 35
Tu@@ 35
kle 35
alties 35
Disney 35
ague 35
incl@@ 35
bum@@ 35
calculation 35
frag@@ 35
timing 35
Laden 35
lobe 35
obsolete 35
caps 35
.D. 35
Luther 35
pressing 35
sketch 35
Montana 35
flights 35
dote 35
bluep@@ 35
warrior 35
ala 35
TE@@ 35
hic 35
traces 35
veri@@ 35
eas@@ 35
junk 35
authenticity 35
extrem@@ 35
TEDTalk 35
Environ@@ 35
Ca@@ 35
assembled 35
virtue 35
illusions 35
disappears 35
um-@@ 35
0 35
UN@@ 35
beetles 35
iceberg 35
threatening 35
sensitivity 35
emphasize 35
indicates 35
pollin@@ 35
widespread 35
lex@@ 35
honesty 35
Part 35
ange 35
altered 35
autonomy 35
medications 35
consent 35
replacement 34
penalty 34
stret@@ 34
equipped 34
racial 34
question@@ 34
multinational 34
well-known 34
posing 34
conditioning 34
rehabilitation 34
wells 34
til@@ 34
inqu@@ 34
transc@@ 34
ultural 34
ki 34
animate 34
nine-@@ 34
ety 34
chase 34
dreamed 34
cling 34
tha 34
Elizabeth 34
plot@@ 34
accom@@ 34
accompli@@ 34
drama 34
Portugal 34
circul@@ 34
PC 34
slope 34
trap 34
settle 34
pel 34
theast 34
pedestrian 34
journalism 34
tightly 34
couch 34
Bet@@ 34
hau@@ 34
applies 34
at-@@ 34
RS 34
enabling 34
Despite 34
Under@@ 34
salary 34
discrimination 34
flesh 34
tain@@ 34
sells 34
Govern@@ 34
ligh@@ 34
wrist 34
fossils 34
bull@@ 34
portra@@ 34
ex-@@ 34
ancestor 34
viable 34
bet@@ 34
15,000 34
thetic 34
meditation 34
bent 34
duty 34
real-time 34
dam@@ 34
Lee 34
personalities 34
tible 34
asthma 34
usable 34
00@@ 34
AR@@ 34
budgets 34
18th 34
Ni@@ 34
amps 34
Later 34
configuration 34
thereby 34
install@@ 34
clean@@ 34
staggering 34
fever 34
ised 34
li 34
lectures 34
surro@@ 34
frontier 34
urban@@ 34
pipeline 34
seventh 34
chromosomes 34
sig@@ 34
marijuana 34
yeast 34
squeeze 34
nings 34
relativity 34
gh 34
blogging 34
authoritarian 34
obs@@ 34
server 34
waited 34
fores@@ 34
countless 34
statistical 34
gravitational 34
scri@@ 34
hyper-@@ 34
sued 34
chapters 34
acceptance 34
rigid 34
brilli@@ 34
node 34
oral 34
Cro@@ 34
examine 34
stealing 34
reflects 34
ee 34
reci@@ 34
trade-@@ 34
sants 34
delay 34
drought 34
dging 34
hut 34
lately 34
tanks 34
politician 34
Buddhist 34
celebrity 34
whistle 34
primates 34
1995 34
famine 34
watt 34
asset 34
slept 34
search@@ 34
icity 34
correlation 34
vy 34
scientifically 34
diamonds 34
deplo@@ 34
aggre@@ 34
ograph@@ 34
texting 34
h-@@ 34
stor 34
plankton 34
Matt 34
resolved 34
occupied 34
elle 34
clues 34
age-@@ 34
entrance 34
sexuality 34
qualified 34
86 34
sang 34
cardboard 34
ola 34
surgical 34
posters 34
goodbye 34
ane@@ 34
apartments 34
jan@@ 34
dening 34
enters 34
bra 34
evaluate 34
motivate 34
ES@@ 34
wiped 34
mother@@ 34
eps 34
norm 34
screens 34
biases 34
lli@@ 34
bond 34
shortly 34
argu@@ 34
atro@@ 34
cousin 34
impressed 34
archive 34
origin@@ 34
58 34
1994 34
rations 34
clips 34
femin@@ 34
exponentially 34
tails 34
bil@@ 34
deta@@ 34
sulfide 34
longest 34
Wo@@ 34
resem@@ 34
conception 34
famously 34
weir@@ 34
owe 34
triangle 34
aluminum 34
Sum@@ 34
symbolic 34
projected 34
essi@@ 33
cting 33
T-@@ 33
confined 33
aer@@ 33
resilient 33
Spi@@ 33
mites 33
discrimin@@ 33
poll 33
ara 33
bonds 33
summarize 33
archy 33
receptor 33
spe@@ 33
stare 33
aul@@ 33
voluntary 33
amin@@ 33
Beach 33
inherent 33
tenth 33
advocate 33
passage 33
streng@@ 33
ani 33
Neanderthals 33
manufacture 33
Mur@@ 33
dreaming 33
inventions 33
returning 33
ok 33
insur@@ 33
efficiently 33
pan 33
see@@ 33
Whit@@ 33
Im@@ 33
technolog@@ 33
exhau@@ 33
ser 33
container 33
deep-@@ 33
govern 33
rac@@ 33
ate@@ 33
reviewed 33
joining 33
cabin@@ 33
stine 33
dn 33
seas@@ 33
steady 33
disk 33
short-term 33
ard@@ 33
AT@@ 33
Using 33
Cra@@ 33
App@@ 33
fragments 33
hacker 33
Venus 33
Coca-Cola 33
Tro@@ 33
dering 33
marrow 33
ller 33
remembering 33
mirrors 33
secondary 33
pec@@ 33
explanations 33
spark 33
harvesting 33
rage 33
p-@@ 33
gigantic 33
spaghetti 33
Year 33
beetle 33
pean@@ 33
partnerships 33
displays 33
ware 33
man-@@ 33
behold 33
Danny 33
jungle 33
dig@@ 33
staircase 33
will@@ 33
accumulate 33
2015 33
eover 33
Golden 33
spontaneously 33
1.2 33
arrow 33
ables 33
ck-@@ 33
Oper@@ 33
sadness 33
purchase 33
fame 33
soccer 33
buttons 33
playful 33
kar@@ 33
earning 33
electri@@ 33
Philadelphia 33
envelope 33
analyzing 33
siblings 33
Ask 33
thirds 33
identi@@ 33
lightning 33
rehear@@ 33
geograph@@ 33
Goog@@ 33
propaganda 33
frightened 33
lect 33
J 33
intern@@ 33
invitation 33
Looking 33
sustained 33
entrepreneurial 33
disruptive 33
collaborators 33
derness 33
responsibilities 33
Christ@@ 33
jokes 33
anatomy 33
prosec@@ 33
headline 33
obstacle 33
manipulation 33
Rom@@ 33
CO 33
markers 33
hybrid 33
mil@@ 33
numerous 33
disabilities 33
protective 33
eurs 33
cab@@ 33
Interestingly 33
stadium 33
disappointed 33
inters 33
characteristic 33
slight 33
crowd@@ 33
arise 33
quantities 33
peer-@@ 33
Kansas 33
ni 33
forgive 33
particip@@ 33
tos@@ 33
champ@@ 33
Milo 33
38 33
subsequ@@ 33
lean 33
1997 33
Greeks 33
psychiatric 33
circular 33
consideration 33
Kal@@ 33
stitution 33
counter-@@ 33
appreciation 33
instinc@@ 33
minded 33
e-up 33
fru@@ 33
Medic@@ 33
ethic 33
lear@@ 33
mouths 33
appro@@ 33
Milky 33
part@@ 33
forcing 33
abs 33
stell@@ 33
laying 33
52 33
stereotyp@@ 33
reproduction 33
ata 33
adolescence 33
stepping 33
grou@@ 33
+ 33
lt 33
diagnostic 33
acceptable 33
aci@@ 33
Ok@@ 32
tick@@ 32
utility 32
97 32
dedic@@ 32
hibi@@ 32
jar 32
00s 32
editors 32
variables 32
iti@@ 32
Hung@@ 32
Kosovo 32
Natural 32
bananas 32
marker 32
rier 32
nation-@@ 32
sit@@ 32
Galapagos 32
litt@@ 32
Libya 32
ault 32
nonsense 32
Loc@@ 32
Native 32
textbook 32
truths 32
tained 32
const@@ 32
twist 32
odor 32
fr@@ 32
reveals 32
ri 32
chop 32
Snowden 32
broccoli 32
distingu@@ 32
contacted 32
deploy 32
similarly 32
vas@@ 32
ices 32
awake 32
thre@@ 32
Wide 32
presidential 32
vents 32
perceptions 32
las@@ 32
orize 32
ades 32
med@@ 32
ffed 32
embry@@ 32
finishing 32
Buddha 32
deli@@ 32
stit@@ 32
nevertheless 32
acceler@@ 32
Alex 32
pol@@ 32
benef@@ 32
dless 32
impulse 32
umin@@ 32
alled 32
Lewis 32
alling 32
individually 32
bribe 32
battle@@ 32
oting 32
twins 32
Mich@@ 32
thood 32
persuas@@ 32
Defense 32
prevalence 32
43 32
empi@@ 32
monster 32
promot@@ 32
put@@ 32
recognizes 32
electromagnetic 32
spiral 32
crashes 32
neu@@ 32
micros@@ 32
Machine 32
preserved 32
easiest 32
snakes 32
assem@@ 32
scrat@@ 32
bench 32
Oklahoma 32
tips 32
accent 32
poles 32
Stone 32
illnesses 32
Lama 32
Canyon 32
pop@@ 32
laboratories 32
migrate 32
ense 32
dized 32
skeptical 32
documenting 32
bio-@@ 32
purely 32
fec@@ 32
breed 32
dges 32
berry 32
kic@@ 32
questioning 32
passions 32
confron@@ 32
primate 32
defe@@ 32
patience 32
helmet 32
adaptation 32
fruits 32
ghtest 32
Clearly 32
unle@@ 32
menu 32
Sou@@ 32
mort@@ 32
Craig 32
frustrating 32
ington 32
Hmm 32
dancers 32
der-@@ 32
races 32
attrac@@ 32
Coll@@ 32
supportive 32
cket 32
boost 32
minerals 32
premise 32
dynam@@ 32
reali@@ 32
ellers 32
exercises 32
gos 32
eries 32
grammar 32
any@@ 32
founding 32
redesign 32
ratings 32
Education 32
distribute 32
tiger 32
arous@@ 32
righ@@ 32
analog 32
Val@@ 32
articulate 32
equilibrium 32
Freedom 32
num@@ 32
delight 32
inspec@@ 32
cocktail 32
affairs 32
observing 32
invasive 32
Jan@@ 32
rhin@@ 32
thread 32
eats 32
storyteller 32
ua 32
centimeter 32
linking 32
harmful 32
strat@@ 32
differenti@@ 32
mati@@ 32
controversy 32
shadows 32
harsh 32
astronomers 32
osh 32
mov@@ 32
stran@@ 32
Four@@ 32
fat@@ 32
arable 32
ett@@ 32
willingness 32
organiz@@ 31
pro-@@ 31
hec@@ 31
judges 31
silicon 31
altogether 31
accelerated 31
mediate 31
lation 31
instances 31
practiced 31
nightmare 31
Denmark 31
Amsterdam 31
Elec@@ 31
Empire 31
museums 31
Light 31
isolation 31
emerges 31
Sahara 31
harness 31
Whoa 31
ron 31
copying 31
depths 31
ultra-@@ 31
sidewalk 31
gates 31
Mac 31
transmit@@ 31
ancy 31
seafood 31
olate 31
Nan@@ 31
episode 31
explode 31
under-@@ 31
celebrated 31
cript 31
ggl@@ 31
gel@@ 31
caus@@ 31
thank@@ 31
World@@ 31
Prime 31
shield 31
cracked 31
warfare 31
intriguing 31
heter@@ 31
Carnegie 31
mers 31
Louis 31
ashamed 31
ural 31
oll@@ 31
endeavor 31
bare 31
libraries 31
treas@@ 31
commonly 31
hund@@ 31
brutal 31
Sand@@ 31
E. 31
knock 31
ethics 31
connectome 31
cross@@ 31
subst@@ 31
alter@@ 31
manufacturers 31
fing 31
assuming 31
gad@@ 31
contin@@ 31
p.m. 31
fighters 31
fungi 31
small-@@ 31
Keith 31
mm@@ 31
seven-@@ 31
Others 31
Direc@@ 31
revolution@@ 31
doses 31
osc@@ 31
individu@@ 31
developers 31
shrink 31
arbitrary 31
galleries 31
midst 31
stum@@ 31
pumps 31
persons 31
PowerPoint 31
twin 31
snake 31
Bangalore 31
hurts 31
distinguish 31
ami@@ 31
Zimbabwe 31
liers 31
banned 31
hop@@ 31
Tasmanian 31
senti@@ 31
iel@@ 31
tomato 31
uba 31
prisons 31
Rab@@ 31
Jordan 31
enthusiasm 31
institute 31
kidn@@ 31
producer 31
supports 31
carp@@ 31
WK 31
ambulance 31
lever@@ 31
subjective 31
categ@@ 31
breakthroughs 31
researching 31
War@@ 31
mastery 31
eller 31
Nike 31
strengths 31
Dalai 31
cerebral 31
angels 31
ez 31
doubling 31
ashes 31
addressed 31
operates 31
abb@@ 31
fertilizer 31
dic 31
dun@@ 31
rainforests 31
consistently 31
repeatedly 31
introducing 31
fails 31
scream 31
arena 31
friendship 31
reject 31
valued 31
grassroots 31
specialist 31
chaotic 31
deliberately 31
BJ 31
attacking 31
ounce 31
attend 31
enhance 31
squared 31
pathway 31
competi@@ 31
ehr@@ 31
dives 31
avoi@@ 31
standar@@ 31
ich@@ 31
nucleus 31
Sher@@ 31
heated 31
opposition 31
guitar 31
temporal 31
mild 31
Young 31
impaired 31
kis@@ 31
blocked 31
clou@@ 31
perspectives 31
moms 31
ann@@ 31
biologically 31
marathon 31
optimize 31
acoustic 31
agre@@ 31
pale@@ 31
second-@@ 31
CEOs 31
goat 31
ector 31
reinvent 31
maid 31
Humans 31
ren 31
stigma 31
ood 31
cep@@ 31
sor 31
uss 31
right-@@ 31
fights 31
ever-@@ 31
octopus 31
African-American 31
fuzzy 31
presenting 31
chemist 31
Association 31
lish 31
bonus 31
Data 31
outbreak 31
ug@@ 31
pulsion 31
versi@@ 31
persuade 31
Mes@@ 31
certainty 31
calculating 31
slaves 31
prayer 31
vin 31
Cuba 31
lever 31
Wi@@ 31
refrigerator 31
cation 31
friction 31
collar 31
sucks 31
touches 31
juvenile 31
kling 31
patri@@ 31
infrared 31
limit@@ 31
5-@@ 31
hooked 31
neutr@@ 31
prolifer@@ 31
coherent 31
obsession 31
launching 31
accurately 31
morally 31
eradic@@ 31
ank 31
update 31
JC 31
stock@@ 31
dam 31
Jill 31
illiter@@ 31
lane 31
chim@@ 30
ila 30
lapse 30
multiverse 30
aria 30
Bad 30
vent@@ 30
rhythms 30
generosity 30
degraded 30
apologize 30
conceptual 30
countryside 30
savan@@ 30
altruism 30
exploded 30
Fol@@ 30
gres@@ 30
complaining 30
Bot@@ 30
Parliament 30
accepting 30
disappearing 30
Jefferson 30
appreciated 30
Public 30
Virgin 30
ativity 30
gallon 30
humble 30
legally 30
Top 30
inmates 30
attributes 30
governmental 30
ographic 30
sponsor@@ 30
heroin 30
circulation 30
commis@@ 30
gon@@ 30
ious 30
compan@@ 30
finite 30
contradic@@ 30
peti@@ 30
ament 30
midnight 30
hei@@ 30
ino 30
dow 30
sile 30
tos 30
ack@@ 30
Kiribati 30
firms 30
fix@@ 30
excep@@ 30
wished 30
abor@@ 30
obli@@ 30
eighth 30
gait 30
millenni@@ 30
Han@@ 30
basking 30
independently 30
tracked 30
neys 30
R. 30
protocell 30
votes 30
Apollo 30
diment 30
payment 30
scanned 30
vest@@ 30
sands 30
key@@ 30
Princeton 30
yo 30
Edinburgh 30
Camp 30
Cup 30
doll@@ 30
outdoor 30
presents 30
urgent 30
exclusive 30
devoted 30
Line 30
elessly 30
ladder 30
donated 30
conven@@ 30
reader 30
ula 30
stamp 30
ticism 30
athle@@ 30
thful 30
obsc@@ 30
Rem@@ 30
repe@@ 30
visitors 30
relax 30
disgu@@ 30
advertis@@ 30
inclusive 30
unter 30
kins 30
elly 30
copper 30
fixing 30
resurrec@@ 30
wandering 30
sound@@ 30
derived 30
relevance 30
deple@@ 30
gles 30
civilian 30
transmitted 30
zer 30
wher@@ 30
relie@@ 30
encoura@@ 30
squee@@ 30
Argentina 30
Ja@@ 30
directed 30
Lagos 30
sham@@ 30
cinema 30
Simon 30
impor@@ 30
Wouldn 30
convenience 30
hatred 30
spaces@@ 30
pione@@ 30
toss 30
igned 30
slum 30
hack 30
void 30
gentle 30
crowded 30
exec@@ 30
40s 30
quietly 30
phe@@ 30
shipped 30
tants 30
financially 30
debris 30
push@@ 30
continu@@ 30
tedness 30
entity 30
echo@@ 30
xy 30
ologi@@ 30
problematic 30
slip 30
dome 30
eased 30
Nu@@ 30
ek@@ 30
ski@@ 30
expense 30
hing 30
300,000 30
castle 30
flexibility 30
recovered 30
Death 30
film@@ 30
wei@@ 30
routinely 30
ome@@ 30
slowed 30
voters 30
statements 30
excess 30
rej@@ 30
retina 30
Mid@@ 30
box@@ 30
award 30
rebel@@ 30
bun@@ 30
err@@ 30
wonderfully 30
Teszler 30
phony 30
Royal 30
ald 30
gratitude 30
vitamin 30
propos@@ 30
zero-@@ 30
lifting 30
Win@@ 30
captain 30
declared 30
toll 30
wheel@@ 30
fau@@ 30
identities 30
aggregate 30
composed 30
leopard 30
excl@@ 30
dump 30
apparent 30
patch 30
bikes 30
tricky 30
Swedish 30
athei@@ 30
eBay 30
bloody 30
64 30
dancer 30
spends 30
crushed 30
transformations 30
loy@@ 30
Clar@@ 30
verte@@ 30
intervene 30
recipi@@ 30
lement 30
Ger@@ 30
Twenty-@@ 30
expectation 30
illed 30
fulfilling 30
rum@@ 30
Mas@@ 30
cated 30
rig 30
byp@@ 30
traumatic 30
Water 30
Brad 30
alert 30
K-@@ 30
Comp@@ 30
harass@@ 29
sequenced 29
educators 29
Party 29
operator 29
demanding 29
pac@@ 29
expose 29
anno@@ 29
hem@@ 29
releasing 29
requirement 29
constructing 29
volunte@@ 29
SB 29
Roman 29
Ministry 29
Edward 29
1991 29
eradication 29
AC@@ 29
cigarette 29
sent@@ 29
icide 29
regenerate 29
successes 29
accountable 29
44 29
obtained 29
ysi@@ 29
ethanol 29
preventable 29
cryp@@ 29
ranging 29
Michigan 29
opped 29
gru@@ 29
Carl 29
pregnancy 29
ko@@ 29
olo@@ 29
dation 29
Babbage 29
Either 29
releases 29
193@@ 29
mentary 29
bandwidth 29
sign@@ 29
appropriately 29
addicted 29
volumes 29
butes 29
reactors 29
Liberia 29
vements 29
2.5 29
Rights 29
osity 29
dit 29
Philip 29
tremendously 29
Medicine 29
convention 29
do-@@ 29
Turing 29
mutual 29
eper 29
ild 29
entrepreneurship 29
expos@@ 29
Archit@@ 29
graffiti 29
commands 29
econ@@ 29
ression 29
induced 29
Prince 29
Tesla 29
invasion 29
medic@@ 29
consi@@ 29
chy 29
declining 29
fog 29
Fal@@ 29
zoo 29
Doaa 29
avatar 29
Ken 29
anxious 29
unacceptable 29
rides 29
cried 29
inject 29
parap@@ 29
third-@@ 29
Rover 29
tling 29
heights 29
firmly 29
ideological 29
chef 29
nectar 29
bury 29
Leone 29
differ 29
basket 29
rendered 29
1.3 29
infinitely 29
Dean 29
Australian 29
acute 29
lements 29
standpoint 29
nau@@ 29
ger-@@ 29
slowing 29
se-@@ 29
dead@@ 29
founder 29
scenarios 29
icy 29
cially 29
snap@@ 29
poorly 29
dder 29
convincing 29
ulative 29
crab 29
PC@@ 29
colorful 29
counsel@@ 29
Americ@@ 29
sums 29
oul@@ 29
secondly 29
finger@@ 29
Usually 29
lection 29
taller 29
opoli@@ 29
meaningless 29
stocks 29
efulness 29
educ@@ 29
bec@@ 29
arg@@ 29
undergraduate 29
capac@@ 29
upright 29
developments 29
fertiliz@@ 29
250,000 29
out-of-@@ 29
RO@@ 29
injustice 29
association 29
Ide@@ 29
penet@@ 29
Mountain 29
Yor@@ 29
deer 29
cot@@ 29
catastrophe 29
Ban@@ 29
blad@@ 29
empire 29
synthesis 29
improvis@@ 29
Cities 29
Johnny 29
Syri@@ 29
herd 29
brut@@ 29
campaigns 29
Fund 29
specim@@ 29
dissi@@ 29
art@@ 29
Fer@@ 29
cky 29
demographics 29
tempor@@ 29
arran@@ 29
ji 29
huh 29
ologies 29
ises 29
bot 29
waveleng@@ 29
Good@@ 29
beha@@ 29
dragonflies 29
confusion 29
OECD 29
miracles 29
monsoon 29
rou@@ 29
Too 29
encing 29
mathematically 29
tickets 29
jum@@ 29
rockets 29
horrific 29
Physi@@ 29
anytime 29
biome@@ 29
Brothers 29
Grand@@ 29
halls 29
tat@@ 29
conferences 29
grow@@ 29
geo@@ 29
cam 29
tough@@ 29
two-dimensional 29
osing 29
arrest 29
scaled 29
advantages 29
ords 29
calcium 29
197@@ 29
statistically 29
notions 29
happiest 29
fine-@@ 29
typing 29
celebrating 29
mustache 29
gifts 29
Natasha 29
Hold 29
parliament 29
Diego 29
coincidence 29
ousy 29
Michelangelo 29
negoti@@ 29
lasts 29
infan@@ 29
discussed 29
tran@@ 29
lity 29
whit@@ 29
acoust@@ 29
struc@@ 29
fung@@ 29
imperative 29
employ 29
needing 29
Mau@@ 29
amateur 29
ph 29
responds 29
Sudan 29
Ir@@ 29
parameters 29
ket 29
posture 29
slave 29
abandon 29
displaced 29
workshop 29
fool@@ 29
stunt 29
Tim@@ 29
vegetation 29
mite 29
trilli@@ 29
host@@ 29
hun@@ 29
biosphere 29
improvise 29
benign 29
needles 29
tarian 29
empath@@ 29
pools 29
reviews 29
prefrontal 29
Emily 29
violin 29
divorce 29
Gor@@ 29
conclu@@ 29
Lyn@@ 29
LHC 29
chal@@ 29
cognition 29
Democrats 29
jewelry 29
TEDsters 29
frau@@ 29
varieties 29
prev@@ 29
puberty 29
intend 29
lim@@ 29
delicate 29
duration 29
distorted 29
worldview 29
bust 29
15-@@ 29
icked 29
beans 28
justify 28
Best 28
orgasm 28
searches 28
inviting 28
cop 28
ruins 28
filmmaker 28
bankers 28
damag@@ 28
arro@@ 28
valent 28
knocked 28
towel 28
issued 28
oping 28
band@@ 28
nec@@ 28
asi@@ 28
Georgia 28
Say 28
Democratic 28
noticing 28
tribal 28
NSA 28
innovators 28
programmer 28
centered 28
1993 28
developmental 28
executed 28
coma 28
appar@@ 28
Secretary 28
ctic 28
irt 28
arrange 28
atheist 28
preten@@ 28
Happy 28
spike 28
Ap@@ 28
macy 28
annoying 28
conclusions 28
tastes 28
torture 28
malnutrition 28
ulations 28
laundry 28
settled 28
proportion@@ 28
pond 28
Hill 28
redefine 28
routes 28
Station 28
summary 28
civilians 28
high-speed 28
ingo 28
acker 28
summar@@ 28
surplus 28
phy@@ 28
hairs 28
oods 28
incarcer@@ 28
structured 28
societal 28
haz@@ 28
Alan 28
culturally 28
certified 28
Arduino 28
faint 28
ignor@@ 28
preser@@ 28
registered 28
ille 28
satisfying 28
assistant 28
indirec@@ 28
block@@ 28
blocking 28
louder 28
jour@@ 28
ggle 28
remix 28
defeat 28
guar@@ 28
eigh@@ 28
attri@@ 28
encryp@@ 28
Mall 28
vocal 28
victory 28
Vs 28
coordinate 28
NGO 28
ram@@ 28
cigarettes 28
skip 28
stry 28
Miss 28
emer@@ 28
folk 28
sailing 28
retreat 28
mosque 28
admire 28
Muhammad 28
1-@@ 28
Food 28
conscience 28
bili@@ 28
assessment 28
tick 28
unstable 28
uting 28
compul@@ 28
slogan 28
ali 28
oids 28
absurd 28
eers 28
axes 28
temper@@ 28
regrets 28
maintaining 28
das 28
dep@@ 28
amma 28
ultr@@ 28
Caribbean 28
shares 28
Information 28
bery 28
Eri@@ 28
magni@@ 28
escence 28
playground 28
Cambodia 28
aver 28
bye 28
selective 28
solo 28
hili@@ 28
constrained 28
side-@@ 28
modified 28
adise 28
foam 28
rooted 28
tization 28
acade@@ 28
weed 28
ouses 28
billi@@ 28
cali@@ 28
cutt@@ 28
shel@@ 28
aces 28
hug 28
jur@@ 28
rail 28
revolutionary 28
sessions 28
ae 28
Sputnik 28
sticky 28
chron@@ 28
Certainly 28
elbow 28
Alright 28
Republican 28
photo@@ 28
Unlike 28
dealt 28
lled 28
afterward 28
gosh 28
referred 28
attraction 28
submitted 28
commodities 28
assigned 28
refined 28
weekends 28
anesthesia 28
veling 28
Palestine 28
Recently 28
Wilson 28
corpor@@ 28
amat@@ 28
gies 28
cockroach 28
Tibet 28
learns 28
Victori@@ 28
spheres 28
wrin@@ 28
compressed 28
initiatives 28
incu@@ 28
non-lethal 28
riots 28
parag@@ 28
locking 28
ulties 28
Bon@@ 28
singers 28
vastly 28
ship@@ 28
lings 28
manifest@@ 28
diagnose 28
imple@@ 28
blade 28
oft@@ 28
140 28
vill@@ 28
Lea@@ 28
lou@@ 28
Better 28
Dou@@ 28
limestone 28
reproductive 28
Giussani 28
alog 28
barrels 28
pilots 28
scope 28
Vegas 28
sensi@@ 28
unemployed 28
towers 28
adaptive 28
tles 28
internation@@ 28
24-@@ 28
Music 28
breakdown 28
minimal 28
Journal 28
boson 28
ad-@@ 28
Pier@@ 28
experimenting 28
vest 28
bombsight 28
Intel 28
Nairobi 28
disgusting 28
reduces 28
ation-@@ 28
Hol@@ 28
corporation 28
author@@ 28
commons 28
Saf@@ 28
Namibia 28
wit@@ 28
Ham@@ 28
Less 28
eholders 28
stres@@ 28
som@@ 28
contradiction 28
provo@@ 28
ility 28
Quite 28
elders 28
wiring 28
clever@@ 28
Kit@@ 28
Luckily 28
geographic 28
7,@@ 28
gather@@ 28
temptation 28
AA 28
inform 28
mundane 28
contents 28
cousins 28
etry 28
sque@@ 28
interrupted 28
arial 28
globalized 28
bic@@ 28
shade 28
YR 28
philanthrop@@ 28
lei@@ 28
900 28
shepherd 28
Finland 28
rainfall 28
noble 28
ause 28
coined 28
Ga@@ 28
mul@@ 28
cast@@ 28
MT@@ 28
spouse 28
photosyn@@ 28
M. 28
agrees 28
57 28
statistic 27
lip@@ 27
crocodi@@ 27
stressful 27
acher 27
offensive 27
Six@@ 27
holiday 27
gled 27
AO 27
aspirations 27
eth 27
queu@@ 27
aquatic 27
incomplete 27
editing 27
Mem@@ 27
Dru@@ 27
reluc@@ 27
interven@@ 27
heh 27
writes 27
Es@@ 27
elegan@@ 27
Russians 27
cardi@@ 27
resonance 27
noises 27
rough@@ 27
maj@@ 27
flood 27
chunk 27
daylight 27
applause 27
entitled 27
rendering 27
arose 27
Hawking 27
Mel@@ 27
oughly 27
Tower 27
KA 27
encounter@@ 27
Hundreds 27
anticip@@ 27
throat 27
blend 27
PA 27
auts 27
apest 27
Welcome 27
faculty 27
mythology 27
impose 27
Ani@@ 27
sole 27
Massachusetts 27
geeks 27
aus@@ 27
Ron 27
Nepal 27
icker 27
phrases 27
instr@@ 27
nuclei 27
unpredictable 27
retail 27
Pennsylvania 27
weighed 27
ie@@ 27
que@@ 27
spoo@@ 27
han 27
emo@@ 27
% 27
dious 27
cran@@ 27
pointment 27
vian 27
icks 27
citizenship 27
nurture 27
percep@@ 27
sion@@ 27
lia 27
misery 27
memorial 27
gently 27
frequent 27
compass 27
cathedral 27
flour@@ 27
mysteries 27
biotechnology 27
-of-@@ 27
ts@@ 27
MM 27
swal@@ 27
ropolitan 27
repertoire 27
alog@@ 27
cripts 27
vil 27
tionary 27
backed 27
receiver 27
delighted 27
EDI 27
Gran@@ 27
glory 27
Wars 27
emergent 27
cular 27
champion@@ 27
Supreme 27
banana 27
imposed 27
head-tail-@@ 27
automatic 27
heric 27
minim@@ 27
jaw 27
theirs 27
87 27
tuberculosis 27
encyclopedia 27
US@@ 27
erial 27
acceleration 27
oted 27
shouting 27
peaks 27
Exactly 27
tious 27
Veronica 27
inherited 27
doo 27
400,000 27
ete 27
Connecticut 27
depri@@ 27
mammoth 27
tennis 27
myths 27
corridors 27
poured 27
guilt 27
matern@@ 27
ckers 27
dug 27
deserts 27
geometric 27
Doesn 27
attempted 27
parasites 27
alter 27
Jobs 27
Learning 27
negotiation 27
Katrina 27
reson@@ 27
observ@@ 27
IM 27
Peru 27
employed 27
magne@@ 27
1945 27
Anything 27
influences 27
contempl@@ 27
Doctor 27
gest 27
iors 27
tot@@ 27
low-income 27
opping 27
Arch@@ 27
conducting 27
Francis 27
climbers 27
gal 27
chat 27
thrive 27
Lau@@ 27
taboo 27
NA@@ 27
grams 27
fore@@ 27
lowing 27
Excuse 27
apper 27
Small 27
hid 27
optimal 27
Hubble 27
mi 27
umental 27
arrows 27
Somalia 27
iat@@ 27
officers 27
stream@@ 27
spontaneous 27
eke@@ 27
Students 27
1975 27
disconnect 27
Lou@@ 27
Warren 27
Pet@@ 27
heroic 27
pup@@ 27
oven 27
desal@@ 27
mat 27
eb@@ 27
licen@@ 27
irable 27
gen 27
placing 27
feared 27
you@@ 27
sacrific@@ 27
candle 27
free-@@ 27
ris 27
metaphor@@ 27
ogen@@ 27
register 27
comparable 27
commissioned 27
leap@@ 27
cartilage 27
Cou@@ 27
dragged 27
restricted 27
Scotland 27
tech@@ 27
tattoo 27
solar-@@ 27
Slow 27
child@@ 27
epilep@@ 27
hh 27
survivor 27
envision 27
clari@@ 27
Dead 27
94 27
sadly 27
Especially 27
larvae 27
funeral 27
labor@@ 27
antidepres@@ 27
succe@@ 27
beginnings 27
forecast 27
MoMA 27
vili@@ 27
altru@@ 27
gements 27
guaranteed 27
watches 27
coff@@ 27
Sub@@ 27
Franklin 27
team@@ 27
notation 27
adily 27
SMS 27
assig@@ 27
chol@@ 27
shuff@@ 27
opa@@ 27
fashioned 27
plast@@ 27
dog@@ 27
Sex 27
performan@@ 27
disconnected 27
accompanied 27
bath 27
precip@@ 27
freak 27
IS@@ 27
toral 27
cafe 27
censorship 27
pesticides 27
real-@@ 27
Mark@@ 27
borne 27
grace 27
neurogenesis 27
450 27
marvelous 27
shout 27
diffic@@ 27
Help 27
125 27
dark@@ 27
dia 27
shaping 27
vibrating 27
lasted 27
fascin@@ 27
exclu@@ 27
Darwinian 27
romance 27
fitting 27
vibr@@ 27
Arab@@ 27
reasonably 27
reass@@ 27
Nice 27
epy 27
adju@@ 27
calendar 27
aero@@ 27
E.@@ 27
accounting 27
testim@@ 27
chur@@ 27
chil@@ 27
pursuing 27
bump 27
certific@@ 27
aire 27
room@@ 27
lifel@@ 27
randomness 27
oppon@@ 27
vious 27
responsive 27
gating 27
specialists 27
contagious 26
sco@@ 26
Samuel 26
glaciers 26
Climate 26
Ori@@ 26
drift 26
Dic@@ 26
jacket 26
mute 26
bounce 26
Arizona 26
vors 26
disruption 26
photographers 26
Sli@@ 26
Forget 26
quantity 26
Building 26
Bruce 26
radius 26
CRISPR 26
Up@@ 26
bassador 26
Ob@@ 26
negotiating 26
velocity 26
oxide 26
embarrass@@ 26
verted 26
aggres@@ 26
ound 26
minor 26
Desert 26
zers 26
col 26
gaze 26
PhD 26
sched@@ 26
observer 26
san 26
cooked 26
determination 26
Dur@@ 26
incidentally 26
matching 26
leng@@ 26
plau@@ 26
bleeding 26
nut 26
Going 26
Yu@@ 26
sounded 26
computer-@@ 26
executive 26
adly 26
per-@@ 26
Que@@ 26
nurturing 26
wonders 26
reconstruct 26
kilograms 26
excer@@ 26
pollutants 26
pancreatic 26
Step 26
traditionally 26
pillar 26
Allen 26
tless 26
plying 26
effec@@ 26
.org 26
lining 26
presum@@ 26
combinations 26
literal 26
hij@@ 26
aur@@ 26
pediat@@ 26
Roger 26
Jerry 26
Yale 26
ior 26
vil@@ 26
appliances 26
equi@@ 26
fled 26
Christian@@ 26
broadly 26
punc@@ 26
quotes 26
ghtly 26
divine 26
sation 26
ree 26
verge 26
orbiting 26
blur@@ 26
Use 26
trusting 26
geck@@ 26
fast-@@ 26
simulated 26
affir@@ 26
Ross 26
76 26
Toronto 26
energy-@@ 26
Believe 26
projections 26
class@@ 26
steer 26
UV 26
addicts 26
some@@ 26
forbid 26
strictly 26
cess@@ 26
flourish 26
suburban 26
tal@@ 26
explicitly 26
defines 26
guidel@@ 26
acity 26
ppy 26
opters 26
labels 26
w-@@ 26
11th 26
gallons 26
Hei@@ 26
contacts 26
wounded 26
negotiations 26
sta 26
preferred 26
adver@@ 26
gage 26
balcon@@ 26
chie@@ 26
Gol@@ 26
Bl@@ 26
grounds 26
prototyping 26
suburbs 26
Aid 26
acious 26
feasi@@ 26
not-@@ 26
Venice 26
Mama 26
reacting 26
pop-up 26
stard 26
bucket 26
worthwhile 26
cues 26
Bosnia 26
S. 26
listen@@ 26
arter@@ 26
tress 26
reco@@ 26
mitted 26
Pittsburgh 26
sail 26
orang@@ 26
drinks 26
predat@@ 26
implanted 26
Hopefully 26
visibility 26
Turk@@ 26
streaming 26
mia 26
Beethoven 26
Kyoto 26
Alpha 26
confirmed 26
organizational 26
nerd 26
lakes 26
Vinci 26
relaxed 26
hypo@@ 26
indul@@ 26
bluefin 26
rhetor@@ 26
actic 26
Mediterranean 26
bind 26
Ushahidi 26
Eff@@ 26
best@@ 26
appearing 26
wron@@ 26
sapiens 26
projec@@ 26
legi@@ 26
intrinsic 26
smuggl@@ 26
resour@@ 26
fundraising 26
Poor 26
leys 26
spine 26
milit@@ 26
Europe@@ 26
recycle 26
environment@@ 26
hotter 26
Lim@@ 26
Company 26
kan@@ 26
custom 26
paper@@ 26
prospect 26
aus 26
Deep 26
valid 26
cooler 26
charities 26
quo 26
wood@@ 26
sla@@ 26
vibra@@ 26
Skype 26
unintended 26
80,000 26
180 26
taxi 26
hunters 26
skies 26
lawn 26
unified 26
B. 26
yel@@ 26
erectus 26
titude 26
fitted 26
sail@@ 26
CO@@ 26
nonviolent 26
ween 26
insisted 26
stumbled 26
condom 26
ip@@ 26
brick 26
auditorium 26
controll@@ 26
54 26
turbul@@ 26
Ful@@ 26
shells 26
iron@@ 26
anony@@ 26
Norwegian 26
road@@ 26
fertility 26
schedule 26
tion-@@ 26
enthusiast@@ 26
pill@@ 26
blast 26
pops 26
forest@@ 26
embraced 26
erners 26
Sci@@ 26
petals 26
carcin@@ 26
stain@@ 26
ideals 26
ocracy 26
BS 26
ze@@ 26
hamburger 26
suspicious 26
fees 26
blink 26
digits 26
prioritize 26
cellphone 26
leaks 26
employee 26
pir@@ 26
loneliness 26
Often 26
halt 26
1970 26
system@@ 26
manages 26
nie 26
sprin@@ 26
ringe 26
superior 26
contributions 26
wasting 26
een 26
crawl 26
edited 26
satisfy 26
distinctive 26
self-assembly 26
Lady 26
radar 26
chin 26
animations 26
firsthand 26
Large 26
cro 26
artic@@ 26
doub@@ 26
identifying 26
approval 26
histories 26
prevents 26
sought 26
thly 26
schooling 26
.com. 26
isol@@ 26
lure 26
cock@@ 26
enterpris@@ 26
conceived 25
CD 25
Nicole 25
Garden 25
Under 25
inventors 25
persu@@ 25
claimed 25
meanings 25
spac@@ 25
wing@@ 25
reas@@ 25
Wonder@@ 25
hair@@ 25
Vis@@ 25
Chan@@ 25
blows 25
municip@@ 25
astronomical 25
divor@@ 25
geological 25
remembers 25
Dallas 25
60@@ 25
limitation 25
esthesia 25
Over@@ 25
closure 25
Agency 25
departments 25
lifelong 25
stors 25
Venezuela 25
Lots 25
meantime 25
exquisite 25
asto@@ 25
aner 25
rectangle 25
flown 25
Vo@@ 25
toxins 25
indication 25
tecton@@ 25
ozone 25
lazy 25
beloved 25
excellence 25
confusing 25
humili@@ 25
biote@@ 25
associ@@ 25
regulating 25
quad 25
measurement 25
RL 25
kings 25
triggered 25
adop@@ 25
sensible 25
intangible 25
requirements 25
centimeters 25
fills 25
Tunisia 25
asy 25
veterin@@ 25
visceral 25
ort@@ 25
prag@@ 25
permanently 25
Dave 25
newly 25
indoor 25
eco-@@ 25
discre@@ 25
thous@@ 25
stag@@ 25
sa 25
volcanic 25
kidneys 25
athlete 25
ini 25
Iraqi 25
Jay 25
census 25
Scientists 25
diagn@@ 25
partial 25
curator 25
biolumin@@ 25
barbar@@ 25
oplan@@ 25
secular 25
ima@@ 25
bending 25
pervasive 25
unimagin@@ 25
bak@@ 25
ressed 25
DE@@ 25
tern@@ 25
goats 25
self-esteem 25
ram 25
soft@@ 25
settings 25
cav@@ 25
vory 25
Simp@@ 25
FG 25
similarities 25
loops 25
improbable 25
fairy 25
waking 25
Dylan 25
cookie 25
pneumonia 25
ief 25
praise 25
invaded 25
appeti@@ 25
exhausted 25
joyful 25
placebo 25
,000-@@ 25
snap 25
Susan 25
juggling 25
ground@@ 25
Kibera 25
Some@@ 25
suggestions 25
ority 25
alls 25
thrust 25
heck 25
agnostic 25
instincts 25
dable 25
strand 25
Dem@@ 25
una 25
sketches 25
_ 25
Compassion 25
bicycles 25
hero@@ 25
humanities 25
dev@@ 25
archae@@ 25
instability 25
Otherwise 25
cleaned 25
bombar@@ 25
improvisation 25
prece@@ 25
overlap 25
checklist 25
bumps 25
icry 25
imaginary 25
fishery 25
yan 25
inno@@ 25
Dre@@ 25
contro@@ 25
elites 25
Red@@ 25
Kenyan 25
ambiguity 25
shi@@ 25
illustration 25
integrating 25
buff@@ 25
verb@@ 25
publication 25
confir@@ 25
immuni@@ 25
migraine 25
wounds 25
Companies 25
ign 25
grounded 25
erosion 25
anic 25
Coperni@@ 25
munications 25
conflic@@ 25
sighted 25
Save 25
crashing 25
epidemics 25
protests 25
vide@@ 25
aud@@ 25
screw 25
C-@@ 25
Simple 25
meanwhile 25
potato 25
magnets 25
chat@@ 25
swit@@ 25
scripts 25
i-@@ 25
shuttle 25
transcend 25
shirts 25
tel 25
nanotechnology 25
Phili@@ 25
triple 25
4,@@ 25
servers 25
distress 25
paralysis 25
Cent@@ 25
campaig@@ 25
mira@@ 25
phon@@ 25
arranged 25
erotic 25
ques 25
illustrates 25
exhilar@@ 25
attachment 25
Sta@@ 25
toast 25
Sweeney 25
stereotypes 25
industrialized 25
ford 25
developer 25
replied 25
hopeless 25
painter 25
Interviewer 25
Costa 25
EC@@ 25
signing 25
stretched 25
UCLA 25
currents 25
cybercriminals 25
Wolfram 25
epo@@ 25
irrigation 25
simil@@ 25
eup 25
less@@ 25
metaphors 25
ior@@ 25
consisten@@ 25
composer 25
courageous 25
2013 25
heavens 25
unsustainable 25
hats 25
loading 25
symphony 25
Already 25
competitors 25
brew 25
punish 25
jected 25
contexts 25
troubled 25
tooth 25
Cairo 25
Justice 25
Movement 25
Super 25
Goliath 25
denied 25
Siberia 25
timber 25
1996 25
encryption 25
hint 25
bitter 25
keen 25
min 25
boyfriend 25
leaning 25
enri@@ 25
contracts 25
vo 25
highways 25
colle@@ 25
drilling 25
Austria 25
threaten 25
appe@@ 25
sovereign 25
hurri@@ 25
crystal 25
camels 25
coch@@ 25
potatoes 25
wns 25
enting 25
Wat@@ 25
note@@ 25
synthesize 25
month-@@ 25
volcano 25
retr@@ 25
duce 25
tropics 25
god@@ 25
existential 25
scape 25
fictional 25
Lon@@ 25
facilit@@ 25
Mak@@ 25
crimin@@ 25
extensive 25
reinventing 25
unting 25
unemployment 25
surroundings 25
beaches 25
kilos 25
expressing 25
torial 25
Dor@@ 25
singer 25
Cop@@ 25
inflation 25
surprises 25
grabs 25
underestimate 25
intrigued 25
inefficient 25
compen@@ 25
radio@@ 25
Lawrence 25
ox@@ 25
seasons 25
urbanization 25
Rule 25
scarce 25
compose 25
comprehensive 25
best-@@ 25
Mountains 25
eradicate 25
lenses 25
bron@@ 25
wages 25
Windows 25
leu@@ 25
continually 25
viewers 25
backgrounds 25
tivism 25
charging 25
tizing 25
foreground 24
slu@@ 24
pedal 24
mism 24
vis 24
worries 24
Rel@@ 24
carto@@ 24
minal 24
hung 24
Poland 24
multic@@ 24
Prin@@ 24
preservation 24
revi@@ 24
lif@@ 24
80@@ 24
anticipated 24
journ@@ 24
owns 24
artif@@ 24
Jersey 24
nex@@ 24
spades 24
strating 24
promotion 24
for-profit 24
decei@@ 24
shallow 24
CT 24
offshore 24
Radio 24
enjoyable 24
) 24
step@@ 24
founders 24
Black@@ 24
passengers 24
Reagan 24
30@@ 24
ancestry 24
intentional 24
BL 24
cled 24
wander 24
selec@@ 24
command@@ 24
post-conflict 24
mentors 24
absorbed 24
Amon@@ 24
adjacent 24
portable 24
novelty 24
ingness 24
Guatemala 24
cartoonist 24
PH 24
competent 24
stop@@ 24
functionality 24
Bulg@@ 24
dol@@ 24
suit@@ 24
arrangement 24
outrageous 24
oke 24
operational 24
choir 24
trait 24
mind-wandering 24
com 24
packing 24
IQ 24
stabili@@ 24
courts 24
deny 24
transforms 24
focuses 24
enzyme 24
dium 24
sterile 24
Tar@@ 24
manifestation 24
thumb@@ 24
testosterone 24
cursor 24
ddled 24
interro@@ 24
tary 24
respiratory 24
ensla@@ 24
inhabit@@ 24
riage 24
of-@@ 24
wolves 24
casu@@ 24
53 24
veget@@ 24
oon 24
inser@@ 24
infra@@ 24
fashi@@ 24
Himalayas 24
coupled 24
Twenty 24
theor@@ 24
ype 24
cardiovascular 24
donation 24
Bern@@ 24
carbon-@@ 24
sustaining 24
margins 24
83 24
festival 24
21st-century 24
Government 24
explorers 24
worn 24
middle-class 24
animated 24
fatty 24
popping 24
billion@@ 24
mar 24
Free 24
cham@@ 24
Cir@@ 24
mammography 24
clicks 24
ached 24
Darfur 24
Orleans 24
triumph 24
reply 24
penetrate 24
directors 24
crawling 24
closet 24
weekly 24
ambiguous 24
substitu@@ 24
Solar 24
hospit@@ 24
grief 24
arises 24
rint 24
posts 24
prevented 24
AIMS 24
Perfect 24
eter@@ 24
ota 24
occupation 24
prizes 24
pinn@@ 24
Fu@@ 24
hallway 24
aesthetics 24
Milli@@ 24
ingu@@ 24
wreck 24
ailing 24
Everglades 24
NBA 24
recruited 24
improves 24
diam@@ 24
avoiding 24
excuses 24
Doug 24
ury 24
Margaret 24
swallowed 24
Les@@ 24
respects 24
orp@@ 24
deem@@ 24
spir@@ 24
grip 24
appealing 24
abnormal 24
packaging 24
acle 24
investigating 24
aut 24
icons 24
Holy 24
Neither 24
freeze 24
vine 24
neuroscienti@@ 24
Start 24
simplistic 24
attering 24
poets 24
irrelevant 24
trunk 24
regulated 24
82 24
space-time 24
Book 24
Moses 24
Jeopardy 24
crosses 24
ministers 24
exhi@@ 24
enced 24
geese 24
cue 24
cus@@ 24
state-of-the-art 24
opoly 24
ulu 24
amput@@ 24
injection 24
Modern 24
Gold 24
vivid 24
synapses 24
emit@@ 24
ami 24
ocation 24
energe@@ 24
switches 24
algebra 24
roll@@ 24
ringing 24
orphanage 24
Hyper@@ 24
stimulus 24
boiling 24
ore@@ 24
thermore 24
Paulo 24
Pin@@ 24
creators 24
medit@@ 24
1968 24
northeast 24
lesbian 24
Tal@@ 24
balloons 24
requests 24
fic@@ 24
voyage 24
stakes 24
foo@@ 24
interviewing 24
learner 24
periodic 24
indoors 24
behaving 24
neurological 24
stru@@ 24
Gri@@ 24
circuit@@ 24
iPad 24
sealed 24
eliminated 24
arithmetic 24
cultivate 24
get@@ 24
admi@@ 24
ffer 24
vices 24
meg@@ 24
upload 24
automobiles 24
Language 24
anders 24
refu@@ 24
angular 24
gling 24
admit@@ 24
top-down 24
geons 24
Norman 24
Wi-Fi 24
fa 24
93 24
champion 24
antibodies 24
wri@@ 24
ras 24
popped 24
melody 24
academics 24
MO 24
HG 24
intest@@ 24
fu 24
pirate 24
inadequate 24
gery 24
triangles 24
plug@@ 24
1989 24
abused 24
critic 24
hippocampus 24
RISD 24
restra@@ 24
manufacturer 24
resist@@ 24
lessness 24
Inside 24
shing 24
achers 24
equator 24
Barack 24
rigor@@ 24
torn 24
I.Q. 24
black-@@ 24
tweet 24
Linux 24
attribute 24
reflecting 24
500,000 24
Given 24
clicking 24
requ@@ 24
lap@@ 24
acknowledged 24
tourism 24
iss@@ 24
ingenuity 24
Doc@@ 24
Sist@@ 24
oo 24
backward 24
harvest@@ 24
swap 24
Sever@@ 24
substanti@@ 24
bioluminescence 24
hotels 24
educating 24
Dam@@ 24
throws 24
belts 24
smiles 24
Germans 24
conspiracy 24
voic@@ 24
continuity 24
Nic@@ 24
-in-law 24
executives 24
blob 24
retire 24
subur@@ 24
rist 24
ona 24
Fr@@ 24
aunt 24
neuroscientists 24
messaging 24
10th 24
jury 24
af 24
contest 24
Sho@@ 24
suscep@@ 24
acquis@@ 24
symboli@@ 24
irts 24
fill@@ 24
souls 24
criticism 24
one-third 23
guidance 23
ghost 23
humiliation 23
stunts 23
unite 23
overseas 23
mas 23
evident 23
clap 23
Type 23
anch@@ 23
determining 23
orable 23
var@@ 23
ticals 23
grim 23
statue 23
Marine 23
1973 23
helic@@ 23
ularly 23
unlock 23
mega@@ 23
28@@ 23
strangely 23
asound 23
dage 23
methodology 23
hierarch@@ 23
inventing 23
measurable 23
richness 23
Christ 23
Alger@@ 23
Abu 23
drowning 23
purpos@@ 23
avail@@ 23
neighbor@@ 23
Agnes 23
sci@@ 23
sync 23
adow 23
pets 23
tense 23
encies 23
insecure 23
Swe@@ 23
execution 23
hosts 23
peace@@ 23
nano-@@ 23
XL 23
D. 23
Pol@@ 23
record@@ 23
gement 23
wling 23
profession@@ 23
databases 23
inputs 23
shrinking 23
fingertips 23
asis 23
remot@@ 23
zine 23
cultiv@@ 23
ninth 23
tad@@ 23
regimes 23
LA 23
mass-@@ 23
Scienti@@ 23
erase 23
friendships 23
urine 23
literary 23
epidemi@@ 23
Excell@@ 23
dants 23
nt 23
thou@@ 23
compet@@ 23
coinci@@ 23
favelas 23
hypothetical 23
Real 23
SJ 23
refres@@ 23
hello 23
verbs 23
thium 23
donations 23
eva 23
weal@@ 23
Easter 23
partici@@ 23
floods 23
subscri@@ 23
spirits 23
minist@@ 23
balan@@ 23
dissem@@ 23
butt 23
translates 23
Sony 23
strokes 23
Lei@@ 23
filed 23
Oregon 23
expands 23
hallucin@@ 23
StoryCorps 23
busin@@ 23
consu@@ 23
uncertain 23
Fox 23
Sebastian 23
atra@@ 23
terminal 23
decentralized 23
trailer 23
gossi@@ 23
dining 23
environmentally 23
dou@@ 23
sympathy 23
sights 23
pis@@ 23
saves 23
overwhel@@ 23
justi@@ 23
perpetu@@ 23
kni@@ 23
reminder 23
cial 23
Village 23
Murray 23
worship 23
forec@@ 23
Imp@@ 23
inher@@ 23
priest 23
flooding 23
one-on-one 23
secretly 23
Through@@ 23
Scottish 23
buz@@ 23
E.U. 23
Behind 23
envy 23
skyscrap@@ 23
emia 23
sten 23
uled 23
banker 23
warms 23
preferences 23
swamp 23
crash@@ 23
take-@@ 23
enzymes 23
contri@@ 23
marriages 23
ull@@ 23
honeybees 23
ide 23
cip@@ 23
Zipcar 23
wax 23
centralized 23
counterintuitive 23
varied 23
stering 23
tator@@ 23
glorious 23
phany 23
Earth-@@ 23
ring@@ 23
scholarship 23
Colum@@ 23
passi@@ 23
SA 23
bbon 23
degradation 23
framing 23
ignorant 23
desertification 23
gar 23
exams 23
homin@@ 23
Ivan 23
Marcus 23
mmed 23
Las 23
Gold@@ 23
eins 23
retired 23
intrinsically 23
Differ@@ 23
explicit 23
rightly 23
scare 23
angel@@ 23
upwards 23
Ath@@ 23
IP@@ 23
cers 23
followers 23
pick-@@ 23
resemble 23
recl@@ 23
go-@@ 23
shred@@ 23
devised 23
settlement 23
novels 23
spills 23
mighty 23
Fo@@ 23
council 23
Plan@@ 23
descriptions 23
Uh 23
fade 23
hable 23
minimize 23
germs 23
Sydney 23
Cle@@ 23
Flickr 23
Cher@@ 23
poetic 23
elessness 23
menting 23
handy 23
idity 23
stabilize 23
Hudson 23
insist 23
remin@@ 23
drowned 23
stereo 23
burns 23
detectors 23
lightweight 23
BMW 23
Sky@@ 23
cubic 23
presentations 23
maximize 23
vals 23
corresponding 23
Got 23
Van 23
ros 23
livel@@ 23
Essenti@@ 23
liberals 23
dependen@@ 23
depen@@ 23
ing-edge 23
Kelly 23
dens 23
inas 23
house@@ 23
stically 23
hipp@@ 23
ima 23
strongest 23
Intelli@@ 23
model@@ 23
ki@@ 23
develops 23
sequest@@ 23
thirdly 23
trust@@ 23
pice 23
disciplinary 23
union 23
lling 23
elevated 23
Julia 23
roman@@ 23
tortured 23
40-@@ 23
hammer 23
offici@@ 23
ita 23
phthal@@ 23
twin@@ 23
satur@@ 23
wallet 23
flock 23
200@@ 23
plut@@ 23
Alber@@ 23
differentiate 23
Tat@@ 23
bomb@@ 23
steep@@ 23
jeans 23
invade 23
fin 23
Depression 23
Del@@ 23
fluctuations 23
whistling 23
evolution@@ 23
unders 23
ais@@ 23
uploaded 23
Starbucks 23
day-to-day 23
impul@@ 23
icillin 23
thum@@ 23
rushed 23
implication 23
Ker@@ 23
propag@@ 23
long@@ 23
logist@@ 23
proble@@ 23
fulfilled 23
mity 23
personnel 23
DL 23
fool 23
numb 23
heel 23
vot@@ 23
chu@@ 23
Williams 23
view@@ 23
questioned 23
textile 23
floo@@ 23
poorer 23
reporter 23
ender 23
depressing 23
tification 23
Pakistani 23
tales 23
DARPA 23
Ed 23
nail 22
comput@@ 22
roo@@ 22
parall@@ 22
Gal@@ 22
Bhutan 22
emen 22
reve@@ 22
oxy@@ 22
Wal-Mart 22
extremes 22
just@@ 22
are-@@ 22
sourcing 22
consum@@ 22
wom@@ 22
gif@@ 22
rati@@ 22
deser@@ 22
Cat@@ 22
manufac@@ 22
ution 22
emin@@ 22
porno@@ 22
Pop@@ 22
apar@@ 22
rel 22
bine 22
ician 22
efoot 22
Pap@@ 22
160 22
elli@@ 22
agile 22
policing 22
und 22
bank@@ 22
2.0 22
unge 22
light@@ 22
Guardian 22
constra@@ 22
Hadron 22
1986 22
Renaissance 22
fe 22
Run 22
hap@@ 22
Online 22
Ric@@ 22
mangro@@ 22
IMF 22
Imag@@ 22
travel@@ 22
packs 22
Oliver 22
docum@@ 22
Point 22
cand@@ 22
stic@@ 22
JL 22
1985 22
ehow 22
mission@@ 22
AS@@ 22
LEDs 22
pedi@@ 22
reads 22
Lam@@ 22
Side 22
inspi@@ 22
Typ@@ 22
myth@@ 22
seller 22
sanit@@ 22
Er@@ 22
high-quality 22
Tamiflu 22
prote@@ 22
pharma@@ 22
Get@@ 22
reg@@ 22
Home 22
oscope 22
emission 22
ument 22
Pau@@ 22
paran@@ 22
Collider 22
survi@@ 22
Lis@@ 22
99.@@ 22
vet 22
Vel@@ 22
Tas@@ 22
TS 22
ougher 22
Code 22
mach@@ 22
Wired 22
mega-@@ 22
los 22
Yesterday 22
lie@@ 22
lier 22
spl@@ 22
Thous@@ 22
ight@@ 22
Colorado 22
antic 22
orrow 22
mass@@ 22
Nine 22
arium 22
figur@@ 22
hunter@@ 22
ghter 22
correspon@@ 22
DI@@ 22
mama 22
differ@@ 22
symptom 22
mium 22
unior 22
ano 22
IT 22
Shor@@ 22
1976 22
Lar@@ 22
photograph@@ 22
chore@@ 22
Isaac 22
tasking 22
tops 22
even@@ 22
Conference 22
tolerant 22
MP@@ 22
promp@@ 22
spre@@ 22
forum 22
angel 22
Gam@@ 22
genu@@ 22
ramp@@ 22
ossi@@ 22
stig@@ 22
12-@@ 22
pee 22
adverti@@ 22
aser 22
ouse 22
seven@@ 22
Movember 22
innov@@ 22
angiogen@@ 22
Energy 22
Index 22
League 22
Hitler 22
Vietnam@@ 22
mix@@ 22
J. 22
ield 22
Close 22
stak@@ 22
curi@@ 22
Yo@@ 22
spectac@@ 22
Pentagon 22
bie 22
orbital 22
Girls 22
usion@@ 22
mn@@ 22
Q 22
Evan 22
recip@@ 22
Lesters 22
Pas@@ 22
assu@@ 22
Taiwan 22
UK 22
atur@@ 22
vity 22
Rob 22
bassy 22
110 22
jam 22
sten@@ 22
CNN 22
akers 22
disrup@@ 22
Pepsi 22
integra@@ 22
Buy 22
6.@@ 21
rogen 21
Avenue 21
7.@@ 21
May@@ 21
us-@@ 21
Yel@@ 21
sick@@ 21
46 21
SARS 21
lest 21
A. 21
Channel 21
Gordon 21
fts 21
inary 21
= 21
Caltech 21
Coun@@ 21
mous 21
joy@@ 21
plat@@ 21
89 21
impres@@ 21
abytes 21
Seri@@ 21
pressed 21
zip 21
suspen@@ 21
tories 21
Men@@ 21
Nik@@ 21
circum@@ 21
gon 21
quantitative 21
reven@@ 21
adequate 21
Club 21
Fir@@ 21
Titanic 21
abo@@ 21
Joel 21
natur@@ 21
sentim@@ 21
Wei@@ 21
membran@@ 21
therapeu@@ 21
py 21
Ot@@ 21
eland 21
80-@@ 21
automo@@ 21
ati 21
Mis@@ 21
“ 21
Rose 21
Baby 21
Millennium 21
eor@@ 21
200-@@ 21
termin@@ 21
rene@@ 21
dations 21
Wis@@ 21
PE@@ 21
acon 21
copic 21
Zo@@ 21
logy 21
algorith@@ 21
Eu@@ 21
sket@@ 21
hit@@ 21
contain@@ 21
immen@@ 21
Psych@@ 21
Andy 21
extre@@ 21
boot 21
Tennessee 21
Nat@@ 21
biting 21
Andro@@ 21
influenz@@ 21
redund@@ 21
utions 21
ikes 21
tude 21
Curi@@ 21
Cassini 21
Guinea 21
abad 21
# 21
birth@@ 21
D-@@ 21
industri@@ 21
TEDster 21
tiers 21
pots 21
Emer@@ 21
CERN 21
gangs 21
sug@@ 21
cephal@@ 21
Digital 21
hale 21
TR 21
K. 21
amy@@ 21
plex@@ 21
ateri@@ 21
ander@@ 21
CC 21
mming 21
Cham@@ 21
Robo@@ 21
abbi 21
Left 21
secre@@ 21
informa@@ 21
ko 21
bration 21
Bridge 21
infin@@ 21
norm@@ 21
stap@@ 21
fluctu@@ 21
pedestri@@ 21
gan 21
mir@@ 21
sank 21
Huh 21
pap@@ 21
deep@@ 21
boarding 21
100-@@ 21
utop@@ 21
et-@@ 21
Sri 21
entary 21
Solomon 21
glob@@ 21
Maria 21
Maj@@ 21
pher@@ 21
Sty@@ 21
osaurus 21
fts@@ 21
digit@@ 21
idential 21
sour@@ 21
Neanderth@@ 21
Lakota 21
Trust 21
Magazine 21
OO@@ 21
cade 21
acknowle@@ 21
toos 21
Hur@@ 21
Toyota 21
Creative 21
oos 21
bag@@ 21
urch@@ 21
wn@@ 21
60-@@ 21
elu@@ 21
fluor@@ 21
Tel@@ 21
Frank@@ 21
generator 21
prosp@@ 21
Cameron 21
twen@@ 21
organ@@ 21
alit@@ 21
ier@@ 21
foun@@ 21
Panbanisha 21
bes@@ 21
progressive 21
Honey 21
process@@ 21
il-@@ 21
Titus 21
Police 21
Rum@@ 21
propri@@ 21
embo@@ 21
Pope 21
Persi@@ 21
Fantast@@ 21
cia 21
stal@@ 21
coura@@ 21
Kepler 21
ony@@ 21
Nancy 21
weigh@@ 21
neurolog@@ 21
icial 21
mom@@ 21
Galileo 21
71 21
Ama@@ 21
obby 21
Scratch 21
tionist 21
BP 21
AV 21
opho@@ 21
dical 21
metaboli@@ 21
V-@@ 21
Fort 21
wen@@ 21
Ali@@ 21
Sec@@ 21
won@@ 21
Loo@@ 21
surge 21
numer@@ 21
Kl@@ 21
itely 21
mum 21
Down 21
och@@ 21
Arts 21
jewel@@ 21
divers 21
oppos@@ 21
mmer 21
phen@@ 21
ece 21
Ple@@ 21
auti@@ 21
TB 20
Marshall 20
77 20
technologi@@ 20
anist 20
diagnost@@ 20
jan 20
Captain 20
suffici@@ 20
RNG 20
P. 20
Friedman 20
weap@@ 20
intim@@ 20
ech@@ 20
CIA 20
yl 20
Exxon 20
39 20
5.@@ 20
now@@ 20
mats 20
gn@@ 20
ometers 20
Duke 20
rial 20
Lab@@ 20
inferi@@ 20
centi@@ 20
rist@@ 20
aj@@ 20
steri@@ 20
sations 20
Buff@@ 20
Ton@@ 20
Cooper 20
Fis@@ 20
enjo@@ 20
Non@@ 20
nies 20
Emma 20
ester@@ 20
vered 20
versity 20
Julian 20
Eden 20
el-@@ 20
” 20
contribut@@ 20
Reser@@ 20
Enceladus 20
91 20
what@@ 20
88 20
iles 20
health@@ 20
face-@@ 20
grad 20
LO@@ 20
TEDx 20
deal@@ 20
ght-@@ 20
advanta@@ 20
lah 20
lus@@ 20
los@@ 20
Achilles 20
paus@@ 20
oney 20
expedi@@ 20
Jama@@ 20
á@@ 20
BBC 20
dos 20
sav@@ 20
passion@@ 20
exercis@@ 20
dial@@ 20
Hal@@ 20
reduc@@ 20
Europa 20
rey 20
Ma 20
forbi@@ 20
Mind 20
iss 20
decis@@ 20
ahs 20
ver-@@ 20
ghten@@ 20
I-@@ 20
Work 20
Yves 20
thes@@ 20
expan@@ 20
arly 20
liter@@ 20
360 20
mann 20
tag@@ 20
Russell 20
hen@@ 20
sac@@ 20
warm@@ 20
Nevada 20
Legos 20
reflex 20
Barry 20
enth@@ 20
Living 20
Walk 20
circumst@@ 20
Snow 20
Group 20
eters 20
opi@@ 20
promin@@ 20
Kir@@ 20
ank@@ 20
De 20
Electri@@ 20
pist@@ 20
abri@@ 20
primor@@ 20
Gaza 20
92 20
iler 20
Dick 20
anda 20
bran@@ 20
laun@@ 20
crip@@ 20
irre@@ 20
bute 20
WHO 20
Glass 20
nels 20
Mahatma 20
Tam@@ 20
mm 20
awar@@ 20
fisher@@ 20
Live 20
lighten@@ 20
lover 20
Anonymous 20
SM 20
SO@@ 20
synap@@ 20
ker@@ 20
uit 20
ethni@@ 20
Ram@@ 20
Kur@@ 20
extern@@ 20
mess@@ 20
DG 20
whe@@ 20
Nazi 20
Oc@@ 20
dan 20
S.@@ 20
Lesterland 20
SR 20
Bono 20
CP 20
tainment 20
Dep@@ 20
mend@@ 20
tural 20
HA 20
metast@@ 20
incenti@@ 20
Philipp@@ 20
skelet@@ 20
Nathan 20
CAPTCHA 20
domest@@ 20
KS 20
ried 20
gab@@ 20
Wiki@@ 20
Rou@@ 20
sel 20
interrup@@ 20
vic@@ 20
iers 20
ret 20
ales 20
Portland 20
tiv@@ 20
Armstrong 20
ometer 20
bon 20
programm@@ 20
bedro@@ 20
compreh@@ 20
nut@@ 20
ry@@ 20
ti 20
cans 20
49 20
RG 20
assign@@ 20
es-@@ 20
Mission 20
Bec@@ 20
coins 20
Harlem 19
autobi@@ 19
ug 19
hir@@ 19
Report 19
Magic 19
Rain@@ 19
bitten 19
occas@@ 19
Angel@@ 19
Kat@@ 19
evi@@ 19
wls 19
cient 19
PR@@ 19
distor@@ 19
nett 19
Pres@@ 19
anatom@@ 19
decep@@ 19
Holocaust 19
short-@@ 19
Tahrir 19
Computer 19
Marx 19
illing 19
neuros@@ 19
Rachel 19
Mrs. 19
IV 19
Boo@@ 19
territ@@ 19
Power 19
fig@@ 19
Liber@@ 19
liz@@ 19
Neil 19
Ei@@ 19
Baltimore 19
intensi@@ 19
cept 19
Sergio 19
Acumen 19
End 19
Potter 19
qualit@@ 19
Wit@@ 19
Hindu 19
PS 19
lifes@@ 19
alition 19
Fel@@ 19
Khan 19
relax@@ 19
yss 19
Brain 19
Stirling 19
Stra@@ 19
prefer@@ 19
fall@@ 19
Innovation 19
aga 19
charis@@ 19
Blu@@ 19
Bloo@@ 19
struggl@@ 19
Ale@@ 19
aka 19
Mach@@ 19
Alabama 19
conveni@@ 19
Everywhere 19
appreci@@ 19
dock 19
jects 19
reflec@@ 19
Laur@@ 19
Engli@@ 19
alia 19
ushed 19
exter@@ 19
desper@@ 19
buted 19
Josh 19
fir@@ 19
va@@ 19
Jesse 19
Not@@ 19
prosper@@ 19
alth 19
All@@ 19
Cohen 19
Dubai 19
gravit@@ 19
nel 19
asymmet@@ 19
fee 19
otonin 19
lor@@ 19
ada 19
raft 19
Roosevelt 19
oria 19
recon@@ 19
RSW 19
produc@@ 19
Dri@@ 19
humane 19
Oakland 19
Jennifer 19
juven@@ 19
Mom@@ 19
eman@@ 19
gia 19
ines@@ 19
Graham 19
giene 19
win-@@ 19
Virtual 19
crete 19
fere 19
simulator 19
itors 19
oter 19
distinc@@ 19
Balk@@ 19
trin@@ 19
84 19
nd 19
V. 19
Fortune 19
paradig@@ 19
FI@@ 19
Palestin@@ 19
umps 19
29@@ 19
DC 19
ees 19
Fair 19
61 19
rut@@ 19
du 19
Bab@@ 19
Fred 19
publi@@ 19
assum@@ 19
Invest@@ 19
l-@@ 19
repres@@ 19
ber-@@ 19
antibio@@ 19
orn 19
ouldn 19
Miami 19
zero-sum 19
IP 19
Sym@@ 19
Voyager 19
Domin@@ 19
mah 19
1974 19
74 19
junk@@ 19
Tech 19
ults 19
cogni@@ 19
Wol@@ 19
18-@@ 19
Rosling 19
vast@@ 19
racy 19
harmon@@ 19
sna@@ 19
tyran@@ 19
CE@@ 19
Ds 19
clim@@ 19
repor@@ 19
gill 19
Fibonacc@@ 19
Vancouver 19
spiritu@@ 19
supermassive 19
Max 19
theid 19
mun@@ 19
Mario 19
attemp@@ 19
5,@@ 19
rying 19
Chi@@ 19
induc@@ 19
MBA 19
Equ@@ 19
Romo 19
million@@ 19
urt 19
DM@@ 19
Fam@@ 19
color@@ 19
EE@@ 19
astronom@@ 19
mies 19
DJ 19
appl@@ 19
ST 19
Alli@@ 19
fertili@@ 19
olith@@ 19
tren@@ 19
tes@@ 19
Ty@@ 19
56 19
Service 19
Cs 19
Ground 19
iden@@ 19
volcan@@ 19
omet@@ 19
Oprah 19
atin 19
HP 19
extin@@ 19
Jazeera 18
Organ@@ 18
Bahamas 18
1918 18
ordin@@ 18
ussion 18
agne 18
pha 18
foc@@ 18
lapar@@ 18
top-@@ 18
Serge@@ 18
worth@@ 18
cockro@@ 18
Network 18
utter@@ 18
Ren@@ 18
IDEO 18
Babylon 18
sus 18
Fire@@ 18
Thanksgiving 18
width 18
Financial 18
Os@@ 18
elines 18
Whole 18
exhibi@@ 18
Missouri 18
Jav@@ 18
eks 18
check@@ 18
ronym 18
eit 18
Kim 18
ule 18
mp 18
Ms. 18
Walmart 18
chap@@ 18
Diana 18
pollut@@ 18
starter 18
2-@@ 18
altar 18
sels 18
Euro@@ 18
civiliz@@ 18
UC@@ 18
8,@@ 18
centr@@ 18
RA 18
loser 18
helix 18
schizophren@@ 18
urs@@ 18
68 18
1983 18
vor 18
erti@@ 18
paired 18
dealer 18
Venter 18
ption 18
Hotel 18
IKEA 18
Anas 18
kat@@ 18
Jonas 18
Gan@@ 18
unbelie@@ 18
Galois 18
paig@@ 18
Human@@ 18
Glenn 18
Cer@@ 18
Chr@@ 18
McC@@ 18
Ha 18
sover@@ 18
CDs 18
Bs 18
Bond 18
Cli@@ 18
Mahmoud 18
tia 18
statist@@ 18
Bring 18
irl@@ 18
Dad@@ 18
SA@@ 18
tagon@@ 18
nostal@@ 18
wiches 18
diagra@@ 18
tori@@ 18
AS 18
Has@@ 18
Jason 18
utan 18
elo@@ 18
propor@@ 18
Planet 18
Cr@@ 18
chlor@@ 18
Will@@ 18
Wri@@ 18
Grace 18
Ral@@ 18
Commons 18
unbe@@ 18
101 18
Bassem 18
Map 18
venue 18
transpor@@ 18
aper 18
KT 18
xim@@ 18
It@@ 18
Ken@@ 18
Bertie 18
posit@@ 18
auto@@ 18
SL 18
Are@@ 18
Desig@@ 18
occasion@@ 18
Hopkins 18
Walter 18
scrap@@ 18
Alfred 18
insul@@ 18
Oscar 18
seu@@ 18
aders 18
iPods 18
66 18
dop@@ 18
tent@@ 18
Hurri@@ 18
ket@@ 18
Off@@ 18
anal@@ 18
FOXO 18
Stockholm 18
ghts 18
Da 18
etal 18
Pat 18
Qatar 18
ID 18
Bali 18
Nar@@ 18
ortho@@ 18
celebr@@ 18
rotten 18
usions 18
pessimist@@ 18
strated 18
Explor@@ 18
liter 18
percei@@ 18
recy@@ 18
Stanley 18
stin@@ 18
boom@@ 18
icles 18
aven@@ 18
Taylor 18
Ele@@ 18
Israelis 18
genesis 18
Blo@@ 18
Ant@@ 18
Contro@@ 18
Word 18
Cru@@ 18
Ci@@ 18
bryo 18
Haw@@ 18
Jackson 18
ilt 18
Mississippi 18
hang@@ 18
Madagas@@ 18
aa@@ 18
eign 18
proj@@ 18
Out@@ 18
Patient 18
lag 18
dox@@ 18
ppers 18
Economist 18
theore@@ 18
Aaron 18
homosexu@@ 18
Survey 18
bator 18
Fro@@ 18
earthqu@@ 18
legiti@@ 18
cas 18
para@@ 18
harm@@ 18
ne-@@ 17
São 17
Rift 17
Shoots 17
atta@@ 17
heal@@ 17
è@@ 17
Navy 17
hyperbo@@ 17
Rand 17
AR 17
Ali 17
gress 17
eni@@ 17
line@@ 17
Fas@@ 17
Jamie 17
alin 17
Archimedes 17
But@@ 17
request@@ 17
Carol 17
bi 17
Person@@ 17
forma@@ 17
VC 17
pus 17
Democra@@ 17
Mul@@ 17
shut@@ 17
1982 17
icious 17
Generation 17
agen@@ 17
CS@@ 17
Ur@@ 17
ld 17
vet@@ 17
emy 17
ler@@ 17
studi@@ 17
photograp@@ 17
apologi@@ 17
Julie 17
alian 17
Jac@@ 17
Picasso 17
las 17
guts 17
libr@@ 17
Brilliant 17
suppor@@ 17
rine 17
Jer@@ 17
Christopher 17
63 17
gie 17
thop@@ 17
Mandarin 17
Parti@@ 17
gress@@ 17
beit 17
73 17
hall@@ 17
thie@@ 17
-B@@ 17
USDA 17
ao 17
PA@@ 17
vention 17
Play 17
Ari@@ 17
Laboratory 17
Lat@@ 17
ison 17
dles 17
Sul@@ 17
Benki 17
Maryland 17
Billy 17
Archie 17
Shei@@ 17
Rica 17
iza 17
Ans@@ 17
tphones 17
impro@@ 17
enny 17
Power@@ 17
Miller 17
Develop@@ 17
facili@@ 17
Independent 17
figh@@ 17
Johns 17
Osama 17
Mellon 17
ov 17
Gallery 17
bour@@ 17
Fahr@@ 17
auth@@ 17
Bom@@ 17
att-@@ 17
1987 17
trage 17
Board 17
occurr@@ 17
Sobule 17
destro@@ 17
TM 17
Barbara 17
antiretro@@ 17
Satan 17
zzy 17
Amanda 17
Tun@@ 17
institution@@ 17
sustain@@ 17
Maps 17
sch 17
me-@@ 17
Atten@@ 17
Vic@@ 17
eviden@@ 17
transforma@@ 17
NM 17
TD 17
Noah 17
Prot@@ 17
1957 17
Sound 17
paint@@ 17
lig@@ 17
erre@@ 17
Rap@@ 17
enheit 17
bal 17
butter 17
00 17
Game 17
Karl 17
Beck 17
Roots 17
cely 17
Heal@@ 17
sophistic@@ 17
Genome 17
fortun@@ 17
uh 17
Liter@@ 17
analog@@ 17
indi@@ 17
mad@@ 17
von 17
so-@@ 17
Gener@@ 17
kh 17
necess@@ 17
sea@@ 17
autonom@@ 17
Ky@@ 17
knowle@@ 17
priori@@ 17
Sue 17
swa@@ 17
teen@@ 17
Happ@@ 17
8.@@ 17
eteria 17
On@@ 17
ammed 17
stat 17
ession@@ 17
Nation 17
Hom@@ 17
defin@@ 17
ady 17
train@@ 17
Photoshop 17
mini@@ 17
Kan@@ 17
anni@@ 17
Aqu@@ 17
ABC 17
EB 17
Gh@@ 16
Beatles 16
novel@@ 16
horn 16
Arkansas 16
trag@@ 16
Saddam 16
cha 16
inst 16
inhal@@ 16
Evolution 16
1992 16
Hil@@ 16
Tradi@@ 16
79 16
Riverside 16
ling@@ 16
Mah@@ 16
BM 16
mail@@ 16
Mubarak 16
Lind@@ 16
Eleph@@ 16
OS 16
onder@@ 16
Ronald 16
lan 16
surv@@ 16
thal@@ 16
mou@@ 16
170 16
civili@@ 16
call@@ 16
wah@@ 16
apa@@ 16
Syn@@ 16
Asi@@ 16
oti@@ 16
Conservation 16
Der@@ 16
C.@@ 16
Mt 16
hybri@@ 16
tier 16
ocra@@ 16
Ten@@ 16
R-@@ 16
Page 16
Cochrane 16
mond 16
OPEC 16
ADH@@ 16
Von 16
Model 16
tium 16
Eat 16
istan 16
radic@@ 16
Nollywood 16
thetics 16
ax 16
traumati@@ 16
Doha 16
quer 16
NO@@ 16
Supp@@ 16
Hampshire 16
Vent@@ 16
orities 16
Play@@ 16
uli@@ 16
ader 16
raffe 16
Jimmy 16
lowed 16
proportional 16
GB 16
1965 16
si 16
fing@@ 16
ó@@ 16
targe@@ 16
OM@@ 16
depres@@ 16
antum 16
Ferr@@ 16
econom@@ 16
yond 16
Penn 16
chi 16
glori@@ 16
coher@@ 16
Hiroshima 16
sha 16
Ukraine 16
din 16
derer 16
grab@@ 16
Aurora 16
Jacques 16
copes 16
hemisp@@ 16
Roy 16
ean 16
70@@ 16
hangs 16
real@@ 16
DV@@ 16
unker 16
Pink 16
pest 16
apos@@ 16
HeForShe 16
ele@@ 16
Chad 16
situ@@ 16
Briga@@ 16
dary 16
Spo@@ 16
Pros@@ 16
Got@@ 16
Aimee 16
Gando 16
Corporation 16
Plat@@ 16
rais@@ 16
edy 16
prob@@ 16
cam@@ 16
prac@@ 16
Ye@@ 16
yor 16
Nico 16
Stri@@ 16
head-@@ 16
PT@@ 16
esti@@ 16
pluri@@ 16
wel 16
1988 16
41 16
HIV-positive 16
Boys 16
dis 16
Barbie 16
censor@@ 16
nerv@@ 16
FreeSpeech 16
wick@@ 16
Eleanor 16
honey@@ 16
Plan 16
inner@@ 16
Botswana 16
gau@@ 16
Kentucky 16
lemm@@ 16
Van@@ 16
1978 16
contr@@ 16
smu@@ 16
Cla@@ 16
transmitter 16
amas 16
NATO 16
elf 16
recogni@@ 16
riers 16
oot 16
suspic@@ 16
Gil@@ 16
contem@@ 16
Uruguay 16
regenerative 16
Thank@@ 16
Pr@@ 16
3-@@ 16
Vermeer 16
Nicholas 16
ffel 16
Bud@@ 16
coast@@ 16
kel@@ 16
elast@@ 16
modul@@ 16
81 16
Kabul 16
Antar@@ 16
tender 16
aboli@@ 16
orphan@@ 16
Superman 16
hty 16
Sudhir 16
Luke 16
Homer 16
alie 16
Matthew 16
F. 16
Solly 16
T.B. 16
2014 16
Dun@@ 16
Cheet@@ 16
Bonobo 16
gments 16
vage 16
antor 16
Squ@@ 16
Rockefeller 16
Ze 16
1967 16
IM@@ 16
sins 16
pharmaceu@@ 16
bibli@@ 16
offen@@ 16
ptions 16
op-@@ 16
Arti@@ 16
Bil@@ 16
eld 16
strate 16
ident 16
Houston 16
Studio 16
fem@@ 16
Minnesota 16
fam@@ 16
By@@ 16
Dol@@ 16
Jack@@ 16
bald 16
wadays 16
bean 16
voir 16
preced@@ 16
anc@@ 16
Mao 16
Ret@@ 16
Whe@@ 16
a-half 16
Tumor 16
Langley 16
Drake 15
Kanzi 15
gle@@ 15
buntu 15
SOPA 15
Sioux 15
asm 15
Hannah 15
yne 15
seek@@ 15
NG 15
H5N1 15
Maslow 15
Juan 15
Beat@@ 15
bao 15
Vagina 15
vig@@ 15
arrogant 15
invest@@ 15
Rho@@ 15
Pit@@ 15
agon 15
Bat@@ 15
Scot@@ 15
BM@@ 15
ELAM 15
BI 15
jet@@ 15
Khal@@ 15
fare 15
fak@@ 15
Mobile 15
MR@@ 15
Mouaz 15
Harv@@ 15
pyrami@@ 15
tall@@ 15
USC 15
eus 15
ania 15
Juli@@ 15
lean@@ 15
inning 15
CL 15
quick@@ 15
gdala 15
1949 15
desig@@ 15
S-@@ 15
Jarrett 15
scar 15
Judy 15
Flor@@ 15
Dimitri 15
addi@@ 15
stan 15
detec@@ 15
quet@@ 15
cades 15
Shu@@ 15
1979 15
juggl@@ 15
dra 15
Tran@@ 15
sis 15
Mik@@ 15
there@@ 15
titudes 15
syche 15
Land@@ 15
750 15
ef 15
abili@@ 15
Ryan 15
Pearl 15
Tarahumara 15
Tasman@@ 15
gang@@ 15
feld 15
jets 15
Walker 15
Al-@@ 15
ems 15
Leo 15
retin@@ 15
Ecu@@ 15
vels 15
eur 15
stark 15
ZK 15
dor 15
ken-@@ 15
Hun@@ 15
Austin 15
thritis 15
aba 15
Sally 15
Any@@ 15
nell 15
Rot@@ 15
ig 15
lik@@ 15
dy-@@ 15
disc@@ 15
ix 15
Grey 15
anz@@ 15
aly@@ 15
visi@@ 15
Ethiop@@ 15
deral 15
UN 15
PIPA 15
Inst@@ 15
Susie 15
Wind 15
Gertrude 15
dend 15
gering 15
Carter 15
otyp@@ 15
flexi@@ 15
who@@ 15
Extre@@ 15
Weibo 15
aterial 15
PISA 15
Darwin@@ 15
ES 15
devis@@ 15
ergy 15
vens 15
nity 15
earth@@ 15
Camer@@ 15
agan 15
pass@@ 15
Laptop 15
bb@@ 15
Gary 15
icides 15
sity 15
protest@@ 15
amer@@ 15
ode 15
retary 15
intelligent@@ 15
Portu@@ 15
ell-@@ 15
ason 15
fically 15
NE@@ 15
uments 15
SI@@ 15
rip@@ 15
Harbor 15
warri@@ 15
Patrick 15
ih@@ 15
Son@@ 15
iter 15
dule 15
yst@@ 15
Won@@ 15
erg@@ 15
fantas@@ 15
SK 15
auto 15
Plato 15
Stre@@ 15
dows 15
Freud 15
expec@@ 15
psychopath@@ 15
oul 15
andal 15
Le 15
Galax@@ 15
atoes 15
UNI@@ 15
religi@@ 15
dox 15
NIH 15
lider 15
tica 15
fle 15
kid@@ 15
batter@@ 15
izer 15
Auth@@ 15
lymp@@ 15
NC@@ 15
Bio@@ 15
Kid 15
Edi@@ 15
ould 15
leep 15
paraly@@ 15
etta 15
Ara@@ 15
cathe@@ 15
edian 15
comfort@@ 15
Julius 15
logarith@@ 15
trage@@ 15
esa 15
Rwand@@ 15
Bit@@ 15
tho@@ 15
Bihar 15
Batman 15
great@@ 15
Nap@@ 15
ruption 15
icken 15
ong@@ 15
bub@@ 15
Reed 15
altern@@ 15
D.@@ 15
Hand@@ 15
Joey 15
1969 15
Mo 15
pest@@ 15
eded 15
rane 15
ods 15
olds 15
Herbie 14
Sig@@ 14
scan@@ 14
etas 14
hal 14
Viag@@ 14
Mechanical 14
Jessica 14
gent@@ 14
pandem@@ 14
envel@@ 14
wollen 14
AI@@ 14
adores 14
Pantheon 14
recom@@ 14
Khmer 14
Adri@@ 14
Tot@@ 14
Beh@@ 14
twit@@ 14
ji@@ 14
intergal@@ 14
ensive 14
danger@@ 14
intr@@ 14
dez 14
Rich@@ 14
Kap@@ 14
zar@@ 14
stick@@ 14
Galvao 14
offline 14
Talks 14
argon 14
Smar@@ 14
dies@@ 14
regre@@ 14
Charlotte 14
lich@@ 14
ushi 14
Ohio 14
famili@@ 14
Di 14
Kate 14
alien@@ 14
Ig@@ 14
FE@@ 14
Maitreya 14
Edison 14
inform@@ 14
6-@@ 14
Orchest@@ 14
e. 14
Mitchell 14
Twe@@ 14
alis@@ 14
Tyler 14
Computers 14
Broadmoor 14
51 14
astern 14
yn@@ 14
mo 14
Greg 14
Gand@@ 14
ophi@@ 14
Administration 14
Schwarz@@ 14
Australi@@ 14
zens 14
Cloud 14
Femin@@ 14
Milwauke@@ 14
Lower 14
Emmanuel 14
Dublin 14
Malaysia 14
Vir@@ 14
jac@@ 14
day-@@ 14
gir@@ 14
spiri@@ 14
attle 14
dos@@ 14
Nep@@ 14
ares 14
hen 14
certi@@ 14
Turk 14
osyn@@ 14
Naj@@ 14
Broadway 14
stall 14
discipl@@ 14
CPU 14
stir@@ 14
Lanka 14
pover@@ 14
Dog@@ 14
Maya 14
ample 14
hrase 14
len 14
1962 14
Jon 14
extra-@@ 14
Geiger 14
67 14
mosquit@@ 14
cartoon@@ 14
Len 14
LS 14
threat@@ 14
foli@@ 14
itra 14
rang 14
obos 14
aris@@ 14
opp@@ 14
Jon@@ 14
Trek 14
Smo@@ 14
Buil@@ 14
glac@@ 14
gins 14
Disco@@ 14
Op@@ 14
herr@@ 14
Sir@@ 14
Tol@@ 14
ancest@@ 14
Pati@@ 14
Hem@@ 14
Micro@@ 14
gin@@ 14
strates 14
Passage 14
NT 14
coo@@ 14
ishment 14
experiment@@ 14
inspir@@ 14
Open@@ 14
Hillary 14
ju 14
Hussein 14
GPHIN 14
delic@@ 14
Linda 14
stery 14
Saul 14
itz@@ 14
quot 14
chs 14
gible 14
liche 14
gend 14
erb@@ 14
Player 14
Calais 14
vier 14
okes 14
shmal@@ 14
alco@@ 14
Delta 14
Fast 14
vertheless 14
Sor@@ 14
as-@@ 14
Big@@ 14
lend 14
Resear@@ 14
etti 14
Yellow@@ 14
Olymp@@ 14
Netflix 14
án 14
aspora 14
eti@@ 14
DM 14
Georgetown 14
Leads 14
public@@ 14
E8 14
ollywood 14
Cleveland 14
cust@@ 14
del 14
mam@@ 14
Madison 14
Davis 14
Kick@@ 14
Boli@@ 14
78 14
Netra 14
heim 14
sper@@ 14
Map@@ 14
Reu@@ 14
itage 14
Tem@@ 14
for-@@ 14
SE@@ 14
demor@@ 14
cros@@ 14
flag@@ 14
stem@@ 14
Lib@@ 14
bottom@@ 14
Warner 14
Phot@@ 14
Clin@@ 14
ela 14
Roll@@ 14
.S. 14
Moz@@ 14
Post 14
RI@@ 14
Dak@@ 14
South@@ 14
Wales 14
Web@@ 14
ador 14
lev@@ 14
ks@@ 14
Moh@@ 13
utu 13
Indiana 13
Eames 13
enipher 13
Browne 13
Med@@ 13
chment 13
Istanbul 13
ord@@ 13
Kamen 13
ozo@@ 13
ochondri@@ 13
introduc@@ 13
Bonnie 13
Hillis 13
Tel 13
Blair 13
flor@@ 13
celebri@@ 13
Py@@ 13
Spl@@ 13
bris 13
mption 13
Cornell 13
hab 13
Sim@@ 13
Mir@@ 13
TEDWomen 13
Alexandria 13
Jonathan 13
Twain 13
Statist@@ 13
ridor 13
illary 13
seaf@@ 13
Israel@@ 13
Kore@@ 13
Johann@@ 13
dah 13
inde@@ 13
Gapmin@@ 13
futu@@ 13
oko 13
chen 13
maxim@@ 13
gger 13
te-@@ 13
Odysseus 13
Um 13
kes@@ 13
Ell@@ 13
Wisconsin 13
Ach@@ 13
Tin@@ 13
Ok 13
lux@@ 13
Kerry 13
Pass 13
Shenzhen 13
Gehry 13
TEDGlobal 13
HC 13
exu@@ 13
paradox@@ 13
ferences 13
oll 13
Maine 13
Yahoo 13
Buck@@ 13
Diam@@ 13
TH 13
Mut@@ 13
EU 13
Bosni@@ 13
mise 13
brea@@ 13
cker@@ 13
Helen 13
Bog@@ 13
DDT 13
Malawi 13
chu 13
E-@@ 13
Film 13
oxi@@ 13
RD 13
leton 13
U.@@ 13
Sw@@ 13
Stein 13
prison@@ 13
dale 13
ia@@ 13
Chop@@ 13
riet 13
Gene@@ 13
Bowl 13
Adams 13
Patri@@ 13
dership 13
pos 13
func@@ 13
70-@@ 13
mmm 13
applic@@ 13
Pot@@ 13
Sing@@ 13
schild 13
amer 13
assist@@ 13
exquis@@ 13
Manchester 13
Shin@@ 13
ario 13
Ann@@ 13
esot@@ 13
Astro@@ 13
oskel@@ 13
pip@@ 13
Justin 13
Engine@@ 13
Baby@@ 13
ird 13
Buen@@ 13
62 13
Management 13
pher 13
notic@@ 13
Eduardo 13
Hi@@ 13
atom@@ 13
Ebola 13
ib 13
Thula 13
bererana 13
Senator 13
Band@@ 13
MI@@ 13
hou 13
Anthony 13
Triceratops 13
U.S.-@@ 13
fas@@ 13
dings 13
Pack@@ 13
Nazis 13
patter@@ 13
B-@@ 13
effici@@ 13
Rock 13
orous 13
munic@@ 13
ein@@ 13
-Saharan 13
disco@@ 13
aco 13
vre 13
ka@@ 13
ounds 13
reka 13
reserv@@ 13
int@@ 13
Iowa 13
tron@@ 13
suing 13
fossi@@ 13
1981 13
Para@@ 13
Fall 13
Michoac@@ 13
Victoria 13
melo@@ 13
Mit@@ 13
Jurassic 13
Land 13
member@@ 13
ves@@ 13
gas@@ 13
ener 13
leblo@@ 13
ALS 13
meas@@ 13
wan 13
Jose 13
writ@@ 13
ergi@@ 13
dem 13
achel@@ 13
sober@@ 13
Neumann 13
nago@@ 13
opy 13
random@@ 13
provis@@ 13
Democ@@ 13
oss 13
pati@@ 13
Stars 13
ym@@ 13
intu@@ 13
.org. 13
Aff@@ 13
Text 13
efs 13
Transition 13
Bou@@ 13
Pyth@@ 13
ello 13
km 13
pren@@ 13
j 13
pessi@@ 13
Ins@@ 13
Action 13
Student 13
Negroponte 13
Accenture 13
Rives 13
irri@@ 13
Pop 13
lang 13
Mathematica 13
Fut@@ 13
Ann 13
boar@@ 13
ied 13
Illinois 13
sist@@ 13
NYU 13
INCRA 13
hypno@@ 13
acter@@ 13
nin@@ 13
Boeing 13
Aviv 13
Utop@@ 13
High@@ 13
ria 13
uel 13
ç@@ 13
Mann 13
Malaria 13
Hip@@ 13
Pun@@ 13
curricul@@ 12
trig@@ 12
hou@@ 12
egal 12
Nirvana 12
Bach 12
Hab@@ 12
DI 12
Trans@@ 12
ylon 12
fragi@@ 12
elt 12
Indi@@ 12
minster 12
Ly@@ 12
diag@@ 12
derman 12
refle@@ 12
eine 12
eiling 12
Lucy 12
rol@@ 12
Nashville 12
11@@ 12
hig@@ 12
Redwoods 12
Terror@@ 12
Rest@@ 12
Willi@@ 12
und-@@ 12
dul@@ 12
Macint@@ 12
ihood 12
Sac@@ 12
illas 12
ras@@ 12
Augu@@ 12
Hein@@ 12
Neuro@@ 12
ema 12
ulous 12
Camp@@ 12
indu@@ 12
glas 12
McLu@@ 12
tili@@ 12
Bobby 12
Mig@@ 12
enni@@ 12
itly 12
SP@@ 12
pharmac@@ 12
lad@@ 12
RHex 12
Eli@@ 12
graph@@ 12
Lux@@ 12
16-@@ 12
witz 12
Shirley 12
Hyder@@ 12
uty 12
curren@@ 12
dent@@ 12
stab 12
lit@@ 12
Tiger 12
2016 12
urs 12
probab@@ 12
transp@@ 12
lock@@ 12
rong 12
mili@@ 12
Interface 12
proli@@ 12
Patent 12
Stand 12
Os 12
agh@@ 12
oi@@ 12
JPL 12
Ce@@ 12
reti@@ 12
ai@@ 12
kr@@ 12
ackers 12
them@@ 12
iger 12
Chin@@ 12
kton 12
F-@@ 12
noon 12
Sao 12
Dr@@ 12
ddin 12
Dreadnough@@ 12
adequ@@ 12
oren 12
14-@@ 12
Palm 12
Alex@@ 12
inson 12
cise 12
Vision 12
bst@@ 12
ag 12
Hindi 12
Cour@@ 12
Kr@@ 12
Valent@@ 12
2100 12
enty-@@ 12
dinger 12
quer@@ 12
Terence 12
integr@@ 12
Jab@@ 12
cerem@@ 12
stur@@ 12
rescu@@ 12
fort 12
Geor@@ 12
mously 12
ence-@@ 12
Hazar@@ 12
– 12
gly 12
Vas@@ 12
Fra@@ 12
Dop@@ 12
teach@@ 12
shap@@ 12
G. 12
Sach@@ 12
Asper@@ 12
dimension@@ 12
partner@@ 12
is-@@ 12
1947 12
gut@@ 12
Interest@@ 12
zu 12
Festival 12
Sti@@ 12
spin@@ 12
Japan@@ 12
Viol@@ 12
Brun@@ 12
Bin 12
Wir@@ 12
hil 12
woo@@ 12
Fort@@ 12
Hawai@@ 12
ovirus 12
6,@@ 12
Scho@@ 12
ante 12
Chu@@ 12
Airbn@@ 12
resear@@ 12
Babies 12
allen@@ 12
lian 12
storyt@@ 12
90-@@ 12
enz@@ 12
TBP 12
Dawkins 12
Betty 12
Highway 12
W. 12
ging@@ 12
zur@@ 12
eh 12
roç@@ 12
trajec@@ 12
ampu@@ 12
rr@@ 12
7-@@ 12
prepar@@ 12
erie 12
ject 12
plex 12
iel 12
dir@@ 12
Poll@@ 12
LOL 12
epis@@ 12
academ@@ 12
boy@@ 12
Dy@@ 12
iPh@@ 12
ags 12
unts 12
osla@@ 12
endea@@ 12
Orange 12
AM@@ 12
betra@@ 12
aes@@ 12
feel@@ 12
Elvis 12
Alhambra 12
mage 12
nobyl 12
Att@@ 12
bureau@@ 12
urity 12
Pilot 12
ahn 12
stab@@ 12
outing 12
Bes@@ 12
therap@@ 12
Woody 12
Gilli@@ 12
wag@@ 12
Diplomat 12
ulose 12
dient 12
eil 12
Leviathan 12
Kik@@ 12
wander@@ 12
io 12
JS 12
mack 12
bud@@ 11
e- 11
Afgh@@ 11
ga-@@ 11
Gy@@ 11
dah@@ 11
oni@@ 11
erer 11
hh@@ 11
Clou@@ 11
ople 11
Aquarium 11
scholar@@ 11
Tox@@ 11
Buddh@@ 11
Tul@@ 11
cyclopedia 11
positives 11
replac@@ 11
lot@@ 11
Bla@@ 11
fiel@@ 11
hmm 11
Leg@@ 11
Mexic@@ 11
taneous 11
Arm@@ 11
au-@@ 11
Ag@@ 11
convic@@ 11
awk@@ 11
oud 11
Auton@@ 11
autos 11
itude 11
Gall@@ 11
Ven@@ 11
schwi@@ 11
imag@@ 11
Flu@@ 11
tom 11
esthes@@ 11
Mathema@@ 11
Mob@@ 11
wesome 11
Twit@@ 11
L-@@ 11
HIV-@@ 11
Hos@@ 11
inti@@ 11
afford@@ 11
undes@@ 11
Celsius 11
machin@@ 11
nee 11
WI@@ 11
ei 11
Blackberry 11
shri@@ 11
stam@@ 11
ME@@ 11
agen 11
mean@@ 11
Tempest 11
signi@@ 11
chens 11
Univers@@ 11
ob 11
xis 11
sue 11
Fast@@ 11
quis@@ 11
Metap@@ 11
state-@@ 11
Connec@@ 11
aden@@ 11
nal 11
Champ@@ 11
Fil@@ 11
witn@@ 11
LI@@ 11
Wild@@ 11
Proz@@ 11
Det@@ 11
Slo@@ 11
weil 11
amaz@@ 11
slow@@ 11
iet 11
wild@@ 11
Zoo 11
dney 11
stain 11
yrinth 11
stige 11
tet@@ 11
Icel@@ 11
ppe 11
jump@@ 11
Din@@ 11
rie@@ 11
Sus@@ 11
Protest@@ 11
BR@@ 11
ston 11
parach@@ 11
year-@@ 11
Past@@ 11
mative 11
geon 11
geomet@@ 11
hs 11
bis 11
Dro@@ 11
atures 11
ias 11
intelli@@ 11
Educ@@ 11
Jeep 11
kne@@ 11
redu@@ 11
Anders 11
Pool 11
Dev@@ 11
microRN@@ 11
awa 11
klu@@ 11
choc@@ 11
ource 11
Bed@@ 11
claim@@ 11
Ak@@ 11
rapi@@ 11
Hir@@ 11
feu@@ 11
Chil@@ 11
obo 11
Hin@@ 11
Kor@@ 11
Kurz@@ 11
Theater 11
concl@@ 11
manu@@ 11
Opp@@ 11
Coach 11
Holl@@ 11
ael 11
Bis@@ 11
Exper@@ 11
pancre@@ 11
telev@@ 11
aband@@ 11
0,@@ 11
Kind 11
Trin@@ 11
ado 11
Hen@@ 11
imper@@ 11
gestion 11
ik 11
oran@@ 11
ato 11
stens 11
abyte 11
Initiative 11
Extra@@ 11
ego@@ 11
lage 11
Tunis@@ 11
athons 11
Est@@ 11
flung 11
xon 11
Astron@@ 11
Kni@@ 11
osop@@ 11
Transpar@@ 11
lett 11
Shir@@ 11
Abra@@ 11
Hob@@ 11
perfec@@ 11
pend@@ 11
cyclo@@ 10
issu@@ 10
appear@@ 10
nonverb@@ 10
Milit@@ 10
Wag@@ 10
ights 10
Grou@@ 10
Genom@@ 10
Skep@@ 10
Asp@@ 10
zy@@ 10
opport@@ 10
Iraq@@ 10
appli@@ 10
illeg@@ 10
orium 10
és 10
Radi@@ 10
instit@@ 10
oph@@ 10
pro 10
Ox@@ 10
zen 10
kinson 10
dei@@ 10
kler 10
fab@@ 10
rie 10
Budd@@ 10
Ern@@ 10
commodi@@ 10
space-@@ 10
Phar@@ 10
trop@@ 10
Mach 10
Lak@@ 10
ilit@@ 10
Tou@@ 10
up-@@ 10
agri@@ 10
Dav@@ 10
mith@@ 10
ller@@ 10
Kris@@ 10
dago@@ 10
kel 10
robo@@ 10
metic 10
nis 10
Tyran@@ 10
recor@@ 10
nois@@ 10
Temp@@ 10
Autom@@ 10
Vit@@ 10
station@@ 10
Chem@@ 10
amen 10
Him@@ 10
Vul@@ 10
Team 10
sie@@ 10
Tut@@ 10
contagi@@ 10
Moderator 10
fes@@ 10
Britanni@@ 10
Route 10
phenomen@@ 10
umen 10
Mean@@ 10
ann 10
Vie@@ 10
locker 10
estim@@ 10
Chef 10
etes 10
elim@@ 10
ats@@ 10
Emp@@ 10
Nam@@ 10
ickens 10
Burger 10
Pix@@ 10
uniqu@@ 10
Model@@ 10
controversi@@ 10
Song 10
Lot@@ 10
geist 10
izon 10
Austri@@ 10
intervie@@ 10
anne 10
High-@@ 10
Ses@@ 10
amine 10
sevent@@ 10
Kas@@ 10
Bill@@ 10
ital@@ 10
then@@ 10
stron@@ 10
1800 10
rank@@ 10
heav@@ 10
tice 10
accep@@ 10
Net@@ 10
emper@@ 10
Test 10
Forum 10
oton@@ 10
kal@@ 10
secon@@ 10
litter 10
derly 10
orts 10
genoci@@ 10
aden 10
humani@@ 10
Jeff@@ 10
Nov@@ 10
ote 10
Eisen@@ 10
metaph@@ 10
sider 10
unge@@ 10
Progra@@ 10
abel 10
miser@@ 10
fund@@ 10
zin@@ 10
Poly@@ 10
resol@@ 10
gras@@ 10
Multi@@ 10
aissance 10
Ron@@ 10
success@@ 10
Standard 10
letely 10
Natur@@ 10
trie@@ 10
chn@@ 10
turally 10
Pav@@ 10
Exp@@ 10
servi@@ 10
Post-@@ 10
intro@@ 10
apor@@ 10
commission@@ 10
versities 10
pou@@ 10
thei@@ 10
horizon@@ 10
eder 10
Leh@@ 10
enty 10
behavi@@ 10
Bam@@ 10
Who@@ 10
Freu@@ 10
Gon@@ 10
Crow@@ 10
arer 10
ww@@ 10
Rah@@ 10
emisp@@ 10
Stor@@ 9
langu@@ 9
aya 9
Tet@@ 9
abe@@ 9
specially 9
forestation 9
Pakist@@ 9
brill@@ 9
wack@@ 9
Fle@@ 9
elig@@ 9
grandi@@ 9
quit@@ 9
Grab 9
CN@@ 9
Mot@@ 9
Passi@@ 9
frame@@ 9
tment 9
Inte@@ 9
param@@ 9
implan@@ 9
Fili@@ 9
Bion@@ 9
ropoli@@ 9
Sl@@ 9
rak@@ 9
arities 9
Hul@@ 9
ombe 9
Part@@ 9
itis 9
Farmer 9
lett@@ 9
two@@ 9
Bru@@ 9
butions 9
Mic@@ 9
Gut@@ 9
experi@@ 9
Iron@@ 9
kap@@ 9
Pom@@ 9
vern@@ 9
Hot@@ 9
Brei@@ 9
Boom 9
prototyp@@ 9
Hear@@ 9
friend@@ 9
Af@@ 9
hn 9
fail@@ 9
Lock@@ 9
span@@ 9
Phil@@ 9
ters@@ 9
ores 9
perio@@ 9
stere@@ 9
essenti@@ 9
nah 9
jag@@ 9
amie 9
computer@@ 9
Vinc@@ 9
thres@@ 9
Kind@@ 9
stud@@ 9
Jo 9
mus 9
eren 9
compre@@ 9
eist@@ 9
dson 9
mly 9
Tit@@ 9
d.@@ 9
iti 9
alo@@ 9
aven 9
inking 9
Gad@@ 9
Sovi@@ 9
esis 9
defic@@ 9
Zucker@@ 9
Ris@@ 9
illion 9
Strat@@ 9
immun@@ 9
tans 9
Brand@@ 9
gical 9
toll@@ 9
osed 9
responsi@@ 9
your@@ 9
vulner@@ 9
phan@@ 9
ritter 9
ameter 9
tivi@@ 9
impanz@@ 9
apers 9
Jag@@ 9
Spr@@ 9
helpl@@ 9
exist@@ 9
shoul@@ 9
anyon 9
stration 9
DA 9
Veter@@ 9
Box 9
Block 9
matically 9
q 9
gram@@ 9
orie 9
Prof@@ 9
Carol@@ 9
Theat@@ 9
Tai@@ 9
Had@@ 9
elem@@ 9
invent@@ 9
map@@ 9
Joy@@ 9
Il@@ 9
Glob@@ 9
Ignor@@ 9
Fern@@ 9
viscer@@ 9
Enter@@ 9
cken 9
Stru@@ 9
Histor@@ 9
amt 9
girl@@ 9
Tig@@ 9
airs 9
percent@@ 9
reason@@ 9
Nigeri@@ 9
uc@@ 9
esh 9
licity 9
Peri@@ 9
princip@@ 9
inter 9
volun@@ 9
gian 9
etheless 9
@ 9
citi@@ 9
Klei@@ 9
regener@@ 9
Aha 9
Stat@@ 9
kri@@ 9
arbit@@ 9
renew@@ 9
Motor 9
hyp@@ 9
raff@@ 9
burger 9
opter@@ 9
preme 9
wre@@ 9
gen-@@ 9
reds 9
cists 9
Extreme 9
Sek@@ 9
orb@@ 9
ddle-@@ 9
Appar@@ 9
stair@@ 9
Story 9
Hall@@ 9
Ran@@ 8
pf@@ 8
rehab@@ 8
Post@@ 8
mer-@@ 8
Defin@@ 8
sych@@ 8
NR@@ 8
Kam@@ 8
brand@@ 8
bial 8
Dig@@ 8
lender 8
-F@@ 8
Ze@@ 8
confi@@ 8
rö@@ 8
be-@@ 8
discover@@ 8
lag@@ 8
geous 8
wol@@ 8
enor@@ 8
anks 8
codi@@ 8
shu@@ 8
dragon@@ 8
Tour@@ 8
atorium 8
sche 8
sam 8
bler 8
Quar@@ 8
Hou@@ 8
atz 8
kan 8
Dynam@@ 8
CH@@ 8
Dal@@ 8
afel 8
through@@ 8
gends 8
usel@@ 8
Bergen 8
1500 8
Dum@@ 8
9-@@ 8
Initi@@ 8
partment 8
Gram@@ 8
shire 8
doms 8
shep@@ 8
emotion@@ 8
uk 8
ss@@ 8
atten 8
bau@@ 8
letes 8
Brand 8
Soli@@ 8
Y-@@ 8
Log@@ 8
mations 8
rug 8
Nav@@ 8
tex 8
insp@@ 8
erec@@ 8
til 8
dex 8
Pep@@ 8
O-@@ 8
rung 8
Schul@@ 8
oper 8
ecks 8
Cambo@@ 8
Zone 8
Frie@@ 8
tish 8
Form 8
entic@@ 8
schel 8
Proto@@ 8
gyp@@ 8
brie@@ 8
DAR@@ 8
cele@@ 8
explan@@ 8
exag@@ 8
Jos@@ 8
neur@@ 8
ea 8
dams 8
bacter@@ 8
Moral 8
Meth@@ 8
Jord@@ 8
Bran@@ 8
osaurs 8
resur@@ 8
ith 8
Down@@ 8
Tex@@ 8
ouring 8
Wur@@ 8
rum 8
ers@@ 8
happ@@ 8
Whi@@ 8
flation 8
utt 8
obs 8
utely 8
olas 8
Def@@ 8
sensor@@ 8
bor 8
dients 8
Amazon@@ 8
ager@@ 8
Atom@@ 8
Engineering 8
Jor@@ 8
rationale 8
Tak@@ 8
uss@@ 8
muster 8
Bh@@ 8
ende 8
verage 8
occu@@ 8
Glamour 8
leans 8
Tanz@@ 8
Key@@ 8
enga@@ 8
Musli@@ 8
Vik@@ 8
Ghan@@ 8
ash-@@ 8
Philosop@@ 8
country@@ 8
resp@@ 8
Gul@@ 8
Fit@@ 8
Lor@@ 8
mid 8
spa@@ 8
kon@@ 8
c. 8
embra@@ 8
Himalay@@ 8
essor@@ 8
gall@@ 8
beginn@@ 8
ograms 8
absur@@ 8
eum 8
Technologi@@ 8
Smi@@ 8
Gau@@ 8
yota 8
bole 8
Wall@@ 8
masse 8
vid 8
Farm 8
bassa@@ 8
fantast@@ 8
ular@@ 8
phosphor@@ 8
tenden@@ 8
oder 8
etz 8
ument@@ 8
hea 8
Fren@@ 8
rect@@ 8
outh 8
ock 8
wen 8
Mei@@ 8
Vari@@ 8
Reg@@ 8
IA 8
Hai@@ 8
ix@@ 8
enfor@@ 8
Bonobos 8
4-@@ 8
elles 8
Melan@@ 8
appropri@@ 8
Institu@@ 8
einer 8
Fing@@ 8
worl@@ 8
descri@@ 8
eur@@ 8
zen@@ 8
Tab@@ 8
Gas 8
ma-@@ 8
method@@ 8
Ball@@ 8
Indu@@ 8
gered 8
piec@@ 8
raid 8
Bren@@ 8
Finger 8
rels 8
AD@@ 8
umm@@ 8
Master 8
Medi@@ 8
aber 8
electron@@ 8
eton 8
Barri@@ 8
ror@@ 8
exer@@ 8
authorit@@ 8
Conserv@@ 8
ritu@@ 8
speak@@ 8
Spir@@ 8
agi@@ 8
Journ@@ 8
inners 8
Ein@@ 7
jell@@ 7
Stein@@ 7
ertips 7
aler 7
faction 7
meaning@@ 7
ois 7
stitu@@ 7
terri@@ 7
locom@@ 7
Phase 7
Sex@@ 7
eases 7
DN@@ 7
zig@@ 7
esp@@ 7
Motors 7
hoods 7
Es 7
philosoph@@ 7
symmet@@ 7
asso 7
Sto@@ 7
Wher@@ 7
graf@@ 7
Mand@@ 7
inea 7
ival 7
rs 7
yable 7
Mail 7
fter 7
Austr@@ 7
eem 7
afe 7
Identi@@ 7
voy@@ 7
Afri@@ 7
ffe 7
Jen@@ 7
Hig@@ 7
gem 7
ember 7
oline 7
Jazz 7
story@@ 7
Rat@@ 7
guarante@@ 7
Hit@@ 7
Winter 7
explic@@ 7
Nich@@ 7
ess-@@ 7
struction 7
philosop@@ 7
gend@@ 7
HI@@ 7
hosp@@ 7
funk@@ 7
juana 7
Exc@@ 7
^ 7
routin@@ 7
nun 7
Alb@@ 7
tas@@ 7
liest 7
( 7
phil@@ 7
mos 7
-P@@ 7
90@@ 7
wid@@ 7
authentic@@ 7
Lex@@ 7
frei@@ 7
ieber 7
jack@@ 7
enab@@ 7
Rein@@ 7
olin 7
pathy 7
Eth@@ 7
rich@@ 7
Gum@@ 7
nel@@ 7
sat@@ 7
Bos@@ 7
rift 7
Rog@@ 7
tance 7
warf 7
Priv@@ 7
Pil@@ 7
.A. 7
99@@ 7
Sah@@ 7
vie@@ 7
strategi@@ 7
ternal 7
Zur@@ 7
Hop@@ 7
Fall@@ 7
compassi@@ 7
satis@@ 7
quantita@@ 7
operative 7
ament@@ 7
Album 7
Falls 7
bere 7
linear@@ 7
Programm@@ 7
nst 7
ammer 7
Eng@@ 7
Hang 7
Laden@@ 7
phas@@ 7
kinder 7
iden 7
Comedy 7
zie 7
quest@@ 7
Odys@@ 7
mps 7
Aristotel@@ 7
Jur@@ 7
Corps 7
Personal 7
leth@@ 7
ard-@@ 7
pox 7
rill@@ 7
Franc@@ 7
Termin@@ 7
Meg@@ 7
Flo@@ 7
ometry 7
Fli@@ 7
Bli@@ 7
uten 7
certain@@ 7
Kol@@ 7
etown 7
pregn@@ 7
ben 7
good@@ 7
Techni@@ 7
aust 7
bart 7
Euro 7
spati@@ 7
je 7
Software 7
chester 7
Isa@@ 7
Dut@@ 7
respon@@ 7
Ther@@ 7
mals 7
arin 7
absol@@ 7
Tax@@ 7
Bush@@ 7
canv@@ 7
Emo@@ 7
Len@@ 7
Polar@@ 7
Beij@@ 7
enthusi@@ 7
Simil@@ 7
Sequ@@ 7
assic 7
Stro@@ 7
Leon@@ 7
pert 7
ft-@@ 7
Audio 7
assess@@ 7
Brazi@@ 7
Neur@@ 7
Kev@@ 7
goog@@ 7
yland 7
ó 7
Pos@@ 7
oner 7
rement 7
irm 7
ood@@ 7
tum 7
magnific@@ 7
EL@@ 7
quarti@@ 7
Uran@@ 7
You@@ 7
Chaos 7
ù 7
silic@@ 7
Ras@@ 7
ku@@ 7
Ukra@@ 7
N1 7
hne 7
meth@@ 7
ais 7
Them@@ 7
fen 7
Siber@@ 7
mush@@ 7
fischer@@ 7
Woo@@ 7
Rad@@ 7
African-@@ 7
urable 7
develop@@ 7
RIS@@ 7
stes 7
Adi@@ 7
ont 7
Et@@ 7
Ner@@ 7
ecraft 7
ordinarily 7
sert 7
Spiel@@ 7
Gel@@ 6
Bag@@ 6
Relig@@ 6
nach@@ 6
nost@@ 6
asy@@ 6
Last@@ 6
mitt@@ 6
bution 6
Resist@@ 6
Sich@@ 6
ro-@@ 6
Rut@@ 6
Um@@ 6
Stand@@ 6
aa 6
Detail 6
Schlau@@ 6
Harmon@@ 6
git@@ 6
ision 6
migra@@ 6
usses 6
tsun@@ 6
ian@@ 6
Posi@@ 6
Broo@@ 6
Parks 6
Systems 6
disappe@@ 6
Gir@@ 6
paras@@ 6
promis@@ 6
Finn@@ 6
vism 6
Busin@@ 6
Fig@@ 6
Sit@@ 6
Sno@@ 6
Banglades@@ 6
ion-@@ 6
ice@@ 6
flora 6
8-@@ 6
inn 6
stopp@@ 6
Tum@@ 6
bicy@@ 6
alley 6
suggest@@ 6
bilities 6
chnolog@@ 6
mobil@@ 6
Programme 6
mill@@ 6
1000 6
Urban@@ 6
Norwe@@ 6
present@@ 6
uries 6
elabor@@ 6
entran@@ 6
Hell@@ 6
LE@@ 6
conspi@@ 6
Religion 6
volum@@ 6
Glas@@ 6
bik 6
opardy 6
fres@@ 6
Experim@@ 6
bo-@@ 6
Zap@@ 6
FO@@ 6
every@@ 6
oci@@ 6
sus@@ 6
still@@ 6
Plast@@ 6
Jim@@ 6
McDon@@ 6
Sau@@ 6
Kru@@ 6
Volks@@ 6
Kok@@ 6
Anti@@ 6
locomo@@ 6
strateg@@ 6
Regi@@ 6
gig 6
Fru@@ 6
á 6
transpar@@ 6
invasi@@ 6
Hand 6
coli 6
enz 6
utz@@ 6
arre@@ 6
gst 6
determin@@ 6
acht 6
scher 6
Monster 6
umentation 6
princi@@ 6
Auto@@ 6
omes 6
zep@@ 6
Beg@@ 6
toi@@ 6
ieties 6
ator@@ 6
alphab@@ 6
wes@@ 6
arma@@ 6
Mysteri@@ 6
trau@@ 6
invas@@ 6
ie-@@ 6
bure@@ 6
-in-@@ 6
Tod 6
architec@@ 6
cin 6
steins 6
Ble@@ 6
arbitr@@ 6
Argentin@@ 6
bos 6
ARS 6
Ski@@ 6
world@@ 6
Detro@@ 6
compati@@ 6
ien 6
GP@@ 6
Fron@@ 6
‘ 6
leh@@ 6
BA 6
destruc@@ 6
Mamm@@ 6
Labor 6
wald 6
anxi@@ 6
Hat 6
yright 6
Cel@@ 6
obvi@@ 6
genous 6
ech 6
Aut@@ 6
Bul@@ 6
Anthrop@@ 6
gration 6
Rabbi 6
week@@ 6
sie 6
civi@@ 6
Bron@@ 6
robu@@ 6
kt@@ 6
inevit@@ 6
í 6
Image 6
Flow 6
Micros@@ 6
Mohammed 6
physic@@ 6
hormon@@ 6
excit@@ 6
nucle@@ 6
nast@@ 6
Interpre@@ 6
seem@@ 6
Chip 6
argum@@ 6
Matrix 6
enes 6
Fundament@@ 6
membr@@ 6
Eur@@ 6
Teen@@ 6
Mod@@ 6
ambigu@@ 6
Imperi@@ 6
Kenn@@ 6
gry 6
U-@@ 6
immedi@@ 6
planet@@ 6
brot 6
osm@@ 6
Amaz@@ 6
Ost@@ 6
Training 6
symptom@@ 6
deri@@ 6
zeit@@ 6
Michel@@ 6
grie@@ 6
Kosov@@ 6
fangs 6
Dame 6
kos@@ 6
Bah@@ 6
hier@@ 6
venting 6
ballo@@ 6
Kab@@ 6
Ever@@ 6
Kie@@ 6
prim@@ 6
NI@@ 6
rar@@ 6
asse 6
Front 6
seh@@ 6
glam@@ 6
Kepl@@ 6
Ep@@ 6
Hamp@@ 6
Nob@@ 6
Californi@@ 6
Famili@@ 6
tis@@ 6
pregnan@@ 6
unter@@ 6
quid 6
stung 6
accessi@@ 6
Tag@@ 6
glimp@@ 6
partic@@ 6
Brau@@ 6
tancy 6
Tele@@ 6
strom 6
atz@@ 6
istry 5
ern 5
Simul@@ 5
Broad@@ 5
bens 5
aga@@ 5
samer 5
immer 5
trivi@@ 5
ension@@ 5
nes 5
anas 5
Internet-@@ 5
rehabili@@ 5
Instit@@ 5
lep@@ 5
Population 5
Diplom@@ 5
Dollar 5
Kro@@ 5
Eis@@ 5
bran 5
Joh@@ 5
aku@@ 5
Schwar@@ 5
prevent@@ 5
ime@@ 5
G-@@ 5
Nami@@ 5
Symmet@@ 5
ungs 5
Rex 5
gabe 5
wie 5
Note 5
massi@@ 5
partments 5
Comm@@ 5
Batter@@ 5
Metho@@ 5
CAPTCH@@ 5
Organis@@ 5
Billi@@ 5
countr@@ 5
rand@@ 5
s. 5
privile@@ 5
Zen@@ 5
arr@@ 5
Aber@@ 5
embed@@ 5
Inspi@@ 5
sprung 5
asha 5
drome 5
figuration 5
tiliz@@ 5
vite 5
Licht@@ 5
blem 5
einf@@ 5
hous@@ 5
tat 5
politi@@ 5
rad 5
Pho@@ 5
Jet@@ 5
Stress 5
lle 5
wand 5
Oxytocin 5
chel@@ 5
Back@@ 5
tu 5
mith 5
Name 5
wich 5
ecker 5
eler@@ 5
wonder@@ 5
nah@@ 5
unden@@ 5
Solar@@ 5
… 5
goti@@ 5
Ang@@ 5
wagen 5
symbo@@ 5
Liby@@ 5
iP@@ 5
mier@@ 5
Fris@@ 5
zir@@ 5
Provin@@ 5
unken 5
decision-@@ 5
den-@@ 5
oly@@ 5
repeat@@ 5
Polio 5
Tan@@ 5
tete 5
Argent@@ 5
Expl@@ 5
dir 5
opar@@ 5
incar@@ 5
dener 5
itz 5
opin@@ 5
Tap@@ 5
Path@@ 5
chest@@ 5
Portrait 5
NY@@ 5
Dom@@ 5
tei 5
Ehrlich 5
Test@@ 5
Stap@@ 5
Satur@@ 5
pite 5
AID@@ 5
r. 5
Herz@@ 5
ball-@@ 5
Transpor@@ 5
Marketing 5
Aur@@ 5
ae@@ 5
Pul@@ 5
Nex@@ 5
ds@@ 5
Pion@@ 5
wal 5
marvel@@ 5
Hann@@ 5
esters 5
tty 5
Reporter 5
ritte 5
Stern 5
Ve@@ 5
Rach@@ 5
Gat@@ 5
fen@@ 5
mir 5
mysteri@@ 5
Blin@@ 5
Trop@@ 5
Wash@@ 5
empor@@ 5
practic@@ 5
eim 5
istics 5
yfish 5
lette 5
Allig@@ 5
weiser 5
got@@ 5
Brow@@ 5
terror@@ 5
Kun@@ 5
Coch@@ 5
industr@@ 5
TED-@@ 5
Top@@ 5
half@@ 5
iv 5
rom 5
Sen 5
tissu@@ 5
Amp@@ 5
asi 5
wart 5
degre@@ 5
steu@@ 5
has@@ 5
Kra@@ 5
veh@@ 5
Lan@@ 5
Reich 5
of-the-@@ 5
Spen@@ 5
Indones@@ 5
Tech@@ 5
chst@@ 5
App 5
osph@@ 5
primar@@ 5
--- 5
rett 5
Mir 5
Eliz@@ 5
Apoll@@ 5
scen@@ 5
xion 5
ylac@@ 5
Q. 5
000 5
Techn@@ 5
tec@@ 5
veys 5
drin@@ 5
bede@@ 5
alu@@ 5
3D-@@ 5
rors 5
card@@ 5
Oxy@@ 5
Hoff@@ 5
ente 5
ilty 5
stup@@ 5
Bih@@ 5
Rat 5
Industri@@ 5
curr@@ 5
aller 5
kar 5
N. 5
ym 5
TV-@@ 5
Geck@@ 5
Sat@@ 5
Jun@@ 5
Soci@@ 5
Kre@@ 5
peculi@@ 5
essen@@ 5
Individu@@ 5
Aca@@ 5
follo@@ 5
Avatar 5
das@@ 5
iker 5
ctly 5
cere@@ 5
Audi@@ 5
Infra@@ 5
potenti@@ 5
atter@@ 5
Yah@@ 5
Tier@@ 5
vat@@ 5
eit@@ 5
kas 5
Prei@@ 5
prior@@ 5
Las@@ 5
Tor 5
aten 5
Rhyth@@ 5
Animation 5
Bart 5
Naz@@ 5
depend@@ 4
heu@@ 4
him@@ 4
Venezu@@ 4
Gros@@ 4
mitten 4
Instr@@ 4
Web-@@ 4
Community 4
enge 4
fris@@ 4
Haus@@ 4
adjac@@ 4
Philanthrop@@ 4
Hipp@@ 4
esch@@ 4
iratory 4
aber@@ 4
resili@@ 4
hing@@ 4
zza 4
fort@@ 4
Vene@@ 4
unru@@ 4
convin@@ 4
Kle@@ 4
andel 4
Deut@@ 4
Cyber@@ 4
Bang@@ 4
Sem@@ 4
Arm 4
austr@@ 4
hio 4
efin 4
vana 4
Glu@@ 4
Ball 4
Ernst 4
mph@@ 4
ul 4
attra@@ 4
chec@@ 4
igar@@ 4
wu@@ 4
Stadium 4
Speech 4
Avi@@ 4
tem 4
versary 4
Pent@@ 4
wood-@@ 4
stress@@ 4
isse@@ 4
อ@@ 4
Server 4
uum 4
Mani@@ 4
Jah@@ 4
electr@@ 4
Savan@@ 4
neath 4
ollars 4
Ander@@ 4
Thom@@ 4
Cock@@ 4
nir@@ 4
hol 4
dass 4
happen@@ 4
calci@@ 4
Hammer 4
colum@@ 4
Google-@@ 4
opard 4
Person 4
obst@@ 4
vey 4
iop@@ 4
circa 4
Zeit@@ 4
biolog@@ 4
Work@@ 4
small@@ 4
Moder@@ 4
ror 4
Performance 4
reform@@ 4
ika 4
bequ@@ 4
techn@@ 4
Holoc@@ 4
Stan@@ 4
omen@@ 4
ultra@@ 4
die@@ 4
eng 4
Idiot 4
kung 4
simp@@ 4
valence 4
tern 4
multination@@ 4
ambul@@ 4
ï@@ 4
Oz@@ 4
bren@@ 4
ppen@@ 4
Gen 4
primi@@ 4
consci@@ 4
Jung@@ 4
hung@@ 4
Tweets 4
einem 4
ution@@ 4
osau@@ 4
peop@@ 4
Ug@@ 4
Arg@@ 4
stern 4
entin 4
nostic 4
Wik@@ 4
det 4
deu@@ 4
Hacker 4
ão 4
independ@@ 4
zene 4
guer@@ 4
Tah@@ 4
meister 4
Ober@@ 4
scienti@@ 4
Assist@@ 4
à 4
iko 4
pei@@ 4
beau@@ 4
amonds 4
Minute 4
Gang 4
FOX@@ 4
miner@@ 4
Epi@@ 4
ele 4
Taste 4
gler 4
undry 4
Watt 4
mart 4
ten-@@ 4
21@@ 4
ften 4
Fen@@ 4
rau@@ 4
Ardu@@ 4
veloc@@ 4
etz@@ 4
ø@@ 4
osy@@ 4
ximately 4
bei@@ 4
John@@ 4
Biom@@ 4
unab@@ 4
profit@@ 4
Brookl@@ 4
Git@@ 4
ote@@ 4
vocabul@@ 4
Der 4
Journalist 4
hip@@ 4
Tw@@ 4
Prote@@ 4
otechnology 4
Sad@@ 4
nik 4
Blog@@ 4
bass@@ 4
Gur@@ 4
Manifest@@ 4
Agr@@ 4
ige 4
itat 4
Wein@@ 4
ound@@ 4
ognitive 4
v. 4
Apo@@ 4
dget 4
nership 4
Mou@@ 4
Nig@@ 4
agas@@ 4
è 4
Epis@@ 4
bere@@ 4
Ws 4
stin 4
Knopf 4
Enzy@@ 4
sensus 4
Repor@@ 4
compani@@ 4
athan 4
drin 4
ogen 4
Nev@@ 4
beh@@ 4
kle@@ 4
Hund@@ 4
Span@@ 4
Krist@@ 4
Graph 4
auff@@ 4
-Fi 4
ries@@ 4
Num@@ 4
Gru@@ 4
entle@@ 4
ulp@@ 4
Baum@@ 4
Dist@@ 4
pedia 4
bage 4
tality 4
doch 4
Worl@@ 4
Link 4
acken@@ 4
mycel@@ 4
sprang 4
erk@@ 4
normal@@ 4
River@@ 4
easing 4
asters 4
Fischer 4
Bei@@ 4
Marathon 4
tol@@ 4
weh 4
gels 4
intrigu@@ 4
Problem 4
Kos@@ 4
Ill@@ 4
terer 4
aller@@ 4
relev@@ 4
stati@@ 4
Francis@@ 4
Lit@@ 4
Ima@@ 4
Level 4
Main@@ 4
opter 4
ppm 4
Inten@@ 4
Gig@@ 4
ñ@@ 4
cks@@ 4
datab@@ 4
ettes 4
Mathemati@@ 4
att 4
Fair@@ 4
hier 4
Billion 4
Tour 4
Associ@@ 4
Altern@@ 4
buch@@ 4
Spra@@ 4
niture 4
can-@@ 4
besie@@ 4
Foot@@ 4
Lup@@ 4
Humor 4
ubi@@ 4
Pist@@ 4
eliness 4
unger 4
Mum@@ 4
repar@@ 4
stad@@ 4
Standards 4
dens@@ 4
Melo@@ 4
Lie@@ 4
Blog 4
U. 4
Alas@@ 4
Migration 4
Langu@@ 4
gros@@ 4
Million 4
Tick@@ 4
Oli@@ 4
diarr@@ 4
ges@@ 4
straight@@ 4
TO 4
complex@@ 4
obsol@@ 4
jective 4
blas@@ 4
Studi@@ 4
Nad@@ 4
Meetings 4
ardo 4
zel 4
Wel@@ 4
infec@@ 4
risk@@ 4
Diabetes 4
zu@@ 4
Pizza 4
erz@@ 4
Richter 4
empl@@ 4
criter@@ 4
Koh@@ 4
place@@ 4
gs@@ 4
Fossi@@ 4
Theore@@ 4
atur 4
Problems 4
 3
irren 3
Check@@ 3
Biop@@ 3
cht 3
itar 3
sens@@ 3
Zu@@ 3
Absol@@ 3
beauti@@ 3
klo@@ 3
Strategi@@ 3
Rus@@ 3
Shakespe@@ 3
mathema@@ 3
ccoli 3
Herr 3
Cana@@ 3
sender 3
Matthe@@ 3
Talent 3
Seen 3
Vil@@ 3
kbar 3
Wen 3
Flam@@ 3
Levi@@ 3
sequen@@ 3
Schnei@@ 3
diction@@ 3
dak@@ 3
Lag@@ 3
Wind@@ 3
ater@@ 3
Schu@@ 3
Rin@@ 3
Favor@@ 3
heterosexu@@ 3
pow@@ 3
bry@@ 3
emis@@ 3
seus 3
eleph@@ 3
befri@@ 3
behin@@ 3
Paci@@ 3
robot@@ 3
Bess@@ 3
stead 3
thes 3
Gas@@ 3
Wald 3
Mass@@ 3
RN@@ 3
nough@@ 3
riages 3
mails 3
olen 3
Temper@@ 3
sens 3
olly@@ 3
fft 3
hef@@ 3
oug@@ 3
ogra@@ 3
Legi@@ 3
Kil@@ 3
DD@@ 3
eney 3
mare 3
izop@@ 3
cipl@@ 3
Gay 3
phys@@ 3
verk@@ 3
Versa@@ 3
Ment@@ 3
asch@@ 3
Buch@@ 3
bergs 3
ced@@ 3
Benj@@ 3
rements 3
Cola 3
atories 3
Publi@@ 3
Toi@@ 3
Terror 3
Paras@@ 3
fore 3
bein 3
Lange 3
transform@@ 3
Brenn@@ 3
Lang@@ 3
ehr 3
hl@@ 3
Liz@@ 3
Hau@@ 3
ā@@ 3
ogni@@ 3
Nul@@ 3
fig 3
Materials 3
Reh@@ 3
eas 3
Bauer 3
wale 3
tionality 3
cken@@ 3
icals 3
cksack 3
fert 3
amera 3
Frequ@@ 3
lich 3
Text@@ 3
amon@@ 3
large-@@ 3
Budget 3
Saat@@ 3
inkl@@ 3
Band 3
bien 3
lis@@ 3
auer 3
Tali@@ 3
tei@@ 3
Intel@@ 3
rott@@ 3
Miner@@ 3
ohn@@ 3
Depres@@ 3
antes 3
landsc@@ 3
Protokoll 3
teres 3
NG@@ 3
unities 3
elop@@ 3
Hub@@ 3
.B. 3
kland 3
ahl 3
pie@@ 3
az 3
rix 3
reach@@ 3
stren@@ 3
Mess@@ 3
Zi@@ 3
phr@@ 3
orig@@ 3
Ring 3
Super-@@ 3
Quad@@ 3
z-@@ 3
Therap@@ 3
glau@@ 3
Sy@@ 3
viously 3
very@@ 3
Singap@@ 3
amin 3
Aus@@ 3
besity 3
enn 3
Schin@@ 3
dok@@ 3
Analy@@ 3
expon@@ 3
Mili@@ 3
Facebook@@ 3
schle@@ 3
sog@@ 3
angst 3
zent@@ 3
Auto 3
dler 3
near@@ 3
sinn@@ 3
Fiction 3
liches 3
Master@@ 3
Job 3
bum 3
Clu@@ 3
orgas@@ 3
Psychiat@@ 3
Optim@@ 3
ê@@ 3
nette 3
Himalaya 3
lament@@ 3
Labor@@ 3
hinter@@ 3
manuel 3
von@@ 3
Stock 3
Wes@@ 3
Zul@@ 3
Hiros@@ 3
-2 3
Snow@@ 3
Origin@@ 3
dea@@ 3
Morgen@@ 3
ricul@@ 3
demograph@@ 3
vehic@@ 3
Berg@@ 3
Photos@@ 3
Dinosau@@ 3
freude 3
Diag@@ 3
Spar@@ 3
Free@@ 3
gevity 3
gier 3
tt 3
Internets 3
dral 3
Satelli@@ 3
hai 3
susta@@ 3
halten@@ 3
Proph@@ 3
Comics 3
Handel 3
öl@@ 3
sures 3
Hass@@ 3
ings@@ 3
Sper@@ 3
Terr@@ 3
Face@@ 3
Pick@@ 3
-Sah@@ 3
pect 3
antas@@ 3
progra@@ 3
Colle@@ 3
ritten 3
eck@@ 3
hn@@ 3
Corpor@@ 3
osystem 3
Kri@@ 3
poe@@ 3
ange@@ 3
osphor@@ 3
Zim@@ 3
Designer 3
Stick@@ 3
sigh@@ 3
og 3
tsch@@ 3
Frei@@ 3
t. 3
geries 3
â 3
Fau@@ 3
Ik@@ 3
excell@@ 3
 3
dramati@@ 3
gant 3
AA@@ 3
Trau@@ 3
Recycling 3
Catholi@@ 3
KE@@ 3
SM@@ 3
Anatom@@ 3
stec@@ 3
Yog@@ 3
Inti@@ 3
tun 3
Amer@@ 3
Revol@@ 3
Hus@@ 3
Sie@@ 3
gests 3
rigi@@ 3
waff@@ 3
Gaz@@ 3
Bau@@ 3
Pollen 3
tau@@ 3
Logo 3
* 3
bola 3
genial 3
g. 3
mari@@ 3
haus 3
dialog@@ 3
hypothe@@ 3
ade@@ 3
Belie@@ 3
Rau@@ 3
gross@@ 3
isha 3
assen 3
lige 3
pyra@@ 3
Amazonas 3
Spiegel 3
mend 3
É@@ 3
itzer 3
Guar@@ 3
anta 3
Gras@@ 3
enk@@ 3
Hunger 3
Ultr@@ 3
Secon@@ 3
ble-@@ 3
pps 3
hart 3
leist@@ 3
Athei@@ 3
chao@@ 3
Protot@@ 3
Fund@@ 3
Rei@@ 3
Stur@@ 3
Aar@@ 3
tail-@@ 2
spiel 2
nein 2
drate 2
rote 2
Hero@@ 2
este 2
alga@@ 2
Intervention 2
kti@@ 2
Papa 2
angen@@ 2
Garage 2
ร 2
Contain@@ 2
Russ@@ 2
Automobil@@ 2
lass 2
PL 2
asmus 2
Fak@@ 2
Schwei@@ 2
Pass@@ 2
chemo@@ 2
Dat@@ 2
rass@@ 2
Anth@@ 2
Balance 2
Experiment 2
torium 2
gung 2
rief 2
splan@@ 2
Fisch@@ 2
perman@@ 2
spontan@@ 2
sexu@@ 2
absolutes 2
honest@@ 2
lei 2
Mechan@@ 2
fant 2
element@@ 2
gely 2
pol 2
llan@@ 2
issance 2
exponenti@@ 2
alen 2
Baseball 2
Isol@@ 2
Coc@@ 2
Spon@@ 2
taneously 2
Tests 2
ë 2
riss 2
etings 2
entrop@@ 2
hia 2
aff 2
Syl@@ 2
Golf 2
quiet@@ 2
abel@@ 2
Neu@@ 2
Das 2
Trag@@ 2
debat@@ 2
lager 2
Zer@@ 2
Fok@@ 2
Epidemi@@ 2
Transport 2
Explosion 2
deck@@ 2
Laut 2
Vag@@ 2
om-@@ 2
Wer@@ 2
ucky 2
Panthe@@ 2
Hier@@ 2
Mala@@ 2
Fans 2
Á@@ 2
Fei@@ 2
thema 2
Operation 2
erfor@@ 2
Sud@@ 2
haps 2
ü@@ 2
ô@@ 2
Origami 2
stag 2
cil 2
Every@@ 2
lang@@ 2
ù@@ 2
terranean 2
Extra-@@ 2
Seine 2
chert 2
Stere@@ 2
politik 2
What@@ 2
Wal-@@ 2
hl 2
Ritu@@ 2
seg@@ 2
leo 2
Moun@@ 2
Regen@@ 2
eath 2
procedur@@ 2
rand 2
Spit@@ 2
essen 2
proper@@ 2
trum 2
esteem 2
k. 2
Websites 2
noby@@ 2
Kunst@@ 2
Panz@@ 2
Pear@@ 2
Schn@@ 2
hin 2
Planet@@ 2
Oran@@ 2
Doll@@ 2
depressi@@ 2
zt 2
Motor@@ 2
entre@@ 2
dick 2
gei@@ 2
Nest 2
Zah@@ 2
Feu@@ 2
Chromos@@ 2
Meeting 2
relation@@ 2
leiter 2
geh@@ 2
iges 2
ophistic@@ 2
Cartoons 2
yrin@@ 2
Asteroi@@ 2
ystem@@ 2
rema@@ 2
esse 2
Exist@@ 2
Explos@@ 2
Mix@@ 2
Pro-@@ 2
GPS-@@ 2
verlei@@ 2
olders 2
beet@@ 2
egic 2
hast 2
syste@@ 2
immel 2
forman@@ 2
aida 2
genug 2
ondri@@ 2
Kapital 2
Wen@@ 2
Fan@@ 2
Jour@@ 2
Ech@@ 2
aup@@ 2
Partner 2
Ord@@ 2
Kon@@ 2
intelligen@@ 2
Montan@@ 2
Fon@@ 2
answer@@ 2
osaur@@ 2
Ware 2
ahen 2
astero@@ 2
Hosp@@ 2
dee 2
Trick@@ 2
Egypti@@ 2
Banjo 2
eso 2
disab@@ 2
Gift 2
Chines@@ 2
Stimulation 2
saf@@ 2
Kom@@ 2
3000 2
hr 2
inge 2
kop@@ 2
arden 2
Stir@@ 2
Nim@@ 2
Thei@@ 2
Evergl@@ 2
Kum@@ 2
endanger@@ 2
Piz@@ 2
Blogger 2
enem@@ 2
br 2
Hast 2
blatt 2
cht@@ 2
Myth@@ 2
Jar@@ 2
symp@@ 2
Manager 2
Teles@@ 2
olymp@@ 2
198@@ 2
Appl@@ 2
Laptops 2
whel@@ 2
Kill@@ 2
Alexand@@ 2
geri@@ 2
für 2
Brett 2
Tunnel 2
tland 2
Insel 2
heavi@@ 2
่ 2
SA-@@ 2
Geni@@ 2
bile 2
puber@@ 2
gd@@ 2
Gut 2
Tau@@ 2
erst@@ 2
Color@@ 2
Koll@@ 2
Songs 2
ffer@@ 2
ć 2
ighted 2
Story@@ 2
Brie@@ 2
lung@@ 2
zig 2
Intu@@ 2
Sei@@ 2
Mart 2
Sand 2
Idi@@ 2
Rehabilitation 2
mma 2
T-S@@ 2
newsp@@ 2
Mell@@ 2
Market@@ 2
Golf@@ 2
Moment 2
Bast@@ 2
Voy@@ 2
ongside 2
Pir@@ 2
Niem@@ 2
Cartoon 2
Chinas 2
Sandwich 2
Klu@@ 2
Photosyn@@ 2
Option 2
Psychop@@ 2
Status 2
Male 2
² 2
bele@@ 2
Asthma 2
brium 2
Cousins 2
chti@@ 2
bable 2
fined 2
Bus 2
stelle 2
fiz@@ 2
abor 2
Dumm@@ 2
Insulin 2
eme 2
putation 2
Block@@ 2
candi@@ 2
tung 2
Imm@@ 2
Museums 2
beach@@ 2
Econ@@ 2
wana 2
Kamp@@ 2
Dunk@@ 2
Daw@@ 2
metho@@ 2
Penn@@ 2
klen 2
eigen@@ 2
besser 2
Zy@@ 2
stel 2
Lap@@ 2
possi@@ 2
omon 2
tak@@ 2
kg 2
wo 2
omen 2
syl@@ 2
Scre@@ 2
Produ@@ 2
amoun@@ 2
Algorith@@ 2
Hack@@ 2
Dimit@@ 2
Moment@@ 2
Institution 2
Die@@ 2
Delph@@ 2
Acker@@ 2
Experiments 2
deter 2
Geld@@ 2
organis@@ 2
sim@@ 2
Ler@@ 2
CP@@ 2
ativ@@ 2
okus@@ 2
YouTu@@ 2
Ethanol 2
relig@@ 2
Nach@@ 2
Finan@@ 2
Trends 2
Reputation 2
ziger 2
schmu@@ 2
leb@@ 2
Cholera 2
eillance 2
kur@@ 2
mire 2
utzen 2
Spri@@ 2
Ano@@ 2
Clear@@ 2
tuber@@ 2
.... 2
kam@@ 2
Reich@@ 2
Mini@@ 2
â@@ 2
geb@@ 2
Tsch@@ 2
etc. 2
wird 2
zwei@@ 2
strau@@ 2
bie@@ 2
bs@@ 2
Radio@@ 2
liger 2
ffen 2
Situation 2
hie 2
Spot@@ 2
umph 2
Improvis@@ 2
Atlan@@ 2
molec@@ 2
Gravitation 2
Refer@@ 2
Inspiration 2
wei 2
nem 2
Zit@@ 2
Barbar@@ 2
langer 2
PR-@@ 2
Boot 2
despread 2
Flus@@ 2
abeth 2
Chance 2
Dread@@ 2
£ 2
Jes@@ 2
alumin@@ 2
Symp@@ 2
ppe@@ 2
Rom 2
Teller 2
Bio-@@ 2
Rak@@ 2
rops 2
gust 2
Zir@@ 2
scha@@ 2
abe 2
Mathe@@ 2
alles 2
awi 2
Kell@@ 2
citizen@@ 2
Kh@@ 2
abund@@ 2
Roh@@ 2
nie@@ 2
See@@ 2
Sport 2
thema@@ 2
Guatem@@ 2
BI@@ 2
prü@@ 2
Amat@@ 2
bule 2
Stock@@ 2
Festi@@ 2
Geh@@ 2
ner-@@ 2
zem 2
Anti-@@ 2
Cass@@ 2
iten 2
DNA-@@ 2
testoster@@ 2
Zip@@ 2
Tier 2
Innov@@ 2
sulfi@@ 2
Nie@@ 2
ms@@ 2
allel 2
sacrif@@ 2
Koch 2
wis 2
kum@@ 2
Fot@@ 2
Athle@@ 2
Bits 2
Rep@@ 2
shif@@ 2
beri@@ 2
pedition 2
º@@ 1
Park@@ 1
occ@@ 1
viel@@ 1
wiss 1
perspec@@ 1
Schl@@ 1
esen 1
spru@@ 1
Hut 1
oten 1
arab@@ 1
gluc@@ 1
aze@@ 1
ò@@ 1
ler-@@ 1
d. 1
Original 1
ū@@ 1
bam@@ 1
jap@@ 1
assen@@ 1
hetor@@ 1
Å@@ 1
Bein@@ 1
eleg@@ 1
Asteroid 1
ensweise 1
ober@@ 1
Wal 1
zip@@ 1
Agenda 1
sä@@ 1
Cricket 1
Ding 1
einiger 1
nei@@ 1
enten@@ 1
Invasion 1
Compu@@ 1
etab@@ 1
Nen@@ 1
allgemeinen 1
sgiving 1
Intuition 1
Terrain 1
symb@@ 1
Gö@@ 1
azz 1
Zei@@ 1
Dach@@ 1
chten@@ 1
wain 1
Gedanken 1
Dies@@ 1
Sili@@ 1
bral 1
Bald 1
rid@@ 1
Libr@@ 1
Foie 1
bender 1
Ital@@ 1
laden 1
Dialog 1
utz 1
mptions 1
meisters 1
Bem@@ 1
manufactur@@ 1
Barrel 1
iga 1
Fischer@@ 1
Films 1
Gem@@ 1
ocortex 1
Ski 1
chs@@ 1
Kenne@@ 1
lege 1
ě@@ 1
timore 1
jen@@ 1
Jungfrau 1
kul@@ 1
onen 1
Schot@@ 1
osch@@ 1
kab@@ 1
lichen 1
Leu@@ 1
haft@@ 1
neum@@ 1
aghetti 1
inta@@ 1
Materi@@ 1
Epo@@ 1
dopp@@ 1
Kauf@@ 1
Blogs 1
isra@@ 1
Netfli@@ 1
challen@@ 1
Regen 1
Vers@@ 1
Septem@@ 1
ersch@@ 1
titu@@ 1
wider@@ 1
Engel 1
fahr@@ 1
Du 1
fs@@ 1
Oreg@@ 1
iken 1
tack@@ 1
IDE@@ 1
krieg 1
Dah@@ 1
hyth@@ 1
National@@ 1
tier@@ 1
Dass 1
Kunst 1
ien@@ 1
magn@@ 1
Kli@@ 1
Hai 1
eillan@@ 1
bergen 1
haft 1
bestra@@ 1
ï 1
Emi@@ 1
Glam@@ 1
Kak@@ 1
Hypo@@ 1
ppi 1
beam@@ 1
ã@@ 1
kor@@ 1
öh@@ 1
Apps 1
Nation@@ 1
frie@@ 1
Soft@@ 1
Toten 1
baum 1
ener@@ 1
auf 1
kinder@@ 1
trude 1
ketball 1
Schachtel 1
gner 1
Kent@@ 1
Spie@@ 1
rina 1
nen@@ 1
Morgen 1
Minist@@ 1
Flei@@ 1
Gius@@ 1
hren@@ 1
ย@@ 1
Hybri@@ 1
occupi@@ 1
送 1
wavel@@ 1
sein@@ 1
Fabri@@ 1
tue 1
inev@@ 1
rt 1
Misch@@ 1
ë@@ 1
Nord@@ 1
neue 1
Pip@@ 1
Film@@ 1
Pandem@@ 1
Input 1
lö@@ 1
jon@@ 1
ø 1
tome 1
infr@@ 1
erzielen 1
Je 1
chtung 1
Impulse 1
Gouver@@ 1
Mö@@ 1
welle 1
äs@@ 1
Pause 1
Tal 1
urch 1
korn 1
athon 1
tise 1
Rez@@ 1
Funk@@ 1
archit@@ 1
narra@@ 1
ē 1
Wurzel 1
Toler@@ 1
Immig@@ 1
Josep@@ 1
Alphab@@ 1
Boot@@ 1
frank@@ 1
Designs 1
perto@@ 1
Material 1
Engl@@ 1
estone 1
tradition@@ 1
alt@@ 1
Sign@@ 1
risten 1
elet@@ 1
ī 1
Keller 1
äum@@ 1
Supercomputer 1
mmet@@ 1
Protein 1
Rek@@ 1
eurship 1
Nir@@ 1
tagi@@ 1
Symbo@@ 1
ritt 1
Christop@@ 1
remember@@ 1
abend 1
Mais 1
Lad@@ 1
Supernov@@ 1
raus 1
mors 1
Brasili@@ 1
lig 1
CRIS@@ 1
lok@@ 1
fred 1
4.000 1
bast@@ 1
Transi@@ 1
commend 1
Isl@@ 1
Infr@@ 1
Ero@@ 1
scho@@ 1
ertes 1
Demon@@ 1
Sier@@ 1
drow@@ 1
Wirk@@ 1
keiten 1
Sput@@ 1
Nest@@ 1
gener 1
welche 1
inte@@ 1
Stati@@ 1
Synap@@ 1
teu@@ 1
demy 1
bei 1
gefil@@ 1
arith@@ 1
therlands 1
Dek@@ 1
verr@@ 1
Gest@@ 1
End@@ 1
Cous@@ 1
mensch@@ 1
tsp@@ 1
ulti@@ 1
Moral@@ 1
univer@@ 1
humanit@@ 1
asen 1
Benz@@ 1
ente@@ 1
unpreced@@ 1
Schad@@ 1
rah@@ 1
Luf@@ 1
Kinder@@ 1
kaner 1
Mai 1
Ja 1
Kolle@@ 1
Stell@@ 1
Schach@@ 1
Alphabet 1
atsch 1
Ih@@ 1
ihu@@ 1
desto 1
compon@@ 1
Mode 1
ially 1
dank 1
wand@@ 1
hell@@ 1
Vog@@ 1
osystems 1
Noti@@ 1
wege 1
Eben@@ 1
erm@@ 1
inju@@ 1
Source 1
unkno@@ 1
Kul@@ 1
Stimul@@ 1
synthe@@ 1
bt 1
uch 1
culosis 1
companied 1
spri@@ 1
Margar@@ 1
tot 1
dat 1
Pyrami@@ 1
poor@@ 1
asili@@ 1
blau 1
volution 1
schen@@ 1
aum 1
witz@@ 1
habit@@ 1
Mein 1
Gestalt 1
HO 1
sylvania 1
rett@@ 1
mms 1
Administ@@ 1
zah@@ 1
Bar 1
entrepren@@ 1
Janu@@ 1
葱 1
chimpanz@@ 1
Schau@@ 1
spezifisch 1
interest@@ 1
Tie@@ 1
Horizon@@ 1
movi@@ 1
kun@@ 1
auf@@ 1
quired 1
Hotels 1
Fest@@ 1
Č@@ 1
tner 1
mel 1
mens 1
Anschluss 1
Krab@@ 1
Rest 1
Wet@@ 1
Das@@ 1
Anima@@ 1
sig 1
guten 1
Gang@@ 1
Apri@@ 1
Hex 1
kol@@ 1
Kais@@ 1
Fantas@@ 1
Sz@@ 1
PI@@ 1
¡ 1
Bilder@@ 1
hima 1
Neg@@ 1
Potential 1
bn@@ 1
Facebook-@@ 1
neurosci@@ 1
herein 1
Million@@ 1
Tsun@@ 1
metap@@ 1
ubiquit@@ 1
tze 1
Russi@@ 1
aghetti@@ 1
produ@@ 1
uter 1
Dau@@ 1
Bear@@ 1
Manipulation 1
Knor@@ 1
incredi@@ 1
Comic@@ 1
wie@@ 1
chen@@ 1
Videos 1
dau@@ 1
Sens@@ 1
Abend 1
Kern 1
Haut 1
boundar@@ 1
Mill@@ 1
exo@@ 1
regnet 1
wus@@ 1
previ@@ 1
Dollars 1
CO2-@@ 1
Taschen 1
olle 1
absen@@ 1
Haf@@ 1
möglich 1
denly 1
abli@@ 1
gerin 1
Klin@@ 1
Ushahi@@ 1
Geb@@ 1
Still@@ 1
Schizophren@@ 1
There@@ 1
Guer@@ 1
Visu@@ 1
mende 1
über@@ 1
Meer 1
Heil@@ 1
Viet@@ 1
Jazz@@ 1
stim@@ 1
diesel@@ 1
agem@@ 1
Ur-@@ 1
Pharma@@ 1
ā 1
Kindergarten 1
gab 1
UN-@@ 1
rech@@ 1
Spor@@ 1
eher 1
Carto@@ 1
offic@@ 1
eyn@@ 1
Brut@@ 1
.. 1
arib@@ 1
sei 1
Manhat@@ 1
Geist@@ 1
Alt@@ 1
use@@ 1
vention@@ 1
Orgas@@ 1
apiens 1
vermin@@ 1
nek@@ 1
Zw@@ 1
ganz 1
sag@@ 1
Tradition 1
abul@@ 1
ī@@ 1
dar 1
Maga@@ 1
Fleisch@@ 1
Transistor@@ 1
Idee 1
zur 1
tchen 1
Bank@@ 1
Alumin@@ 1
Helium 1
gebra 1
aft 1
Tami@@ 1
Recy@@ 1
Konz@@ 1
boo 1
US-@@ 1
ör@@ 1
kli@@ 1
Illin@@ 1
zul@@ 1
habe 1
€ 1
soldi@@ 1
Meme 1
Hippocampus 1
alber@@ 1
System@@ 1
Kari@@ 1
balanc@@ 1
Regel@@ 1
soc@@ 1
druck 1
Mutter@@ 1
dolph@@ 1
aland 1
London@@ 1
chni@@ 1
Ich 1
throughs 1
iche 1
Schwe@@ 1
Amt 1
ktu@@ 1
ingenu@@ 1
ensch@@ 1
Angiogen@@ 1
elen 1
Kamer@@ 1
ande 1
Install@@ 1
veau 1
ina-@@ 1
mt 1
Laser 1
sear@@ 1
Reserv@@ 1
pneum@@ 1
Kampf 1
ghters 1
endar 1
Sport@@ 1
Twitter-@@ 1
Londoner 1
Tenn@@ 1
你 1
phen 1
Internationale 1
Implan@@ 1
Instrument 1
Mehr@@ 1
Renn@@ 1
osse 1
Just@@ 1
bil 1
Hydro@@ 1
cke 1
Propaganda 1
Flag@@ 1
AIDS-@@ 1
garten 1
mosqui@@ 1
bein@@ 1
bla 1
Interview 1
Pitts@@ 1
Haus 1
Hamburger 1
sacri@@ 1
zin 1
fte 1
Fang@@ 1
Poster 1
Protest 1
Afghan@@ 1
Tep@@ 1
Stop@@ 1
Interpretation 1
acken 1
Eigentum 1
ameras 1
zel@@ 1
Best@@ 1
Instin@@ 1
Abstra@@ 1
Wander@@ 1
allas 1
Charlot@@ 1
chen-@@ 1
Ster@@ 1
Betra@@ 1
Chemo@@ 1
youn@@ 1
U.S.@@ 1
geschützt 1
Mitch@@ 1
Zimmer 1
Such@@ 1
globale 1
kom@@ 1
Grab@@ 1
ipment 1
schn@@ 1
Oklah@@ 1
eful@@ 1
Phoeni@@ 1
Rönt@@ 1
mah@@ 1
fect 1
Arist@@ 1
Geruch 1
frequ@@ 1
ielle 1
BA-@@ 1
seine 1
ums@@ 1
vestock 1
Berg 1
anol 1
isten 1
teles@@ 1
Republi@@ 1
ewi@@ 1
Mubar@@ 1
com. 1
vasion 1
catastrop@@ 1
Ç@@ 1
Flori@@ 1
Peer-@@ 1
Sebast@@ 1
Millenni@@ 1
Ex-@@ 1
illis 1
Definition 1
à@@ 1
Himm@@ 1
Fan 1
ische 1
Transformation 1
Die 1
teur 1
durch 1
Vitamin 1
tet 1
ย 1
Version 1
Chips 1
Holz@@ 1
Expan@@ 1
bigu@@ 1
west@@ 1
recht@@ 1
Psycho@@ 1
eben 1
to-day 1
Agn@@ 1
Team@@ 1
Landes 1
richt 1
Gegen@@ 1
vere 1
Eisen 1
With@@ 1
Ira@@ 1
Maus@@ 1
ohn 1
Region 1
egas 1
Transplantation 1
genöss@@ 1
ungen 1
tik@@ 1
bizar@@ 1
one-on-@@ 1
mote 1
Probab@@ 1
Diagn@@ 1
coca@@ 1
Testoster@@ 1
issi@@ 1
volu@@ 1
Jeans 1
fern 1
Jup@@ 1
Pend@@ 1
mei@@ 1
Rede 1
Zeu@@ 1
Transplan@@ 1
Schi@@ 1
Expedition 1
alle 1
Michig@@ 1
sag 1
Tag 1
Wie@@ 1
ö@@ 1
Peking 1
Meditation 1
ingen 1
Clip 1
jung@@ 1
platte 1
stein@@ 1
Profit 1
noch 1
Grap@@ 1
likel@@ 1
era@@ 1
chnologi@@ 1
anz 1
Ganz 1
Kraft 1
Impul@@ 1
mathemati@@ 1
gs-@@ 1
Jem@@ 1
Element 1
veland 1
kends 1
fik@@ 1
Restaurants 1
undation 1
-Bom@@ 1
eres 1
Kuns@@ 1
Gast@@ 1
Milch 1
Kongo 1
oux 1
Cluster 1
Design-@@ 1
autor@@ 1
